{
  "version": "1.0",
  "truncation": null,
  "padding": null,
  "added_tokens": [
    {
      "id": 0,
      "content": "<s>",
      "single_word": false,
      "lstrip": false,
      "rstrip": false,
      "normalized": false,
      "special": true
    },
    {
      "id": 1,
      "content": "<pad>",
      "single_word": false,
      "lstrip": false,
      "rstrip": false,
      "normalized": false,
      "special": true
    },
    {
      "id": 2,
      "content": "</s>",
      "single_word": false,
      "lstrip": false,
      "rstrip": false,
      "normalized": false,
      "special": true
    },
    {
      "id": 3,
      "content": "<unk>",
      "single_word": false,
      "lstrip": false,
      "rstrip": false,
      "normalized": false,
      "special": true
    },
    {
      "id": 4,
      "content": "<mask>",
      "single_word": false,
      "lstrip": false,
      "rstrip": false,
      "normalized": false,
      "special": true
    }
  ],
  "normalizer": {
    "type": "Sequence",
    "normalizers": [
      {
        "type": "NFKC"
      }
    ]
  },
  "pre_tokenizer": {
    "type": "Whitespace"
  },
  "post_processor": {
    "type": "TemplateProcessing",
    "single": [
      {
        "SpecialToken": {
          "id": "<s>",
          "type_id": 0
        }
      },
      {
        "Sequence": {
          "id": "A",
          "type_id": 0
        }
      },
      {
        "SpecialToken": {
          "id": "</s>",
          "type_id": 0
        }
      }
    ],
    "pair": [
      {
        "SpecialToken": {
          "id": "<s>",
          "type_id": 0
        }
      },
      {
        "Sequence": {
          "id": "A",
          "type_id": 0
        }
      },
      {
        "SpecialToken": {
          "id": "</s>",
          "type_id": 0
        }
      },
      {
        "SpecialToken": {
          "id": "</s>",
          "type_id": 0
        }
      },
      {
        "Sequence": {
          "id": "B",
          "type_id": 0
        }
      },
      {
        "SpecialToken": {
          "id": "</s>",
          "type_id": 0
        }
      }
    ],
    "special_tokens": {
      "</s>": {
        "id": "</s>",
        "ids": [
          2
        ],
        "tokens": [
          "</s>"
        ]
      },
      "<s>": {
        "id": "<s>",
        "ids": [
          0
        ],
        "tokens": [
          "<s>"
        ]
      }
    }
  },
  "decoder": null,
  "model": {
    "type": "BPE",
    "dropout": null,
    "unk_token": "<unk>",
    "continuing_subword_prefix": null,
    "end_of_word_suffix": null,
    "fuse_unk": false,
    "byte_fallback": false,
    "ignore_merges": false,
    "vocab": {
      "<s>": 0,
      "<pad>": 1,
      "</s>": 2,
      "<unk>": 3,
      "<mask>": 4,
      "!": 5,
      "\"": 6,
      "'": 7,
      "(": 8,
      ")": 9,
      ",": 10,
      "-": 11,
      ".": 12,
      "0": 13,
      "1": 14,
      "2": 15,
      "3": 16,
      "4": 17,
      "5": 18,
      "6": 19,
      "7": 20,
      "8": 21,
      "9": 22,
      ":": 23,
      ";": 24,
      "<": 25,
      ">": 26,
      "?": 27,
      "A": 28,
      "B": 29,
      "C": 30,
      "D": 31,
      "E": 32,
      "F": 33,
      "G": 34,
      "H": 35,
      "I": 36,
      "J": 37,
      "K": 38,
      "L": 39,
      "M": 40,
      "N": 41,
      "O": 42,
      "P": 43,
      "Q": 44,
      "R": 45,
      "S": 46,
      "T": 47,
      "U": 48,
      "V": 49,
      "W": 50,
      "X": 51,
      "Y": 52,
      "Z": 53,
      "_": 54,
      "a": 55,
      "b": 56,
      "c": 57,
      "d": 58,
      "e": 59,
      "f": 60,
      "g": 61,
      "h": 62,
      "i": 63,
      "j": 64,
      "k": 65,
      "l": 66,
      "m": 67,
      "n": 68,
      "o": 69,
      "p": 70,
      "q": 71,
      "r": 72,
      "s": 73,
      "t": 74,
      "u": 75,
      "v": 76,
      "w": 77,
      "x": 78,
      "y": 79,
      "z": 80,
      "à": 81,
      "á": 82,
      "è": 83,
      "é": 84,
      "ì": 85,
      "í": 86,
      "ñ": 87,
      "ò": 88,
      "ó": 89,
      "ô": 90,
      "ù": 91,
      "ú": 92,
      "ü": 93,
      "ā": 94,
      "ē": 95,
      "ě": 96,
      "ī": 97,
      "ō": 98,
      "ū": 99,
      "ǎ": 100,
      "ǐ": 101,
      "ǒ": 102,
      "ǔ": 103,
      "ǘ": 104,
      "ǚ": 105,
      "ǜ": 106,
      "ɑ": 107,
      "ɡ": 108,
      "ˇ": 109,
      "Γ": 110,
      "Δ": 111,
      "Ω": 112,
      "α": 113,
      "γ": 114,
      "λ": 115,
      "μ": 116,
      "π": 117,
      "ρ": 118,
      "σ": 119,
      "є": 120,
      "、": 121,
      "。": 122,
      "〇": 123,
      "《": 124,
      "》": 125,
      "【": 126,
      "】": 127,
      "ㄥ": 128,
      "ㄩ": 129,
      "䜩": 130,
      "一": 131,
      "丁": 132,
      "七": 133,
      "万": 134,
      "丈": 135,
      "三": 136,
      "上": 137,
      "下": 138,
      "不": 139,
      "与": 140,
      "丐": 141,
      "丑": 142,
      "专": 143,
      "且": 144,
      "丕": 145,
      "世": 146,
      "丘": 147,
      "丙": 148,
      "业": 149,
      "丛": 150,
      "东": 151,
      "丝": 152,
      "丞": 153,
      "丢": 154,
      "两": 155,
      "严": 156,
      "丧": 157,
      "丨": 158,
      "个": 159,
      "丫": 160,
      "中": 161,
      "丰": 162,
      "串": 163,
      "临": 164,
      "丶": 165,
      "丸": 166,
      "丹": 167,
      "为": 168,
      "主": 169,
      "丽": 170,
      "举": 171,
      "丿": 172,
      "乃": 173,
      "久": 174,
      "么": 175,
      "义": 176,
      "之": 177,
      "乌": 178,
      "乍": 179,
      "乎": 180,
      "乏": 181,
      "乐": 182,
      "乒": 183,
      "乓": 184,
      "乔": 185,
      "乖": 186,
      "乘": 187,
      "乙": 188,
      "乜": 189,
      "九": 190,
      "乞": 191,
      "也": 192,
      "习": 193,
      "乡": 194,
      "书": 195,
      "买": 196,
      "乱": 197,
      "乳": 198,
      "乾": 199,
      "了": 200,
      "予": 201,
      "争": 202,
      "事": 203,
      "二": 204,
      "亍": 205,
      "于": 206,
      "亏": 207,
      "云": 208,
      "互": 209,
      "五": 210,
      "井": 211,
      "亘": 212,
      "亚": 213,
      "些": 214,
      "亞": 215,
      "亟": 216,
      "亡": 217,
      "亢": 218,
      "交": 219,
      "亥": 220,
      "亦": 221,
      "产": 222,
      "亨": 223,
      "亩": 224,
      "享": 225,
      "京": 226,
      "亭": 227,
      "亮": 228,
      "亲": 229,
      "亳": 230,
      "亵": 231,
      "亶": 232,
      "人": 233,
      "亻": 234,
      "亿": 235,
      "什": 236,
      "仁": 237,
      "仃": 238,
      "仄": 239,
      "仅": 240,
      "仆": 241,
      "仇": 242,
      "今": 243,
      "介": 244,
      "仍": 245,
      "从": 246,
      "仑": 247,
      "仓": 248,
      "仔": 249,
      "仕": 250,
      "他": 251,
      "仗": 252,
      "付": 253,
      "仙": 254,
      "仝": 255,
      "仞": 256,
      "仡": 257,
      "代": 258,
      "令": 259,
      "以": 260,
      "仨": 261,
      "仪": 262,
      "们": 263,
      "仰": 264,
      "仲": 265,
      "仵": 266,
      "件": 267,
      "价": 268,
      "任": 269,
      "份": 270,
      "仿": 271,
      "企": 272,
      "伉": 273,
      "伊": 274,
      "伍": 275,
      "伎": 276,
      "伏": 277,
      "伐": 278,
      "休": 279,
      "伕": 280,
      "众": 281,
      "优": 282,
      "伙": 283,
      "会": 284,
      "伞": 285,
      "伟": 286,
      "传": 287,
      "伢": 288,
      "伤": 289,
      "伥": 290,
      "伦": 291,
      "伧": 292,
      "伪": 293,
      "伫": 294,
      "伯": 295,
      "估": 296,
      "伴": 297,
      "伶": 298,
      "伸": 299,
      "伺": 300,
      "似": 301,
      "伽": 302,
      "佃": 303,
      "但": 304,
      "位": 305,
      "低": 306,
      "住": 307,
      "佐": 308,
      "佑": 309,
      "体": 310,
      "何": 311,
      "佗": 312,
      "佘": 313,
      "余": 314,
      "佚": 315,
      "佛": 316,
      "作": 317,
      "佝": 318,
      "佞": 319,
      "佟": 320,
      "你": 321,
      "佣": 322,
      "佩": 323,
      "佬": 324,
      "佯": 325,
      "佰": 326,
      "佳": 327,
      "佶": 328,
      "佷": 329,
      "佺": 330,
      "佻": 331,
      "佼": 332,
      "使": 333,
      "侂": 334,
      "侃": 335,
      "侄": 336,
      "來": 337,
      "侈": 338,
      "侉": 339,
      "例": 340,
      "侍": 341,
      "侎": 342,
      "侏": 343,
      "侔": 344,
      "侗": 345,
      "供": 346,
      "依": 347,
      "侠": 348,
      "侣": 349,
      "侥": 350,
      "侦": 351,
      "侧": 352,
      "侨": 353,
      "侩": 354,
      "侬": 355,
      "侮": 356,
      "侯": 357,
      "侵": 358,
      "便": 359,
      "促": 360,
      "俄": 361,
      "俅": 362,
      "俊": 363,
      "俎": 364,
      "俏": 365,
      "俐": 366,
      "俑": 367,
      "俗": 368,
      "俘": 369,
      "俚": 370,
      "保": 371,
      "俞": 372,
      "俟": 373,
      "信": 374,
      "俣": 375,
      "俨": 376,
      "俩": 377,
      "俪": 378,
      "俭": 379,
      "修": 380,
      "俯": 381,
      "俱": 382,
      "俶": 383,
      "俸": 384,
      "俺": 385,
      "俾": 386,
      "個": 387,
      "倌": 388,
      "倍": 389,
      "倏": 390,
      "們": 391,
      "倒": 392,
      "倔": 393,
      "倘": 394,
      "候": 395,
      "倚": 396,
      "倜": 397,
      "借": 398,
      "倡": 399,
      "倥": 400,
      "倦": 401,
      "倨": 402,
      "倩": 403,
      "倪": 404,
      "倭": 405,
      "债": 406,
      "值": 407,
      "倾": 408,
      "偁": 409,
      "偃": 410,
      "假": 411,
      "偈": 412,
      "偌": 413,
      "偎": 414,
      "偏": 415,
      "偕": 416,
      "做": 417,
      "停": 418,
      "健": 419,
      "偬": 420,
      "偶": 421,
      "偷": 422,
      "偻": 423,
      "偿": 424,
      "傀": 425,
      "傅": 426,
      "傍": 427,
      "備": 428,
      "傣": 429,
      "傥": 430,
      "储": 431,
      "傩": 432,
      "催": 433,
      "傲": 434,
      "傳": 435,
      "傷": 436,
      "傻": 437,
      "像": 438,
      "僖": 439,
      "僚": 440,
      "僧": 441,
      "僭": 442,
      "僮": 443,
      "僵": 444,
      "僻": 445,
      "儆": 446,
      "儋": 447,
      "儒": 448,
      "儡": 449,
      "儿": 450,
      "兀": 451,
      "允": 452,
      "元": 453,
      "兄": 454,
      "充": 455,
      "兆": 456,
      "先": 457,
      "光": 458,
      "克": 459,
      "免": 460,
      "兑": 461,
      "兒": 462,
      "兔": 463,
      "兖": 464,
      "党": 465,
      "兜": 466,
      "兢": 467,
      "入": 468,
      "內": 469,
      "全": 470,
      "兩": 471,
      "八": 472,
      "公": 473,
      "六": 474,
      "兮": 475,
      "兰": 476,
      "共": 477,
      "关": 478,
      "兴": 479,
      "兵": 480,
      "其": 481,
      "具": 482,
      "典": 483,
      "兹": 484,
      "养": 485,
      "兼": 486,
      "兽": 487,
      "冀": 488,
      "内": 489,
      "冇": 490,
      "冈": 491,
      "冉": 492,
      "册": 493,
      "再": 494,
      "冒": 495,
      "冕": 496,
      "冗": 497,
      "写": 498,
      "军": 499,
      "农": 500,
      "冠": 501,
      "冢": 502,
      "冤": 503,
      "冥": 504,
      "冬": 505,
      "冯": 506,
      "冰": 507,
      "冲": 508,
      "决": 509,
      "况": 510,
      "冶": 511,
      "冷": 512,
      "冻": 513,
      "冼": 514,
      "冽": 515,
      "净": 516,
      "凄": 517,
      "准": 518,
      "凇": 519,
      "凉": 520,
      "凋": 521,
      "凌": 522,
      "减": 523,
      "凑": 524,
      "凛": 525,
      "凝": 526,
      "几": 527,
      "凡": 528,
      "凤": 529,
      "凫": 530,
      "凭": 531,
      "凯": 532,
      "凰": 533,
      "凳": 534,
      "凶": 535,
      "凸": 536,
      "凹": 537,
      "出": 538,
      "击": 539,
      "凼": 540,
      "函": 541,
      "凿": 542,
      "刀": 543,
      "刁": 544,
      "刃": 545,
      "分": 546,
      "切": 547,
      "刈": 548,
      "刊": 549,
      "刍": 550,
      "刎": 551,
      "刑": 552,
      "划": 553,
      "列": 554,
      "刘": 555,
      "则": 556,
      "刚": 557,
      "创": 558,
      "初": 559,
      "删": 560,
      "判": 561,
      "別": 562,
      "刨": 563,
      "利": 564,
      "别": 565,
      "刮": 566,
      "到": 567,
      "制": 568,
      "刷": 569,
      "券": 570,
      "刹": 571,
      "刺": 572,
      "刻": 573,
      "刽": 574,
      "剁": 575,
      "剂": 576,
      "剃": 577,
      "削": 578,
      "剌": 579,
      "前": 580,
      "剐": 581,
      "剑": 582,
      "剔": 583,
      "剖": 584,
      "剛": 585,
      "剜": 586,
      "剡": 587,
      "剥": 588,
      "剧": 589,
      "剩": 590,
      "剪": 591,
      "副": 592,
      "割": 593,
      "剽": 594,
      "剿": 595,
      "劈": 596,
      "力": 597,
      "劝": 598,
      "办": 599,
      "功": 600,
      "加": 601,
      "务": 602,
      "劣": 603,
      "动": 604,
      "助": 605,
      "努": 606,
      "劫": 607,
      "劭": 608,
      "励": 609,
      "劲": 610,
      "劳": 611,
      "劵": 612,
      "劾": 613,
      "势": 614,
      "勃": 615,
      "勇": 616,
      "勉": 617,
      "勋": 618,
      "勐": 619,
      "勒": 620,
      "動": 621,
      "勖": 622,
      "勘": 623,
      "務": 624,
      "募": 625,
      "勤": 626,
      "勰": 627,
      "勺": 628,
      "勾": 629,
      "勿": 630,
      "匀": 631,
      "包": 632,
      "匆": 633,
      "匈": 634,
      "匍": 635,
      "匐": 636,
      "匕": 637,
      "化": 638,
      "北": 639,
      "匙": 640,
      "匝": 641,
      "匠": 642,
      "匡": 643,
      "匣": 644,
      "匪": 645,
      "匮": 646,
      "匹": 647,
      "区": 648,
      "医": 649,
      "匾": 650,
      "匿": 651,
      "十": 652,
      "千": 653,
      "升": 654,
      "午": 655,
      "卉": 656,
      "半": 657,
      "华": 658,
      "协": 659,
      "卑": 660,
      "卒": 661,
      "卓": 662,
      "单": 663,
      "卖": 664,
      "南": 665,
      "博": 666,
      "卜": 667,
      "卞": 668,
      "卟": 669,
      "占": 670,
      "卡": 671,
      "卢": 672,
      "卤": 673,
      "卦": 674,
      "卧": 675,
      "卫": 676,
      "卮": 677,
      "卯": 678,
      "印": 679,
      "危": 680,
      "即": 681,
      "却": 682,
      "卵": 683,
      "卷": 684,
      "卸": 685,
      "卿": 686,
      "厂": 687,
      "厄": 688,
      "厅": 689,
      "历": 690,
      "厉": 691,
      "压": 692,
      "厌": 693,
      "厕": 694,
      "厘": 695,
      "厚": 696,
      "厝": 697,
      "原": 698,
      "厢": 699,
      "厥": 700,
      "厦": 701,
      "厨": 702,
      "厩": 703,
      "厮": 704,
      "去": 705,
      "县": 706,
      "叁": 707,
      "参": 708,
      "又": 709,
      "叉": 710,
      "及": 711,
      "友": 712,
      "双": 713,
      "反": 714,
      "发": 715,
      "叔": 716,
      "取": 717,
      "受": 718,
      "变": 719,
      "叙": 720,
      "叛": 721,
      "叟": 722,
      "叠": 723,
      "口": 724,
      "古": 725,
      "句": 726,
      "另": 727,
      "叨": 728,
      "叩": 729,
      "只": 730,
      "叫": 731,
      "召": 732,
      "叭": 733,
      "叮": 734,
      "可": 735,
      "台": 736,
      "叱": 737,
      "史": 738,
      "右": 739,
      "叵": 740,
      "叶": 741,
      "号": 742,
      "司": 743,
      "叹": 744,
      "叻": 745,
      "叼": 746,
      "叽": 747,
      "吁": 748,
      "吃": 749,
      "各": 750,
      "吆": 751,
      "合": 752,
      "吉": 753,
      "吊": 754,
      "吋": 755,
      "同": 756,
      "名": 757,
      "后": 758,
      "吏": 759,
      "吐": 760,
      "向": 761,
      "吒": 762,
      "吓": 763,
      "吕": 764,
      "吖": 765,
      "吗": 766,
      "吚": 767,
      "君": 768,
      "吝": 769,
      "吞": 770,
      "吟": 771,
      "吠": 772,
      "吡": 773,
      "否": 774,
      "吧": 775,
      "吨": 776,
      "吩": 777,
      "含": 778,
      "听": 779,
      "吭": 780,
      "吮": 781,
      "启": 782,
      "吱": 783,
      "吲": 784,
      "吴": 785,
      "吵": 786,
      "吸": 787,
      "吹": 788,
      "吻": 789,
      "吼": 790,
      "吾": 791,
      "呀": 792,
      "呃": 793,
      "呆": 794,
      "呈": 795,
      "告": 796,
      "呎": 797,
      "呐": 798,
      "呒": 799,
      "呓": 800,
      "呔": 801,
      "呕": 802,
      "呖": 803,
      "呗": 804,
      "员": 805,
      "呛": 806,
      "呜": 807,
      "呢": 808,
      "呣": 809,
      "呤": 810,
      "呦": 811,
      "周": 812,
      "呯": 813,
      "呱": 814,
      "呲": 815,
      "味": 816,
      "呵": 817,
      "呶": 818,
      "呷": 819,
      "呸": 820,
      "呻": 821,
      "呼": 822,
      "命": 823,
      "咀": 824,
      "咂": 825,
      "咄": 826,
      "咆": 827,
      "咋": 828,
      "和": 829,
      "咎": 830,
      "咏": 831,
      "咐": 832,
      "咒": 833,
      "咔": 834,
      "咕": 835,
      "咖": 836,
      "咙": 837,
      "咚": 838,
      "咛": 839,
      "咝": 840,
      "咣": 841,
      "咤": 842,
      "咦": 843,
      "咧": 844,
      "咨": 845,
      "咩": 846,
      "咪": 847,
      "咫": 848,
      "咬": 849,
      "咯": 850,
      "咱": 851,
      "咲": 852,
      "咳": 853,
      "咴": 854,
      "咸": 855,
      "咻": 856,
      "咽": 857,
      "咿": 858,
      "哀": 859,
      "品": 860,
      "哂": 861,
      "哄": 862,
      "哆": 863,
      "哇": 864,
      "哈": 865,
      "哉": 866,
      "响": 867,
      "哎": 868,
      "哏": 869,
      "哐": 870,
      "哑": 871,
      "哒": 872,
      "哔": 873,
      "哕": 874,
      "哗": 875,
      "哙": 876,
      "哚": 877,
      "哝": 878,
      "哞": 879,
      "哟": 880,
      "員": 881,
      "哥": 882,
      "哦": 883,
      "哧": 884,
      "哨": 885,
      "哩": 886,
      "哪": 887,
      "哭": 888,
      "哮": 889,
      "哲": 890,
      "哺": 891,
      "哼": 892,
      "哽": 893,
      "哿": 894,
      "唁": 895,
      "唆": 896,
      "唇": 897,
      "唉": 898,
      "唏": 899,
      "唐": 900,
      "唔": 901,
      "唛": 902,
      "唠": 903,
      "唢": 904,
      "唤": 905,
      "唧": 906,
      "唬": 907,
      "售": 908,
      "唯": 909,
      "唰": 910,
      "唱": 911,
      "唳": 912,
      "唷": 913,
      "唸": 914,
      "唻": 915,
      "唼": 916,
      "唾": 917,
      "唿": 918,
      "啁": 919,
      "啃": 920,
      "啄": 921,
      "商": 922,
      "啊": 923,
      "問": 924,
      "啐": 925,
      "啕": 926,
      "啖": 927,
      "啜": 928,
      "啡": 929,
      "啤": 930,
      "啥": 931,
      "啦": 932,
      "啧": 933,
      "啪": 934,
      "啬": 935,
      "啭": 936,
      "啮": 937,
      "啰": 938,
      "啵": 939,
      "啶": 940,
      "啷": 941,
      "啸": 942,
      "啻": 943,
      "啼": 944,
      "啾": 945,
      "喀": 946,
      "喁": 947,
      "喂": 948,
      "喃": 949,
      "善": 950,
      "喆": 951,
      "喇": 952,
      "喉": 953,
      "喊": 954,
      "喋": 955,
      "喏": 956,
      "喑": 957,
      "喔": 958,
      "喘": 959,
      "喙": 960,
      "喜": 961,
      "喝": 962,
      "喟": 963,
      "喧": 964,
      "喱": 965,
      "喳": 966,
      "喵": 967,
      "喷": 968,
      "喹": 969,
      "喻": 970,
      "喽": 971,
      "喾": 972,
      "嗄": 973,
      "嗅": 974,
      "嗉": 975,
      "嗎": 976,
      "嗐": 977,
      "嗑": 978,
      "嗒": 979,
      "嗓": 980,
      "嗔": 981,
      "嗖": 982,
      "嗜": 983,
      "嗝": 984,
      "嗞": 985,
      "嗟": 986,
      "嗡": 987,
      "嗣": 988,
      "嗤": 989,
      "嗥": 990,
      "嗦": 991,
      "嗨": 992,
      "嗫": 993,
      "嗬": 994,
      "嗯": 995,
      "嗲": 996,
      "嗳": 997,
      "嗵": 998,
      "嗷": 999,
      "嗽": 1000,
      "嘀": 1001,
      "嘁": 1002,
      "嘈": 1003,
      "嘉": 1004,
      "嘌": 1005,
      "嘎": 1006,
      "嘏": 1007,
      "嘓": 1008,
      "嘘": 1009,
      "嘚": 1010,
      "嘛": 1011,
      "嘞": 1012,
      "嘟": 1013,
      "嘣": 1014,
      "嘤": 1015,
      "嘧": 1016,
      "嘬": 1017,
      "嘭": 1018,
      "嘱": 1019,
      "嘲": 1020,
      "嘴": 1021,
      "嘶": 1022,
      "嘹": 1023,
      "嘻": 1024,
      "嘿": 1025,
      "噌": 1026,
      "噎": 1027,
      "噔": 1028,
      "噗": 1029,
      "噘": 1030,
      "噙": 1031,
      "噜": 1032,
      "噢": 1033,
      "噤": 1034,
      "器": 1035,
      "噩": 1036,
      "噪": 1037,
      "噫": 1038,
      "噬": 1039,
      "噱": 1040,
      "噶": 1041,
      "噹": 1042,
      "噻": 1043,
      "噼": 1044,
      "嚅": 1045,
      "嚇": 1046,
      "嚎": 1047,
      "嚏": 1048,
      "嚓": 1049,
      "嚕": 1050,
      "嚣": 1051,
      "嚭": 1052,
      "嚯": 1053,
      "嚷": 1054,
      "嚼": 1055,
      "囉": 1056,
      "囊": 1057,
      "囔": 1058,
      "囚": 1059,
      "四": 1060,
      "囝": 1061,
      "回": 1062,
      "因": 1063,
      "囡": 1064,
      "团": 1065,
      "囤": 1066,
      "囧": 1067,
      "囫": 1068,
      "园": 1069,
      "困": 1070,
      "囱": 1071,
      "围": 1072,
      "囵": 1073,
      "固": 1074,
      "国": 1075,
      "图": 1076,
      "囿": 1077,
      "圃": 1078,
      "圆": 1079,
      "圈": 1080,
      "圉": 1081,
      "國": 1082,
      "圜": 1083,
      "土": 1084,
      "圣": 1085,
      "在": 1086,
      "圩": 1087,
      "圬": 1088,
      "圭": 1089,
      "圮": 1090,
      "地": 1091,
      "圳": 1092,
      "场": 1093,
      "圻": 1094,
      "圾": 1095,
      "址": 1096,
      "坂": 1097,
      "均": 1098,
      "坊": 1099,
      "坍": 1100,
      "坎": 1101,
      "坏": 1102,
      "坐": 1103,
      "坑": 1104,
      "块": 1105,
      "坚": 1106,
      "坛": 1107,
      "坝": 1108,
      "坞": 1109,
      "坟": 1110,
      "坠": 1111,
      "坡": 1112,
      "坤": 1113,
      "坦": 1114,
      "坨": 1115,
      "坩": 1116,
      "坪": 1117,
      "坯": 1118,
      "坳": 1119,
      "坷": 1120,
      "坻": 1121,
      "坼": 1122,
      "垂": 1123,
      "垃": 1124,
      "垄": 1125,
      "垅": 1126,
      "垆": 1127,
      "型": 1128,
      "垒": 1129,
      "垓": 1130,
      "垛": 1131,
      "垟": 1132,
      "垠": 1133,
      "垢": 1134,
      "垣": 1135,
      "垦": 1136,
      "垩": 1137,
      "垫": 1138,
      "垭": 1139,
      "垮": 1140,
      "埂": 1141,
      "埃": 1142,
      "埋": 1143,
      "城": 1144,
      "埔": 1145,
      "埚": 1146,
      "域": 1147,
      "埠": 1148,
      "培": 1149,
      "基": 1150,
      "堂": 1151,
      "堆": 1152,
      "堇": 1153,
      "堌": 1154,
      "堑": 1155,
      "堕": 1156,
      "堙": 1157,
      "堞": 1158,
      "堠": 1159,
      "堡": 1160,
      "堤": 1161,
      "堪": 1162,
      "堰": 1163,
      "報": 1164,
      "場": 1165,
      "堵": 1166,
      "塁": 1167,
      "塊": 1168,
      "塌": 1169,
      "塍": 1170,
      "塑": 1171,
      "塔": 1172,
      "塘": 1173,
      "塞": 1174,
      "填": 1175,
      "塬": 1176,
      "塾": 1177,
      "墀": 1178,
      "境": 1179,
      "墅": 1180,
      "墉": 1181,
      "墒": 1182,
      "墓": 1183,
      "増": 1184,
      "墙": 1185,
      "增": 1186,
      "墟": 1187,
      "墨": 1188,
      "墩": 1189,
      "壁": 1190,
      "壅": 1191,
      "壑": 1192,
      "壕": 1193,
      "壞": 1194,
      "壤": 1195,
      "士": 1196,
      "壬": 1197,
      "壮": 1198,
      "声": 1199,
      "壳": 1200,
      "壶": 1201,
      "壹": 1202,
      "处": 1203,
      "备": 1204,
      "复": 1205,
      "夏": 1206,
      "夔": 1207,
      "夕": 1208,
      "外": 1209,
      "夙": 1210,
      "多": 1211,
      "夜": 1212,
      "够": 1213,
      "夠": 1214,
      "大": 1215,
      "天": 1216,
      "太": 1217,
      "夫": 1218,
      "夭": 1219,
      "央": 1220,
      "夯": 1221,
      "失": 1222,
      "头": 1223,
      "夷": 1224,
      "夸": 1225,
      "夹": 1226,
      "夺": 1227,
      "奁": 1228,
      "奂": 1229,
      "奄": 1230,
      "奇": 1231,
      "奈": 1232,
      "奉": 1233,
      "奋": 1234,
      "奎": 1235,
      "奏": 1236,
      "契": 1237,
      "奓": 1238,
      "奔": 1239,
      "奕": 1240,
      "奖": 1241,
      "套": 1242,
      "奘": 1243,
      "奚": 1244,
      "奠": 1245,
      "奢": 1246,
      "奥": 1247,
      "女": 1248,
      "奴": 1249,
      "奶": 1250,
      "奸": 1251,
      "她": 1252,
      "好": 1253,
      "妁": 1254,
      "如": 1255,
      "妃": 1256,
      "妄": 1257,
      "妆": 1258,
      "妇": 1259,
      "妈": 1260,
      "妊": 1261,
      "妍": 1262,
      "妒": 1263,
      "妓": 1264,
      "妖": 1265,
      "妙": 1266,
      "妞": 1267,
      "妣": 1268,
      "妤": 1269,
      "妥": 1270,
      "妨": 1271,
      "妩": 1272,
      "妪": 1273,
      "妫": 1274,
      "妮": 1275,
      "妯": 1276,
      "妲": 1277,
      "妳": 1278,
      "妹": 1279,
      "妻": 1280,
      "妾": 1281,
      "姆": 1282,
      "姊": 1283,
      "始": 1284,
      "姐": 1285,
      "姑": 1286,
      "姒": 1287,
      "姓": 1288,
      "委": 1289,
      "姗": 1290,
      "姘": 1291,
      "姚": 1292,
      "姜": 1293,
      "姝": 1294,
      "姣": 1295,
      "姥": 1296,
      "姨": 1297,
      "姬": 1298,
      "姮": 1299,
      "姹": 1300,
      "姻": 1301,
      "姿": 1302,
      "威": 1303,
      "娃": 1304,
      "娄": 1305,
      "娅": 1306,
      "娆": 1307,
      "娇": 1308,
      "娉": 1309,
      "娌": 1310,
      "娑": 1311,
      "娓": 1312,
      "娘": 1313,
      "娜": 1314,
      "娟": 1315,
      "娠": 1316,
      "娣": 1317,
      "娥": 1318,
      "娩": 1319,
      "娱": 1320,
      "娲": 1321,
      "娴": 1322,
      "娶": 1323,
      "娼": 1324,
      "婀": 1325,
      "婆": 1326,
      "婉": 1327,
      "婊": 1328,
      "婕": 1329,
      "婚": 1330,
      "婞": 1331,
      "婢": 1332,
      "婦": 1333,
      "婧": 1334,
      "婪": 1335,
      "婳": 1336,
      "婴": 1337,
      "婵": 1338,
      "婶": 1339,
      "婷": 1340,
      "婺": 1341,
      "婻": 1342,
      "婿": 1343,
      "媒": 1344,
      "媚": 1345,
      "媛": 1346,
      "媪": 1347,
      "媲": 1348,
      "媳": 1349,
      "媵": 1350,
      "媽": 1351,
      "媾": 1352,
      "嫁": 1353,
      "嫂": 1354,
      "嫄": 1355,
      "嫉": 1356,
      "嫋": 1357,
      "嫌": 1358,
      "嫔": 1359,
      "嫖": 1360,
      "嫘": 1361,
      "嫚": 1362,
      "嫠": 1363,
      "嫡": 1364,
      "嫣": 1365,
      "嫦": 1366,
      "嫩": 1367,
      "嫪": 1368,
      "嫫": 1369,
      "嫱": 1370,
      "嬅": 1371,
      "嬉": 1372,
      "嬛": 1373,
      "嬴": 1374,
      "嬷": 1375,
      "孀": 1376,
      "子": 1377,
      "孑": 1378,
      "孒": 1379,
      "孓": 1380,
      "孔": 1381,
      "孕": 1382,
      "字": 1383,
      "存": 1384,
      "孙": 1385,
      "孚": 1386,
      "孛": 1387,
      "孜": 1388,
      "孝": 1389,
      "孟": 1390,
      "孢": 1391,
      "季": 1392,
      "孤": 1393,
      "孥": 1394,
      "学": 1395,
      "孩": 1396,
      "孪": 1397,
      "孬": 1398,
      "孰": 1399,
      "孱": 1400,
      "孵": 1401,
      "學": 1402,
      "孺": 1403,
      "孽": 1404,
      "宁": 1405,
      "它": 1406,
      "宅": 1407,
      "宇": 1408,
      "守": 1409,
      "安": 1410,
      "宋": 1411,
      "完": 1412,
      "宏": 1413,
      "宓": 1414,
      "宕": 1415,
      "宗": 1416,
      "官": 1417,
      "宙": 1418,
      "定": 1419,
      "宛": 1420,
      "宜": 1421,
      "宝": 1422,
      "实": 1423,
      "宠": 1424,
      "审": 1425,
      "客": 1426,
      "宣": 1427,
      "室": 1428,
      "宥": 1429,
      "宦": 1430,
      "宪": 1431,
      "宫": 1432,
      "宬": 1433,
      "宰": 1434,
      "害": 1435,
      "宴": 1436,
      "宵": 1437,
      "家": 1438,
      "宸": 1439,
      "容": 1440,
      "宽": 1441,
      "宾": 1442,
      "宿": 1443,
      "寂": 1444,
      "寄": 1445,
      "寅": 1446,
      "密": 1447,
      "寇": 1448,
      "富": 1449,
      "寐": 1450,
      "寒": 1451,
      "寓": 1452,
      "寔": 1453,
      "寝": 1454,
      "寞": 1455,
      "察": 1456,
      "寡": 1457,
      "寤": 1458,
      "寥": 1459,
      "實": 1460,
      "寨": 1461,
      "寮": 1462,
      "寰": 1463,
      "寶": 1464,
      "寸": 1465,
      "对": 1466,
      "寺": 1467,
      "寻": 1468,
      "导": 1469,
      "寿": 1470,
      "封": 1471,
      "射": 1472,
      "将": 1473,
      "尉": 1474,
      "尊": 1475,
      "對": 1476,
      "小": 1477,
      "少": 1478,
      "尔": 1479,
      "尕": 1480,
      "尖": 1481,
      "尘": 1482,
      "尚": 1483,
      "尜": 1484,
      "尝": 1485,
      "尤": 1486,
      "尥": 1487,
      "尧": 1488,
      "尬": 1489,
      "就": 1490,
      "尴": 1491,
      "尸": 1492,
      "尹": 1493,
      "尺": 1494,
      "尼": 1495,
      "尽": 1496,
      "尾": 1497,
      "尿": 1498,
      "局": 1499,
      "屁": 1500,
      "层": 1501,
      "屃": 1502,
      "居": 1503,
      "屈": 1504,
      "屉": 1505,
      "届": 1506,
      "屋": 1507,
      "屌": 1508,
      "屎": 1509,
      "屏": 1510,
      "屐": 1511,
      "屑": 1512,
      "展": 1513,
      "屙": 1514,
      "属": 1515,
      "屠": 1516,
      "屡": 1517,
      "履": 1518,
      "屯": 1519,
      "山": 1520,
      "屹": 1521,
      "屿": 1522,
      "岀": 1523,
      "岁": 1524,
      "岂": 1525,
      "岌": 1526,
      "岐": 1527,
      "岑": 1528,
      "岔": 1529,
      "岖": 1530,
      "岗": 1531,
      "岙": 1532,
      "岚": 1533,
      "岛": 1534,
      "岜": 1535,
      "岩": 1536,
      "岫": 1537,
      "岭": 1538,
      "岱": 1539,
      "岳": 1540,
      "岷": 1541,
      "岸": 1542,
      "岿": 1543,
      "峁": 1544,
      "峄": 1545,
      "峋": 1546,
      "峒": 1547,
      "峙": 1548,
      "峡": 1549,
      "峤": 1550,
      "峥": 1551,
      "峦": 1552,
      "峨": 1553,
      "峪": 1554,
      "峭": 1555,
      "峰": 1556,
      "峻": 1557,
      "崂": 1558,
      "崆": 1559,
      "崇": 1560,
      "崎": 1561,
      "崑": 1562,
      "崔": 1563,
      "崖": 1564,
      "崛": 1565,
      "崤": 1566,
      "崧": 1567,
      "崩": 1568,
      "崭": 1569,
      "崮": 1570,
      "崴": 1571,
      "崽": 1572,
      "嵇": 1573,
      "嵊": 1574,
      "嵋": 1575,
      "嵌": 1576,
      "嵘": 1577,
      "嵛": 1578,
      "嵩": 1579,
      "嵫": 1580,
      "嵬": 1581,
      "嶂": 1582,
      "嶙": 1583,
      "嶷": 1584,
      "巅": 1585,
      "巉": 1586,
      "巍": 1587,
      "川": 1588,
      "州": 1589,
      "巡": 1590,
      "巢": 1591,
      "工": 1592,
      "左": 1593,
      "巧": 1594,
      "巨": 1595,
      "巩": 1596,
      "巫": 1597,
      "差": 1598,
      "己": 1599,
      "已": 1600,
      "巳": 1601,
      "巴": 1602,
      "巷": 1603,
      "巽": 1604,
      "巾": 1605,
      "巿": 1606,
      "币": 1607,
      "市": 1608,
      "布": 1609,
      "帅": 1610,
      "帆": 1611,
      "师": 1612,
      "希": 1613,
      "帏": 1614,
      "帐": 1615,
      "帔": 1616,
      "帕": 1617,
      "帖": 1618,
      "帘": 1619,
      "帚": 1620,
      "帛": 1621,
      "帜": 1622,
      "帝": 1623,
      "带": 1624,
      "帧": 1625,
      "師": 1626,
      "席": 1627,
      "帮": 1628,
      "帯": 1629,
      "帶": 1630,
      "帷": 1631,
      "常": 1632,
      "帼": 1633,
      "帽": 1634,
      "幂": 1635,
      "幄": 1636,
      "幅": 1637,
      "幌": 1638,
      "幔": 1639,
      "幕": 1640,
      "幡": 1641,
      "幢": 1642,
      "幫": 1643,
      "干": 1644,
      "平": 1645,
      "年": 1646,
      "幵": 1647,
      "并": 1648,
      "幷": 1649,
      "幸": 1650,
      "幹": 1651,
      "幺": 1652,
      "幻": 1653,
      "幼": 1654,
      "幽": 1655,
      "幾": 1656,
      "广": 1657,
      "庄": 1658,
      "庆": 1659,
      "庇": 1660,
      "床": 1661,
      "序": 1662,
      "庐": 1663,
      "庑": 1664,
      "库": 1665,
      "应": 1666,
      "底": 1667,
      "庖": 1668,
      "店": 1669,
      "庙": 1670,
      "庚": 1671,
      "府": 1672,
      "庞": 1673,
      "废": 1674,
      "庠": 1675,
      "度": 1676,
      "座": 1677,
      "庭": 1678,
      "庵": 1679,
      "庶": 1680,
      "康": 1681,
      "庸": 1682,
      "庹": 1683,
      "庾": 1684,
      "廂": 1685,
      "廉": 1686,
      "廊": 1687,
      "廋": 1688,
      "廓": 1689,
      "廖": 1690,
      "廪": 1691,
      "延": 1692,
      "廷": 1693,
      "建": 1694,
      "廿": 1695,
      "开": 1696,
      "弁": 1697,
      "异": 1698,
      "弃": 1699,
      "弄": 1700,
      "弈": 1701,
      "弊": 1702,
      "弋": 1703,
      "式": 1704,
      "弑": 1705,
      "弓": 1706,
      "引": 1707,
      "弗": 1708,
      "弘": 1709,
      "弛": 1710,
      "弟": 1711,
      "张": 1712,
      "弥": 1713,
      "弦": 1714,
      "弧": 1715,
      "弩": 1716,
      "弭": 1717,
      "弯": 1718,
      "弱": 1719,
      "張": 1720,
      "弶": 1721,
      "弹": 1722,
      "强": 1723,
      "弼": 1724,
      "彊": 1725,
      "归": 1726,
      "当": 1727,
      "录": 1728,
      "彖": 1729,
      "彗": 1730,
      "彘": 1731,
      "彝": 1732,
      "形": 1733,
      "彤": 1734,
      "彦": 1735,
      "彧": 1736,
      "彩": 1737,
      "彪": 1738,
      "彬": 1739,
      "彭": 1740,
      "彰": 1741,
      "影": 1742,
      "彳": 1743,
      "彷": 1744,
      "役": 1745,
      "彻": 1746,
      "彼": 1747,
      "往": 1748,
      "征": 1749,
      "徂": 1750,
      "径": 1751,
      "待": 1752,
      "徇": 1753,
      "很": 1754,
      "徉": 1755,
      "徊": 1756,
      "律": 1757,
      "後": 1758,
      "徐": 1759,
      "徒": 1760,
      "徕": 1761,
      "得": 1762,
      "徘": 1763,
      "徙": 1764,
      "徜": 1765,
      "從": 1766,
      "御": 1767,
      "徨": 1768,
      "循": 1769,
      "徭": 1770,
      "微": 1771,
      "徳": 1772,
      "徵": 1773,
      "德": 1774,
      "徼": 1775,
      "徽": 1776,
      "心": 1777,
      "忄": 1778,
      "必": 1779,
      "忆": 1780,
      "忌": 1781,
      "忍": 1782,
      "忏": 1783,
      "忐": 1784,
      "忑": 1785,
      "忒": 1786,
      "忖": 1787,
      "志": 1788,
      "忘": 1789,
      "忙": 1790,
      "忝": 1791,
      "忠": 1792,
      "忡": 1793,
      "忤": 1794,
      "忧": 1795,
      "忪": 1796,
      "快": 1797,
      "忱": 1798,
      "念": 1799,
      "忸": 1800,
      "忻": 1801,
      "忽": 1802,
      "忾": 1803,
      "忿": 1804,
      "怀": 1805,
      "态": 1806,
      "怂": 1807,
      "怄": 1808,
      "怅": 1809,
      "怆": 1810,
      "怍": 1811,
      "怎": 1812,
      "怏": 1813,
      "怒": 1814,
      "怔": 1815,
      "怕": 1816,
      "怖": 1817,
      "怙": 1818,
      "怜": 1819,
      "思": 1820,
      "怠": 1821,
      "怡": 1822,
      "急": 1823,
      "怦": 1824,
      "性": 1825,
      "怨": 1826,
      "怩": 1827,
      "怪": 1828,
      "怯": 1829,
      "怵": 1830,
      "总": 1831,
      "怼": 1832,
      "恁": 1833,
      "恃": 1834,
      "恋": 1835,
      "恍": 1836,
      "恐": 1837,
      "恒": 1838,
      "恕": 1839,
      "恙": 1840,
      "恢": 1841,
      "恣": 1842,
      "恤": 1843,
      "恨": 1844,
      "恩": 1845,
      "恪": 1846,
      "恫": 1847,
      "恬": 1848,
      "恭": 1849,
      "息": 1850,
      "恰": 1851,
      "恳": 1852,
      "恶": 1853,
      "恸": 1854,
      "恹": 1855,
      "恺": 1856,
      "恻": 1857,
      "恼": 1858,
      "恽": 1859,
      "恿": 1860,
      "悄": 1861,
      "悉": 1862,
      "悌": 1863,
      "悍": 1864,
      "悒": 1865,
      "悔": 1866,
      "悖": 1867,
      "悚": 1868,
      "悛": 1869,
      "悝": 1870,
      "悟": 1871,
      "悠": 1872,
      "患": 1873,
      "悦": 1874,
      "您": 1875,
      "悫": 1876,
      "悬": 1877,
      "悭": 1878,
      "悯": 1879,
      "悱": 1880,
      "悲": 1881,
      "悴": 1882,
      "悸": 1883,
      "悻": 1884,
      "悼": 1885,
      "情": 1886,
      "惆": 1887,
      "惇": 1888,
      "惊": 1889,
      "惋": 1890,
      "惑": 1891,
      "惓": 1892,
      "惕": 1893,
      "惘": 1894,
      "惚": 1895,
      "惜": 1896,
      "惟": 1897,
      "惠": 1898,
      "惡": 1899,
      "惦": 1900,
      "惧": 1901,
      "惨": 1902,
      "惩": 1903,
      "惫": 1904,
      "惬": 1905,
      "惭": 1906,
      "惮": 1907,
      "惯": 1908,
      "惰": 1909,
      "想": 1910,
      "惴": 1911,
      "惶": 1912,
      "惹": 1913,
      "惺": 1914,
      "愁": 1915,
      "愆": 1916,
      "愈": 1917,
      "愉": 1918,
      "愎": 1919,
      "意": 1920,
      "愔": 1921,
      "愕": 1922,
      "愚": 1923,
      "愛": 1924,
      "感": 1925,
      "愠": 1926,
      "愣": 1927,
      "愤": 1928,
      "愧": 1929,
      "愫": 1930,
      "愿": 1931,
      "慈": 1932,
      "慌": 1933,
      "慎": 1934,
      "慑": 1935,
      "慕": 1936,
      "慜": 1937,
      "慢": 1938,
      "慥": 1939,
      "慧": 1940,
      "慨": 1941,
      "慰": 1942,
      "慵": 1943,
      "慷": 1944,
      "憋": 1945,
      "憎": 1946,
      "憔": 1947,
      "憧": 1948,
      "憨": 1949,
      "憩": 1950,
      "憬": 1951,
      "憷": 1952,
      "憾": 1953,
      "懂": 1954,
      "懈": 1955,
      "應": 1956,
      "懊": 1957,
      "懋": 1958,
      "懑": 1959,
      "懒": 1960,
      "懔": 1961,
      "懦": 1962,
      "懵": 1963,
      "懿": 1964,
      "戈": 1965,
      "戊": 1966,
      "戌": 1967,
      "戍": 1968,
      "戎": 1969,
      "戏": 1970,
      "成": 1971,
      "我": 1972,
      "戒": 1973,
      "戕": 1974,
      "或": 1975,
      "戗": 1976,
      "战": 1977,
      "戚": 1978,
      "戛": 1979,
      "戟": 1980,
      "截": 1981,
      "戬": 1982,
      "戮": 1983,
      "戳": 1984,
      "戴": 1985,
      "戶": 1986,
      "户": 1987,
      "戾": 1988,
      "房": 1989,
      "所": 1990,
      "扁": 1991,
      "扇": 1992,
      "扈": 1993,
      "扉": 1994,
      "手": 1995,
      "才": 1996,
      "扎": 1997,
      "扑": 1998,
      "扒": 1999,
      "打": 2000,
      "扔": 2001,
      "托": 2002,
      "扛": 2003,
      "扣": 2004,
      "扦": 2005,
      "执": 2006,
      "扩": 2007,
      "扪": 2008,
      "扫": 2009,
      "扬": 2010,
      "扭": 2011,
      "扮": 2012,
      "扯": 2013,
      "扰": 2014,
      "扳": 2015,
      "扶": 2016,
      "批": 2017,
      "扼": 2018,
      "找": 2019,
      "承": 2020,
      "技": 2021,
      "抄": 2022,
      "抉": 2023,
      "把": 2024,
      "抑": 2025,
      "抒": 2026,
      "抓": 2027,
      "抔": 2028,
      "投": 2029,
      "抖": 2030,
      "抗": 2031,
      "折": 2032,
      "抚": 2033,
      "抛": 2034,
      "抟": 2035,
      "抠": 2036,
      "抡": 2037,
      "抢": 2038,
      "护": 2039,
      "报": 2040,
      "抨": 2041,
      "披": 2042,
      "抬": 2043,
      "抱": 2044,
      "抵": 2045,
      "抹": 2046,
      "抻": 2047,
      "押": 2048,
      "抽": 2049,
      "抿": 2050,
      "拂": 2051,
      "拃": 2052,
      "拄": 2053,
      "担": 2054,
      "拆": 2055,
      "拇": 2056,
      "拈": 2057,
      "拉": 2058,
      "拌": 2059,
      "拍": 2060,
      "拎": 2061,
      "拏": 2062,
      "拐": 2063,
      "拒": 2064,
      "拓": 2065,
      "拔": 2066,
      "拖": 2067,
      "拗": 2068,
      "拘": 2069,
      "拙": 2070,
      "拚": 2071,
      "招": 2072,
      "拜": 2073,
      "拟": 2074,
      "拢": 2075,
      "拣": 2076,
      "拥": 2077,
      "拦": 2078,
      "拧": 2079,
      "拨": 2080,
      "择": 2081,
      "括": 2082,
      "拭": 2083,
      "拮": 2084,
      "拯": 2085,
      "拱": 2086,
      "拳": 2087,
      "拴": 2088,
      "拷": 2089,
      "拼": 2090,
      "拽": 2091,
      "拾": 2092,
      "拿": 2093,
      "持": 2094,
      "挂": 2095,
      "指": 2096,
      "挈": 2097,
      "按": 2098,
      "挎": 2099,
      "挑": 2100,
      "挖": 2101,
      "挚": 2102,
      "挛": 2103,
      "挝": 2104,
      "挞": 2105,
      "挟": 2106,
      "挠": 2107,
      "挡": 2108,
      "挣": 2109,
      "挤": 2110,
      "挥": 2111,
      "挨": 2112,
      "挪": 2113,
      "挫": 2114,
      "振": 2115,
      "挲": 2116,
      "挹": 2117,
      "挺": 2118,
      "挽": 2119,
      "捂": 2120,
      "捅": 2121,
      "捆": 2122,
      "捉": 2123,
      "捋": 2124,
      "捍": 2125,
      "捎": 2126,
      "捏": 2127,
      "捐": 2128,
      "捕": 2129,
      "捞": 2130,
      "损": 2131,
      "捡": 2132,
      "换": 2133,
      "捣": 2134,
      "捧": 2135,
      "据": 2136,
      "捱": 2137,
      "捶": 2138,
      "捷": 2139,
      "捺": 2140,
      "捻": 2141,
      "掀": 2142,
      "掂": 2143,
      "掇": 2144,
      "授": 2145,
      "掉": 2146,
      "掌": 2147,
      "掏": 2148,
      "掐": 2149,
      "排": 2150,
      "掖": 2151,
      "掘": 2152,
      "掠": 2153,
      "探": 2154,
      "掣": 2155,
      "接": 2156,
      "控": 2157,
      "推": 2158,
      "掩": 2159,
      "措": 2160,
      "掬": 2161,
      "掮": 2162,
      "掰": 2163,
      "掳": 2164,
      "掴": 2165,
      "掷": 2166,
      "掸": 2167,
      "掺": 2168,
      "掼": 2169,
      "掾": 2170,
      "揄": 2171,
      "揉": 2172,
      "揍": 2173,
      "描": 2174,
      "提": 2175,
      "插": 2176,
      "揖": 2177,
      "換": 2178,
      "揠": 2179,
      "握": 2180,
      "揣": 2181,
      "揩": 2182,
      "揪": 2183,
      "揭": 2184,
      "援": 2185,
      "揶": 2186,
      "揽": 2187,
      "揿": 2188,
      "搀": 2189,
      "搁": 2190,
      "搂": 2191,
      "搅": 2192,
      "搏": 2193,
      "搐": 2194,
      "搓": 2195,
      "搔": 2196,
      "搜": 2197,
      "搞": 2198,
      "搡": 2199,
      "搧": 2200,
      "搪": 2201,
      "搬": 2202,
      "搭": 2203,
      "搴": 2204,
      "携": 2205,
      "搽": 2206,
      "摁": 2207,
      "摄": 2208,
      "摆": 2209,
      "摇": 2210,
      "摈": 2211,
      "摊": 2212,
      "摒": 2213,
      "摔": 2214,
      "摘": 2215,
      "摞": 2216,
      "摧": 2217,
      "摩": 2218,
      "摭": 2219,
      "摸": 2220,
      "摹": 2221,
      "撂": 2222,
      "撅": 2223,
      "撇": 2224,
      "撑": 2225,
      "撒": 2226,
      "撕": 2227,
      "撞": 2228,
      "撤": 2229,
      "撩": 2230,
      "撬": 2231,
      "播": 2232,
      "撮": 2233,
      "撰": 2234,
      "撵": 2235,
      "撷": 2236,
      "撸": 2237,
      "撺": 2238,
      "撼": 2239,
      "擀": 2240,
      "擂": 2241,
      "擅": 2242,
      "操": 2243,
      "擎": 2244,
      "擐": 2245,
      "擒": 2246,
      "擘": 2247,
      "擞": 2248,
      "擠": 2249,
      "擡": 2250,
      "擢": 2251,
      "擤": 2252,
      "擦": 2253,
      "攀": 2254,
      "攒": 2255,
      "攘": 2256,
      "攥": 2257,
      "攫": 2258,
      "支": 2259,
      "收": 2260,
      "攸": 2261,
      "改": 2262,
      "攻": 2263,
      "攽": 2264,
      "放": 2265,
      "政": 2266,
      "故": 2267,
      "效": 2268,
      "敌": 2269,
      "敏": 2270,
      "救": 2271,
      "敕": 2272,
      "敖": 2273,
      "教": 2274,
      "敛": 2275,
      "敝": 2276,
      "敞": 2277,
      "敢": 2278,
      "散": 2279,
      "敦": 2280,
      "敬": 2281,
      "数": 2282,
      "敲": 2283,
      "整": 2284,
      "敷": 2285,
      "數": 2286,
      "文": 2287,
      "斋": 2288,
      "斌": 2289,
      "斐": 2290,
      "斑": 2291,
      "斓": 2292,
      "斗": 2293,
      "料": 2294,
      "斛": 2295,
      "斜": 2296,
      "斟": 2297,
      "斡": 2298,
      "斤": 2299,
      "斥": 2300,
      "斧": 2301,
      "斩": 2302,
      "斫": 2303,
      "断": 2304,
      "斯": 2305,
      "新": 2306,
      "斶": 2307,
      "斷": 2308,
      "方": 2309,
      "於": 2310,
      "施": 2311,
      "旁": 2312,
      "旃": 2313,
      "旄": 2314,
      "旅": 2315,
      "旋": 2316,
      "旌": 2317,
      "旎": 2318,
      "族": 2319,
      "旖": 2320,
      "旗": 2321,
      "无": 2322,
      "既": 2323,
      "日": 2324,
      "旦": 2325,
      "旧": 2326,
      "旨": 2327,
      "早": 2328,
      "旬": 2329,
      "旭": 2330,
      "旮": 2331,
      "旯": 2332,
      "旱": 2333,
      "时": 2334,
      "旷": 2335,
      "旸": 2336,
      "旺": 2337,
      "旻": 2338,
      "昀": 2339,
      "昂": 2340,
      "昆": 2341,
      "昇": 2342,
      "昉": 2343,
      "昊": 2344,
      "昌": 2345,
      "明": 2346,
      "昏": 2347,
      "易": 2348,
      "昔": 2349,
      "昕": 2350,
      "昙": 2351,
      "星": 2352,
      "映": 2353,
      "春": 2354,
      "昧": 2355,
      "昨": 2356,
      "昭": 2357,
      "是": 2358,
      "昱": 2359,
      "昵": 2360,
      "昶": 2361,
      "昼": 2362,
      "显": 2363,
      "晁": 2364,
      "時": 2365,
      "晃": 2366,
      "晋": 2367,
      "晌": 2368,
      "晏": 2369,
      "晒": 2370,
      "晓": 2371,
      "晔": 2372,
      "晕": 2373,
      "晖": 2374,
      "晗": 2375,
      "晚": 2376,
      "晞": 2377,
      "晟": 2378,
      "晤": 2379,
      "晦": 2380,
      "晨": 2381,
      "晩": 2382,
      "普": 2383,
      "景": 2384,
      "晰": 2385,
      "晴": 2386,
      "晶": 2387,
      "晷": 2388,
      "智": 2389,
      "晾": 2390,
      "暂": 2391,
      "暄": 2392,
      "暇": 2393,
      "暑": 2394,
      "暖": 2395,
      "暗": 2396,
      "暝": 2397,
      "暠": 2398,
      "暧": 2399,
      "暨": 2400,
      "暮": 2401,
      "暴": 2402,
      "暹": 2403,
      "曈": 2404,
      "曌": 2405,
      "曙": 2406,
      "曛": 2407,
      "曜": 2408,
      "曝": 2409,
      "曦": 2410,
      "曰": 2411,
      "曲": 2412,
      "曳": 2413,
      "更": 2414,
      "曷": 2415,
      "書": 2416,
      "曹": 2417,
      "曼": 2418,
      "曾": 2419,
      "替": 2420,
      "最": 2421,
      "會": 2422,
      "月": 2423,
      "有": 2424,
      "朊": 2425,
      "朋": 2426,
      "服": 2427,
      "朐": 2428,
      "朔": 2429,
      "朕": 2430,
      "朗": 2431,
      "望": 2432,
      "朝": 2433,
      "期": 2434,
      "朦": 2435,
      "木": 2436,
      "未": 2437,
      "末": 2438,
      "本": 2439,
      "札": 2440,
      "术": 2441,
      "朱": 2442,
      "朴": 2443,
      "朵": 2444,
      "机": 2445,
      "朽": 2446,
      "杀": 2447,
      "杂": 2448,
      "权": 2449,
      "杆": 2450,
      "杈": 2451,
      "杉": 2452,
      "李": 2453,
      "杏": 2454,
      "材": 2455,
      "村": 2456,
      "杓": 2457,
      "杖": 2458,
      "杜": 2459,
      "杞": 2460,
      "束": 2461,
      "杠": 2462,
      "条": 2463,
      "来": 2464,
      "杨": 2465,
      "杪": 2466,
      "杭": 2467,
      "杯": 2468,
      "杰": 2469,
      "東": 2470,
      "杲": 2471,
      "杳": 2472,
      "杵": 2473,
      "杷": 2474,
      "杼": 2475,
      "松": 2476,
      "板": 2477,
      "极": 2478,
      "构": 2479,
      "枇": 2480,
      "枉": 2481,
      "枋": 2482,
      "析": 2483,
      "枕": 2484,
      "林": 2485,
      "枚": 2486,
      "果": 2487,
      "枝": 2488,
      "枞": 2489,
      "枢": 2490,
      "枣": 2491,
      "枥": 2492,
      "枪": 2493,
      "枫": 2494,
      "枭": 2495,
      "枯": 2496,
      "枳": 2497,
      "枴": 2498,
      "架": 2499,
      "枷": 2500,
      "枸": 2501,
      "柄": 2502,
      "柏": 2503,
      "某": 2504,
      "柑": 2505,
      "柒": 2506,
      "染": 2507,
      "柔": 2508,
      "柚": 2509,
      "柜": 2510,
      "柝": 2511,
      "柞": 2512,
      "柠": 2513,
      "查": 2514,
      "柩": 2515,
      "柬": 2516,
      "柯": 2517,
      "柰": 2518,
      "柱": 2519,
      "柳": 2520,
      "柴": 2521,
      "査": 2522,
      "柽": 2523,
      "柿": 2524,
      "栀": 2525,
      "栅": 2526,
      "标": 2527,
      "栈": 2528,
      "栉": 2529,
      "栊": 2530,
      "栋": 2531,
      "栎": 2532,
      "栏": 2533,
      "树": 2534,
      "栓": 2535,
      "栖": 2536,
      "栗": 2537,
      "校": 2538,
      "栩": 2539,
      "株": 2540,
      "栱": 2541,
      "栲": 2542,
      "栳": 2543,
      "样": 2544,
      "核": 2545,
      "根": 2546,
      "格": 2547,
      "栽": 2548,
      "栾": 2549,
      "桀": 2550,
      "桂": 2551,
      "桃": 2552,
      "桅": 2553,
      "框": 2554,
      "案": 2555,
      "桉": 2556,
      "桌": 2557,
      "桎": 2558,
      "桐": 2559,
      "桑": 2560,
      "桓": 2561,
      "桔": 2562,
      "桠": 2563,
      "桡": 2564,
      "桢": 2565,
      "档": 2566,
      "桥": 2567,
      "桦": 2568,
      "桧": 2569,
      "桨": 2570,
      "桩": 2571,
      "桶": 2572,
      "桷": 2573,
      "梁": 2574,
      "梅": 2575,
      "梆": 2576,
      "梏": 2577,
      "梓": 2578,
      "梗": 2579,
      "條": 2580,
      "梠": 2581,
      "梢": 2582,
      "梦": 2583,
      "梧": 2584,
      "梨": 2585,
      "梭": 2586,
      "梯": 2587,
      "械": 2588,
      "梳": 2589,
      "梵": 2590,
      "梿": 2591,
      "检": 2592,
      "棂": 2593,
      "棄": 2594,
      "棉": 2595,
      "棋": 2596,
      "棍": 2597,
      "棒": 2598,
      "棕": 2599,
      "棗": 2600,
      "棘": 2601,
      "棚": 2602,
      "棠": 2603,
      "棣": 2604,
      "森": 2605,
      "棰": 2606,
      "棱": 2607,
      "棵": 2608,
      "棹": 2609,
      "棺": 2610,
      "棼": 2611,
      "椁": 2612,
      "椅": 2613,
      "椋": 2614,
      "植": 2615,
      "椎": 2616,
      "椒": 2617,
      "椟": 2618,
      "椭": 2619,
      "椰": 2620,
      "椴": 2621,
      "椹": 2622,
      "椽": 2623,
      "椿": 2624,
      "楂": 2625,
      "楔": 2626,
      "楚": 2627,
      "楞": 2628,
      "楠": 2629,
      "楣": 2630,
      "楫": 2631,
      "極": 2632,
      "楷": 2633,
      "楸": 2634,
      "楹": 2635,
      "楼": 2636,
      "概": 2637,
      "榄": 2638,
      "榆": 2639,
      "榈": 2640,
      "榉": 2641,
      "榔": 2642,
      "榕": 2643,
      "榛": 2644,
      "榜": 2645,
      "榧": 2646,
      "榨": 2647,
      "榫": 2648,
      "榭": 2649,
      "榴": 2650,
      "榷": 2651,
      "榻": 2652,
      "槁": 2653,
      "槃": 2654,
      "槊": 2655,
      "槌": 2656,
      "槎": 2657,
      "槐": 2658,
      "槛": 2659,
      "槜": 2660,
      "槟": 2661,
      "槭": 2662,
      "槲": 2663,
      "槽": 2664,
      "槿": 2665,
      "樂": 2666,
      "樊": 2667,
      "樟": 2668,
      "模": 2669,
      "樣": 2670,
      "横": 2671,
      "樯": 2672,
      "樱": 2673,
      "樵": 2674,
      "樹": 2675,
      "樽": 2676,
      "樾": 2677,
      "橄": 2678,
      "橇": 2679,
      "橐": 2680,
      "橘": 2681,
      "橙": 2682,
      "橛": 2683,
      "機": 2684,
      "橡": 2685,
      "橱": 2686,
      "橹": 2687,
      "檀": 2688,
      "檄": 2689,
      "檇": 2690,
      "檐": 2691,
      "檩": 2692,
      "檫": 2693,
      "檬": 2694,
      "欠": 2695,
      "次": 2696,
      "欢": 2697,
      "欣": 2698,
      "欤": 2699,
      "欧": 2700,
      "欲": 2701,
      "欷": 2702,
      "欸": 2703,
      "欹": 2704,
      "欺": 2705,
      "款": 2706,
      "歃": 2707,
      "歆": 2708,
      "歇": 2709,
      "歉": 2710,
      "歌": 2711,
      "歐": 2712,
      "歙": 2713,
      "歡": 2714,
      "止": 2715,
      "正": 2716,
      "此": 2717,
      "步": 2718,
      "武": 2719,
      "歧": 2720,
      "歪": 2721,
      "歲": 2722,
      "歸": 2723,
      "歹": 2724,
      "死": 2725,
      "歼": 2726,
      "殁": 2727,
      "殃": 2728,
      "殆": 2729,
      "殇": 2730,
      "殉": 2731,
      "殊": 2732,
      "残": 2733,
      "殍": 2734,
      "殒": 2735,
      "殓": 2736,
      "殖": 2737,
      "殚": 2738,
      "殡": 2739,
      "殴": 2740,
      "段": 2741,
      "殷": 2742,
      "殿": 2743,
      "毀": 2744,
      "毁": 2745,
      "毅": 2746,
      "毋": 2747,
      "母": 2748,
      "毎": 2749,
      "每": 2750,
      "毐": 2751,
      "毒": 2752,
      "毓": 2753,
      "比": 2754,
      "毕": 2755,
      "毗": 2756,
      "毙": 2757,
      "毛": 2758,
      "毡": 2759,
      "毫": 2760,
      "毯": 2761,
      "毳": 2762,
      "毽": 2763,
      "氅": 2764,
      "氆": 2765,
      "氇": 2766,
      "氏": 2767,
      "民": 2768,
      "氓": 2769,
      "气": 2770,
      "氖": 2771,
      "氘": 2772,
      "氙": 2773,
      "氚": 2774,
      "氛": 2775,
      "氟": 2776,
      "氡": 2777,
      "氢": 2778,
      "氣": 2779,
      "氤": 2780,
      "氦": 2781,
      "氧": 2782,
      "氨": 2783,
      "氩": 2784,
      "氪": 2785,
      "氮": 2786,
      "氯": 2787,
      "氰": 2788,
      "氲": 2789,
      "水": 2790,
      "氵": 2791,
      "永": 2792,
      "氽": 2793,
      "汀": 2794,
      "汁": 2795,
      "求": 2796,
      "汆": 2797,
      "汇": 2798,
      "汉": 2799,
      "汊": 2800,
      "汐": 2801,
      "汕": 2802,
      "汗": 2803,
      "汛": 2804,
      "汜": 2805,
      "汝": 2806,
      "汞": 2807,
      "江": 2808,
      "池": 2809,
      "污": 2810,
      "汤": 2811,
      "汨": 2812,
      "汩": 2813,
      "汪": 2814,
      "汭": 2815,
      "汰": 2816,
      "汲": 2817,
      "汴": 2818,
      "汶": 2819,
      "汹": 2820,
      "決": 2821,
      "汽": 2822,
      "汾": 2823,
      "沁": 2824,
      "沂": 2825,
      "沃": 2826,
      "沅": 2827,
      "沆": 2828,
      "沈": 2829,
      "沉": 2830,
      "沌": 2831,
      "沏": 2832,
      "沐": 2833,
      "沒": 2834,
      "沓": 2835,
      "沔": 2836,
      "沙": 2837,
      "沚": 2838,
      "沛": 2839,
      "沟": 2840,
      "没": 2841,
      "沣": 2842,
      "沤": 2843,
      "沥": 2844,
      "沦": 2845,
      "沧": 2846,
      "沪": 2847,
      "沫": 2848,
      "沮": 2849,
      "沱": 2850,
      "河": 2851,
      "沸": 2852,
      "油": 2853,
      "治": 2854,
      "沼": 2855,
      "沽": 2856,
      "沾": 2857,
      "沿": 2858,
      "泄": 2859,
      "泅": 2860,
      "泉": 2861,
      "泊": 2862,
      "泌": 2863,
      "泐": 2864,
      "泓": 2865,
      "泔": 2866,
      "法": 2867,
      "泗": 2868,
      "泛": 2869,
      "泞": 2870,
      "泠": 2871,
      "泡": 2872,
      "波": 2873,
      "泣": 2874,
      "泥": 2875,
      "注": 2876,
      "泪": 2877,
      "泫": 2878,
      "泮": 2879,
      "泯": 2880,
      "泰": 2881,
      "泱": 2882,
      "泳": 2883,
      "泵": 2884,
      "泷": 2885,
      "泸": 2886,
      "泻": 2887,
      "泼": 2888,
      "泽": 2889,
      "泾": 2890,
      "洁": 2891,
      "洄": 2892,
      "洋": 2893,
      "洌": 2894,
      "洒": 2895,
      "洗": 2896,
      "洙": 2897,
      "洛": 2898,
      "洞": 2899,
      "津": 2900,
      "洨": 2901,
      "洪": 2902,
      "洮": 2903,
      "洱": 2904,
      "洲": 2905,
      "洵": 2906,
      "活": 2907,
      "洼": 2908,
      "洽": 2909,
      "派": 2910,
      "流": 2911,
      "浃": 2912,
      "浅": 2913,
      "浆": 2914,
      "浇": 2915,
      "浊": 2916,
      "测": 2917,
      "济": 2918,
      "浏": 2919,
      "浐": 2920,
      "浑": 2921,
      "浒": 2922,
      "浓": 2923,
      "浔": 2924,
      "浙": 2925,
      "浚": 2926,
      "浞": 2927,
      "浣": 2928,
      "浥": 2929,
      "浦": 2930,
      "浩": 2931,
      "浪": 2932,
      "浮": 2933,
      "浴": 2934,
      "海": 2935,
      "浸": 2936,
      "涂": 2937,
      "涅": 2938,
      "消": 2939,
      "涉": 2940,
      "涌": 2941,
      "涎": 2942,
      "涓": 2943,
      "涔": 2944,
      "涕": 2945,
      "涘": 2946,
      "涛": 2947,
      "涝": 2948,
      "涟": 2949,
      "涡": 2950,
      "涣": 2951,
      "涤": 2952,
      "润": 2953,
      "涧": 2954,
      "涨": 2955,
      "涩": 2956,
      "涪": 2957,
      "涮": 2958,
      "涯": 2959,
      "液": 2960,
      "涵": 2961,
      "涸": 2962,
      "涿": 2963,
      "淀": 2964,
      "淄": 2965,
      "淅": 2966,
      "淆": 2967,
      "淇": 2968,
      "淋": 2969,
      "淌": 2970,
      "淑": 2971,
      "淖": 2972,
      "淘": 2973,
      "淙": 2974,
      "淝": 2975,
      "淞": 2976,
      "淡": 2977,
      "淤": 2978,
      "淦": 2979,
      "淫": 2980,
      "淬": 2981,
      "淮": 2982,
      "深": 2983,
      "淳": 2984,
      "混": 2985,
      "淹": 2986,
      "添": 2987,
      "淼": 2988,
      "清": 2989,
      "渊": 2990,
      "渌": 2991,
      "渍": 2992,
      "渎": 2993,
      "渐": 2994,
      "渑": 2995,
      "渔": 2996,
      "渗": 2997,
      "渚": 2998,
      "渝": 2999,
      "渠": 3000,
      "渡": 3001,
      "渣": 3002,
      "渤": 3003,
      "渥": 3004,
      "温": 3005,
      "渭": 3006,
      "港": 3007,
      "渲": 3008,
      "渴": 3009,
      "游": 3010,
      "渺": 3011,
      "渻": 3012,
      "湃": 3013,
      "湄": 3014,
      "湉": 3015,
      "湊": 3016,
      "湍": 3017,
      "湎": 3018,
      "湖": 3019,
      "湘": 3020,
      "湛": 3021,
      "湟": 3022,
      "湣": 3023,
      "湫": 3024,
      "湮": 3025,
      "湯": 3026,
      "湲": 3027,
      "湾": 3028,
      "湿": 3029,
      "溃": 3030,
      "溅": 3031,
      "溉": 3032,
      "源": 3033,
      "準": 3034,
      "溘": 3035,
      "溜": 3036,
      "溢": 3037,
      "溥": 3038,
      "溧": 3039,
      "溪": 3040,
      "溫": 3041,
      "溯": 3042,
      "溱": 3043,
      "溴": 3044,
      "溶": 3045,
      "溺": 3046,
      "溼": 3047,
      "滁": 3048,
      "滂": 3049,
      "滇": 3050,
      "滋": 3051,
      "滑": 3052,
      "滓": 3053,
      "滔": 3054,
      "滕": 3055,
      "滚": 3056,
      "滞": 3057,
      "滟": 3058,
      "满": 3059,
      "滢": 3060,
      "滤": 3061,
      "滥": 3062,
      "滨": 3063,
      "滩": 3064,
      "滴": 3065,
      "滿": 3066,
      "漁": 3067,
      "漂": 3068,
      "漆": 3069,
      "漉": 3070,
      "漏": 3071,
      "漓": 3072,
      "演": 3073,
      "漕": 3074,
      "漠": 3075,
      "漩": 3076,
      "漪": 3077,
      "漫": 3078,
      "漯": 3079,
      "漱": 3080,
      "漳": 3081,
      "漸": 3082,
      "漾": 3083,
      "潇": 3084,
      "潋": 3085,
      "潍": 3086,
      "潘": 3087,
      "潜": 3088,
      "潞": 3089,
      "潢": 3090,
      "潦": 3091,
      "潭": 3092,
      "潮": 3093,
      "潲": 3094,
      "潴": 3095,
      "潸": 3096,
      "潺": 3097,
      "潼": 3098,
      "澄": 3099,
      "澈": 3100,
      "澍": 3101,
      "澎": 3102,
      "澔": 3103,
      "澜": 3104,
      "澡": 3105,
      "澧": 3106,
      "澳": 3107,
      "澶": 3108,
      "澹": 3109,
      "激": 3110,
      "濂": 3111,
      "濑": 3112,
      "濒": 3113,
      "濛": 3114,
      "濞": 3115,
      "濠": 3116,
      "濡": 3117,
      "濮": 3118,
      "濯": 3119,
      "瀑": 3120,
      "瀚": 3121,
      "瀛": 3122,
      "瀣": 3123,
      "灌": 3124,
      "灏": 3125,
      "灞": 3126,
      "火": 3127,
      "灬": 3128,
      "灭": 3129,
      "灯": 3130,
      "灰": 3131,
      "灵": 3132,
      "灶": 3133,
      "灸": 3134,
      "灼": 3135,
      "灾": 3136,
      "灿": 3137,
      "炀": 3138,
      "炅": 3139,
      "炆": 3140,
      "炉": 3141,
      "炊": 3142,
      "炎": 3143,
      "炒": 3144,
      "炔": 3145,
      "炕": 3146,
      "炖": 3147,
      "炙": 3148,
      "炜": 3149,
      "炝": 3150,
      "炫": 3151,
      "炬": 3152,
      "炭": 3153,
      "炮": 3154,
      "炯": 3155,
      "炳": 3156,
      "炷": 3157,
      "炸": 3158,
      "点": 3159,
      "為": 3160,
      "炼": 3161,
      "炽": 3162,
      "烁": 3163,
      "烂": 3164,
      "烃": 3165,
      "烈": 3166,
      "烊": 3167,
      "烘": 3168,
      "烙": 3169,
      "烛": 3170,
      "烟": 3171,
      "烤": 3172,
      "烦": 3173,
      "烧": 3174,
      "烨": 3175,
      "烩": 3176,
      "烫": 3177,
      "烬": 3178,
      "热": 3179,
      "烯": 3180,
      "烷": 3181,
      "烹": 3182,
      "烽": 3183,
      "焉": 3184,
      "焊": 3185,
      "焐": 3186,
      "焓": 3187,
      "焕": 3188,
      "焖": 3189,
      "焘": 3190,
      "焙": 3191,
      "焚": 3192,
      "無": 3193,
      "焦": 3194,
      "焯": 3195,
      "焰": 3196,
      "焱": 3197,
      "然": 3198,
      "煅": 3199,
      "煊": 3200,
      "煌": 3201,
      "煎": 3202,
      "煜": 3203,
      "煞": 3204,
      "煤": 3205,
      "煦": 3206,
      "照": 3207,
      "煨": 3208,
      "煮": 3209,
      "煲": 3210,
      "煳": 3211,
      "煸": 3212,
      "煽": 3213,
      "熄": 3214,
      "熊": 3215,
      "熏": 3216,
      "熔": 3217,
      "熘": 3218,
      "熙": 3219,
      "熜": 3220,
      "熟": 3221,
      "熠": 3222,
      "熨": 3223,
      "熬": 3224,
      "熱": 3225,
      "熵": 3226,
      "熹": 3227,
      "燃": 3228,
      "燊": 3229,
      "燎": 3230,
      "燒": 3231,
      "燕": 3232,
      "燥": 3233,
      "燧": 3234,
      "燮": 3235,
      "燹": 3236,
      "燼": 3237,
      "爆": 3238,
      "爚": 3239,
      "爨": 3240,
      "爪": 3241,
      "爬": 3242,
      "爱": 3243,
      "爵": 3244,
      "父": 3245,
      "爷": 3246,
      "爸": 3247,
      "爹": 3248,
      "爺": 3249,
      "爽": 3250,
      "爿": 3251,
      "片": 3252,
      "版": 3253,
      "牌": 3254,
      "牍": 3255,
      "牒": 3256,
      "牖": 3257,
      "牙": 3258,
      "牛": 3259,
      "牝": 3260,
      "牟": 3261,
      "牠": 3262,
      "牡": 3263,
      "牢": 3264,
      "牤": 3265,
      "牦": 3266,
      "牧": 3267,
      "物": 3268,
      "牯": 3269,
      "牲": 3270,
      "牵": 3271,
      "特": 3272,
      "牺": 3273,
      "犀": 3274,
      "犁": 3275,
      "犄": 3276,
      "犊": 3277,
      "犍": 3278,
      "犏": 3279,
      "犒": 3280,
      "犟": 3281,
      "犬": 3282,
      "犯": 3283,
      "犴": 3284,
      "状": 3285,
      "犷": 3286,
      "犸": 3287,
      "犹": 3288,
      "狂": 3289,
      "狄": 3290,
      "狈": 3291,
      "狍": 3292,
      "狎": 3293,
      "狐": 3294,
      "狒": 3295,
      "狗": 3296,
      "狙": 3297,
      "狞": 3298,
      "狠": 3299,
      "狡": 3300,
      "狩": 3301,
      "独": 3302,
      "狭": 3303,
      "狮": 3304,
      "狰": 3305,
      "狱": 3306,
      "狲": 3307,
      "狴": 3308,
      "狸": 3309,
      "狻": 3310,
      "狼": 3311,
      "猁": 3312,
      "猊": 3313,
      "猎": 3314,
      "猕": 3315,
      "猖": 3316,
      "猛": 3317,
      "猜": 3318,
      "猝": 3319,
      "猞": 3320,
      "猢": 3321,
      "猥": 3322,
      "猩": 3323,
      "猪": 3324,
      "猫": 3325,
      "猬": 3326,
      "献": 3327,
      "猰": 3328,
      "猴": 3329,
      "猷": 3330,
      "猹": 3331,
      "猾": 3332,
      "猿": 3333,
      "獅": 3334,
      "獐": 3335,
      "獒": 3336,
      "獗": 3337,
      "獠": 3338,
      "獬": 3339,
      "獭": 3340,
      "獴": 3341,
      "獵": 3342,
      "獾": 3343,
      "玄": 3344,
      "率": 3345,
      "玉": 3346,
      "王": 3347,
      "玎": 3348,
      "玑": 3349,
      "玖": 3350,
      "玛": 3351,
      "玟": 3352,
      "玠": 3353,
      "玥": 3354,
      "玦": 3355,
      "玩": 3356,
      "玫": 3357,
      "玮": 3358,
      "环": 3359,
      "现": 3360,
      "玲": 3361,
      "玳": 3362,
      "玷": 3363,
      "玹": 3364,
      "玺": 3365,
      "玻": 3366,
      "珀": 3367,
      "珂": 3368,
      "珅": 3369,
      "珈": 3370,
      "珊": 3371,
      "珍": 3372,
      "珏": 3373,
      "珐": 3374,
      "珑": 3375,
      "珙": 3376,
      "珞": 3377,
      "珠": 3378,
      "珥": 3379,
      "珦": 3380,
      "珪": 3381,
      "班": 3382,
      "珮": 3383,
      "現": 3384,
      "球": 3385,
      "琅": 3386,
      "理": 3387,
      "琉": 3388,
      "琊": 3389,
      "琍": 3390,
      "琏": 3391,
      "琐": 3392,
      "琛": 3393,
      "琢": 3394,
      "琥": 3395,
      "琦": 3396,
      "琨": 3397,
      "琪": 3398,
      "琬": 3399,
      "琮": 3400,
      "琰": 3401,
      "琳": 3402,
      "琴": 3403,
      "琵": 3404,
      "琶": 3405,
      "琼": 3406,
      "瑁": 3407,
      "瑄": 3408,
      "瑕": 3409,
      "瑙": 3410,
      "瑚": 3411,
      "瑛": 3412,
      "瑜": 3413,
      "瑞": 3414,
      "瑟": 3415,
      "瑪": 3416,
      "瑭": 3417,
      "瑰": 3418,
      "瑶": 3419,
      "瑾": 3420,
      "璀": 3421,
      "璃": 3422,
      "璆": 3423,
      "璇": 3424,
      "璈": 3425,
      "璋": 3426,
      "璎": 3427,
      "璐": 3428,
      "璘": 3429,
      "璜": 3430,
      "璞": 3431,
      "璧": 3432,
      "璨": 3433,
      "瓒": 3434,
      "瓜": 3435,
      "瓠": 3436,
      "瓢": 3437,
      "瓣": 3438,
      "瓤": 3439,
      "瓦": 3440,
      "瓮": 3441,
      "瓯": 3442,
      "瓴": 3443,
      "瓶": 3444,
      "瓷": 3445,
      "甄": 3446,
      "甑": 3447,
      "甘": 3448,
      "甚": 3449,
      "甜": 3450,
      "生": 3451,
      "甥": 3452,
      "用": 3453,
      "甩": 3454,
      "甫": 3455,
      "甬": 3456,
      "甭": 3457,
      "甯": 3458,
      "田": 3459,
      "由": 3460,
      "甲": 3461,
      "申": 3462,
      "电": 3463,
      "甶": 3464,
      "男": 3465,
      "甸": 3466,
      "町": 3467,
      "画": 3468,
      "甾": 3469,
      "畅": 3470,
      "畈": 3471,
      "界": 3472,
      "畏": 3473,
      "畔": 3474,
      "留": 3475,
      "畚": 3476,
      "畜": 3477,
      "略": 3478,
      "畦": 3479,
      "番": 3480,
      "畲": 3481,
      "畴": 3482,
      "當": 3483,
      "畸": 3484,
      "畹": 3485,
      "畿": 3486,
      "疆": 3487,
      "疏": 3488,
      "疑": 3489,
      "疔": 3490,
      "疖": 3491,
      "疗": 3492,
      "疙": 3493,
      "疚": 3494,
      "疟": 3495,
      "疠": 3496,
      "疡": 3497,
      "疣": 3498,
      "疤": 3499,
      "疥": 3500,
      "疫": 3501,
      "疮": 3502,
      "疯": 3503,
      "疱": 3504,
      "疲": 3505,
      "疴": 3506,
      "疵": 3507,
      "疸": 3508,
      "疹": 3509,
      "疼": 3510,
      "疽": 3511,
      "疾": 3512,
      "痂": 3513,
      "病": 3514,
      "症": 3515,
      "痈": 3516,
      "痉": 3517,
      "痊": 3518,
      "痍": 3519,
      "痒": 3520,
      "痔": 3521,
      "痕": 3522,
      "痘": 3523,
      "痛": 3524,
      "痞": 3525,
      "痢": 3526,
      "痣": 3527,
      "痤": 3528,
      "痨": 3529,
      "痪": 3530,
      "痫": 3531,
      "痰": 3532,
      "痱": 3533,
      "痴": 3534,
      "痹": 3535,
      "痼": 3536,
      "瘀": 3537,
      "瘁": 3538,
      "瘆": 3539,
      "瘌": 3540,
      "瘙": 3541,
      "瘟": 3542,
      "瘠": 3543,
      "瘢": 3544,
      "瘤": 3545,
      "瘦": 3546,
      "瘩": 3547,
      "瘪": 3548,
      "瘫": 3549,
      "瘴": 3550,
      "瘸": 3551,
      "瘾": 3552,
      "癌": 3553,
      "癖": 3554,
      "癞": 3555,
      "癣": 3556,
      "癫": 3557,
      "癸": 3558,
      "登": 3559,
      "發": 3560,
      "白": 3561,
      "百": 3562,
      "皂": 3563,
      "的": 3564,
      "皆": 3565,
      "皇": 3566,
      "皈": 3567,
      "皋": 3568,
      "皎": 3569,
      "皑": 3570,
      "皓": 3571,
      "皖": 3572,
      "皙": 3573,
      "皮": 3574,
      "皱": 3575,
      "皴": 3576,
      "皿": 3577,
      "盂": 3578,
      "盅": 3579,
      "盆": 3580,
      "盈": 3581,
      "益": 3582,
      "盎": 3583,
      "盏": 3584,
      "盐": 3585,
      "监": 3586,
      "盒": 3587,
      "盔": 3588,
      "盖": 3589,
      "盗": 3590,
      "盘": 3591,
      "盛": 3592,
      "盟": 3593,
      "盥": 3594,
      "目": 3595,
      "盯": 3596,
      "盱": 3597,
      "盲": 3598,
      "直": 3599,
      "相": 3600,
      "盹": 3601,
      "盼": 3602,
      "盾": 3603,
      "省": 3604,
      "眈": 3605,
      "眉": 3606,
      "看": 3607,
      "眙": 3608,
      "真": 3609,
      "眠": 3610,
      "眦": 3611,
      "眨": 3612,
      "眩": 3613,
      "眬": 3614,
      "眯": 3615,
      "眶": 3616,
      "眷": 3617,
      "眸": 3618,
      "眺": 3619,
      "眼": 3620,
      "着": 3621,
      "睁": 3622,
      "睇": 3623,
      "睐": 3624,
      "睑": 3625,
      "睚": 3626,
      "睛": 3627,
      "睡": 3628,
      "睢": 3629,
      "督": 3630,
      "睥": 3631,
      "睦": 3632,
      "睨": 3633,
      "睫": 3634,
      "睬": 3635,
      "睹": 3636,
      "睽": 3637,
      "睾": 3638,
      "睿": 3639,
      "瞄": 3640,
      "瞅": 3641,
      "瞋": 3642,
      "瞌": 3643,
      "瞎": 3644,
      "瞑": 3645,
      "瞒": 3646,
      "瞟": 3647,
      "瞠": 3648,
      "瞥": 3649,
      "瞧": 3650,
      "瞩": 3651,
      "瞪": 3652,
      "瞬": 3653,
      "瞭": 3654,
      "瞰": 3655,
      "瞳": 3656,
      "瞻": 3657,
      "瞽": 3658,
      "瞿": 3659,
      "矇": 3660,
      "矍": 3661,
      "矗": 3662,
      "矛": 3663,
      "矜": 3664,
      "矢": 3665,
      "矣": 3666,
      "知": 3667,
      "矩": 3668,
      "矫": 3669,
      "短": 3670,
      "矮": 3671,
      "石": 3672,
      "矴": 3673,
      "矶": 3674,
      "矾": 3675,
      "矿": 3676,
      "砀": 3677,
      "码": 3678,
      "砂": 3679,
      "砌": 3680,
      "砍": 3681,
      "砒": 3682,
      "研": 3683,
      "砖": 3684,
      "砚": 3685,
      "砝": 3686,
      "砣": 3687,
      "砥": 3688,
      "砧": 3689,
      "砬": 3690,
      "砭": 3691,
      "砰": 3692,
      "破": 3693,
      "砷": 3694,
      "砸": 3695,
      "砹": 3696,
      "砺": 3697,
      "砾": 3698,
      "础": 3699,
      "硅": 3700,
      "硌": 3701,
      "硎": 3702,
      "硐": 3703,
      "硒": 3704,
      "硕": 3705,
      "硖": 3706,
      "硝": 3707,
      "硫": 3708,
      "硬": 3709,
      "确": 3710,
      "硼": 3711,
      "硿": 3712,
      "碉": 3713,
      "碌": 3714,
      "碍": 3715,
      "碎": 3716,
      "碏": 3717,
      "碑": 3718,
      "碓": 3719,
      "碗": 3720,
      "碘": 3721,
      "碛": 3722,
      "碜": 3723,
      "碟": 3724,
      "碡": 3725,
      "碣": 3726,
      "碧": 3727,
      "碰": 3728,
      "碱": 3729,
      "碳": 3730,
      "碴": 3731,
      "碾": 3732,
      "磁": 3733,
      "磅": 3734,
      "磊": 3735,
      "磋": 3736,
      "磐": 3737,
      "磕": 3738,
      "磙": 3739,
      "磞": 3740,
      "磨": 3741,
      "磬": 3742,
      "磴": 3743,
      "磷": 3744,
      "磺": 3745,
      "礁": 3746,
      "礅": 3747,
      "礴": 3748,
      "示": 3749,
      "礼": 3750,
      "社": 3751,
      "祀": 3752,
      "祁": 3753,
      "祇": 3754,
      "祈": 3755,
      "祉": 3756,
      "祎": 3757,
      "祖": 3758,
      "祗": 3759,
      "祚": 3760,
      "祛": 3761,
      "祜": 3762,
      "祝": 3763,
      "神": 3764,
      "祟": 3765,
      "祠": 3766,
      "祢": 3767,
      "祥": 3768,
      "票": 3769,
      "祭": 3770,
      "祯": 3771,
      "祷": 3772,
      "祸": 3773,
      "祺": 3774,
      "禀": 3775,
      "禁": 3776,
      "禄": 3777,
      "禅": 3778,
      "福": 3779,
      "禧": 3780,
      "禮": 3781,
      "禳": 3782,
      "禹": 3783,
      "禺": 3784,
      "离": 3785,
      "禽": 3786,
      "禾": 3787,
      "秀": 3788,
      "私": 3789,
      "秃": 3790,
      "秆": 3791,
      "秉": 3792,
      "秋": 3793,
      "种": 3794,
      "科": 3795,
      "秒": 3796,
      "秕": 3797,
      "秘": 3798,
      "租": 3799,
      "秣": 3800,
      "秤": 3801,
      "秦": 3802,
      "秧": 3803,
      "秩": 3804,
      "秫": 3805,
      "秭": 3806,
      "积": 3807,
      "称": 3808,
      "秸": 3809,
      "移": 3810,
      "秽": 3811,
      "稀": 3812,
      "程": 3813,
      "稍": 3814,
      "税": 3815,
      "稔": 3816,
      "稗": 3817,
      "稚": 3818,
      "稞": 3819,
      "稠": 3820,
      "稣": 3821,
      "種": 3822,
      "稳": 3823,
      "稷": 3824,
      "稹": 3825,
      "稻": 3826,
      "稼": 3827,
      "稽": 3828,
      "稿": 3829,
      "穆": 3830,
      "穑": 3831,
      "穗": 3832,
      "穩": 3833,
      "穰": 3834,
      "穴": 3835,
      "究": 3836,
      "穷": 3837,
      "穹": 3838,
      "空": 3839,
      "穿": 3840,
      "突": 3841,
      "窃": 3842,
      "窄": 3843,
      "窈": 3844,
      "窍": 3845,
      "窑": 3846,
      "窒": 3847,
      "窕": 3848,
      "窖": 3849,
      "窗": 3850,
      "窘": 3851,
      "窜": 3852,
      "窝": 3853,
      "窟": 3854,
      "窠": 3855,
      "窣": 3856,
      "窥": 3857,
      "窦": 3858,
      "窨": 3859,
      "窸": 3860,
      "窿": 3861,
      "立": 3862,
      "竖": 3863,
      "站": 3864,
      "竞": 3865,
      "竟": 3866,
      "章": 3867,
      "竣": 3868,
      "童": 3869,
      "竦": 3870,
      "竭": 3871,
      "端": 3872,
      "竹": 3873,
      "竺": 3874,
      "竽": 3875,
      "竿": 3876,
      "笃": 3877,
      "笄": 3878,
      "笆": 3879,
      "笈": 3880,
      "笊": 3881,
      "笋": 3882,
      "笏": 3883,
      "笑": 3884,
      "笔": 3885,
      "笕": 3886,
      "笙": 3887,
      "笛": 3888,
      "笞": 3889,
      "笠": 3890,
      "笤": 3891,
      "符": 3892,
      "笨": 3893,
      "第": 3894,
      "笳": 3895,
      "笸": 3896,
      "笺": 3897,
      "笼": 3898,
      "等": 3899,
      "筋": 3900,
      "筏": 3901,
      "筐": 3902,
      "筑": 3903,
      "筒": 3904,
      "答": 3905,
      "策": 3906,
      "筚": 3907,
      "筛": 3908,
      "筜": 3909,
      "筝": 3910,
      "筠": 3911,
      "筢": 3912,
      "筮": 3913,
      "筱": 3914,
      "筲": 3915,
      "筵": 3916,
      "筷": 3917,
      "筹": 3918,
      "筼": 3919,
      "签": 3920,
      "简": 3921,
      "箍": 3922,
      "箐": 3923,
      "箔": 3924,
      "箕": 3925,
      "算": 3926,
      "箜": 3927,
      "管": 3928,
      "箧": 3929,
      "箩": 3930,
      "箪": 3931,
      "箫": 3932,
      "箬": 3933,
      "箭": 3934,
      "箱": 3935,
      "箴": 3936,
      "箸": 3937,
      "篁": 3938,
      "篆": 3939,
      "篇": 3940,
      "篌": 3941,
      "篑": 3942,
      "篓": 3943,
      "篙": 3944,
      "篝": 3945,
      "篡": 3946,
      "篦": 3947,
      "篮": 3948,
      "篱": 3949,
      "篷": 3950,
      "篼": 3951,
      "篾": 3952,
      "簇": 3953,
      "簌": 3954,
      "簕": 3955,
      "簟": 3956,
      "簧": 3957,
      "簪": 3958,
      "簸": 3959,
      "簿": 3960,
      "籁": 3961,
      "籃": 3962,
      "籍": 3963,
      "米": 3964,
      "籴": 3965,
      "类": 3966,
      "籼": 3967,
      "籽": 3968,
      "粃": 3969,
      "粄": 3970,
      "粉": 3971,
      "粑": 3972,
      "粒": 3973,
      "粕": 3974,
      "粗": 3975,
      "粘": 3976,
      "粟": 3977,
      "粤": 3978,
      "粥": 3979,
      "粪": 3980,
      "粮": 3981,
      "粱": 3982,
      "粲": 3983,
      "粳": 3984,
      "粹": 3985,
      "粼": 3986,
      "粽": 3987,
      "精": 3988,
      "糅": 3989,
      "糊": 3990,
      "糌": 3991,
      "糍": 3992,
      "糕": 3993,
      "糖": 3994,
      "糗": 3995,
      "糙": 3996,
      "糜": 3997,
      "糟": 3998,
      "糠": 3999,
      "糨": 4000,
      "糯": 4001,
      "系": 4002,
      "紊": 4003,
      "紙": 4004,
      "素": 4005,
      "索": 4006,
      "紧": 4007,
      "紫": 4008,
      "累": 4009,
      "細": 4010,
      "終": 4011,
      "結": 4012,
      "給": 4013,
      "絮": 4014,
      "經": 4015,
      "綠": 4016,
      "緊": 4017,
      "縻": 4018,
      "繁": 4019,
      "繇": 4020,
      "繩": 4021,
      "繼": 4022,
      "纂": 4023,
      "纟": 4024,
      "纠": 4025,
      "纡": 4026,
      "红": 4027,
      "纣": 4028,
      "纤": 4029,
      "纥": 4030,
      "约": 4031,
      "级": 4032,
      "纨": 4033,
      "纪": 4034,
      "纫": 4035,
      "纬": 4036,
      "纭": 4037,
      "纮": 4038,
      "纯": 4039,
      "纰": 4040,
      "纱": 4041,
      "纲": 4042,
      "纳": 4043,
      "纵": 4044,
      "纶": 4045,
      "纷": 4046,
      "纸": 4047,
      "纹": 4048,
      "纺": 4049,
      "纽": 4050,
      "纾": 4051,
      "线": 4052,
      "绀": 4053,
      "练": 4054,
      "组": 4055,
      "绅": 4056,
      "细": 4057,
      "织": 4058,
      "终": 4059,
      "绉": 4060,
      "绊": 4061,
      "绌": 4062,
      "绍": 4063,
      "绎": 4064,
      "经": 4065,
      "绐": 4066,
      "绑": 4067,
      "绒": 4068,
      "结": 4069,
      "绔": 4070,
      "绕": 4071,
      "绘": 4072,
      "给": 4073,
      "绚": 4074,
      "绛": 4075,
      "络": 4076,
      "绝": 4077,
      "绞": 4078,
      "统": 4079,
      "绡": 4080,
      "绢": 4081,
      "绣": 4082,
      "绥": 4083,
      "绦": 4084,
      "继": 4085,
      "绩": 4086,
      "绪": 4087,
      "绫": 4088,
      "续": 4089,
      "绮": 4090,
      "绯": 4091,
      "绰": 4092,
      "绳": 4093,
      "维": 4094,
      "绵": 4095,
      "绶": 4096,
      "绷": 4097,
      "绸": 4098,
      "绺": 4099,
      "绻": 4100,
      "综": 4101,
      "绽": 4102,
      "绾": 4103,
      "绿": 4104,
      "缀": 4105,
      "缁": 4106,
      "缄": 4107,
      "缅": 4108,
      "缆": 4109,
      "缇": 4110,
      "缈": 4111,
      "缉": 4112,
      "缎": 4113,
      "缑": 4114,
      "缓": 4115,
      "缔": 4116,
      "缕": 4117,
      "编": 4118,
      "缗": 4119,
      "缘": 4120,
      "缙": 4121,
      "缚": 4122,
      "缛": 4123,
      "缜": 4124,
      "缝": 4125,
      "缟": 4126,
      "缠": 4127,
      "缢": 4128,
      "缤": 4129,
      "缥": 4130,
      "缨": 4131,
      "缩": 4132,
      "缪": 4133,
      "缫": 4134,
      "缭": 4135,
      "缮": 4136,
      "缰": 4137,
      "缱": 4138,
      "缳": 4139,
      "缴": 4140,
      "缶": 4141,
      "缸": 4142,
      "缺": 4143,
      "罂": 4144,
      "罄": 4145,
      "罅": 4146,
      "罐": 4147,
      "网": 4148,
      "罔": 4149,
      "罕": 4150,
      "罗": 4151,
      "罚": 4152,
      "罟": 4153,
      "罡": 4154,
      "罢": 4155,
      "罥": 4156,
      "罩": 4157,
      "罪": 4158,
      "置": 4159,
      "署": 4160,
      "罴": 4161,
      "罹": 4162,
      "羁": 4163,
      "羊": 4164,
      "羌": 4165,
      "美": 4166,
      "羔": 4167,
      "羚": 4168,
      "羞": 4169,
      "羟": 4170,
      "羡": 4171,
      "群": 4172,
      "羧": 4173,
      "羯": 4174,
      "羰": 4175,
      "羲": 4176,
      "羸": 4177,
      "羹": 4178,
      "羽": 4179,
      "羿": 4180,
      "翁": 4181,
      "翅": 4182,
      "翊": 4183,
      "翌": 4184,
      "翎": 4185,
      "習": 4186,
      "翔": 4187,
      "翕": 4188,
      "翘": 4189,
      "翟": 4190,
      "翠": 4191,
      "翡": 4192,
      "翦": 4193,
      "翩": 4194,
      "翮": 4195,
      "翰": 4196,
      "翱": 4197,
      "翳": 4198,
      "翻": 4199,
      "翼": 4200,
      "耀": 4201,
      "老": 4202,
      "考": 4203,
      "耄": 4204,
      "者": 4205,
      "耆": 4206,
      "耋": 4207,
      "而": 4208,
      "耍": 4209,
      "耐": 4210,
      "耒": 4211,
      "耕": 4212,
      "耗": 4213,
      "耘": 4214,
      "耙": 4215,
      "耜": 4216,
      "耦": 4217,
      "耧": 4218,
      "耳": 4219,
      "耶": 4220,
      "耷": 4221,
      "耸": 4222,
      "耻": 4223,
      "耽": 4224,
      "耿": 4225,
      "聂": 4226,
      "聃": 4227,
      "聆": 4228,
      "聊": 4229,
      "聋": 4230,
      "职": 4231,
      "聒": 4232,
      "联": 4233,
      "聘": 4234,
      "聚": 4235,
      "聩": 4236,
      "聪": 4237,
      "聲": 4238,
      "聽": 4239,
      "聿": 4240,
      "肃": 4241,
      "肄": 4242,
      "肆": 4243,
      "肇": 4244,
      "肉": 4245,
      "肋": 4246,
      "肌": 4247,
      "肓": 4248,
      "肖": 4249,
      "肘": 4250,
      "肚": 4251,
      "肛": 4252,
      "肜": 4253,
      "肝": 4254,
      "肠": 4255,
      "股": 4256,
      "肢": 4257,
      "肤": 4258,
      "肥": 4259,
      "肩": 4260,
      "肪": 4261,
      "肫": 4262,
      "肮": 4263,
      "肯": 4264,
      "肱": 4265,
      "育": 4266,
      "肴": 4267,
      "肺": 4268,
      "肽": 4269,
      "肾": 4270,
      "肿": 4271,
      "胀": 4272,
      "胁": 4273,
      "胃": 4274,
      "胄": 4275,
      "胆": 4276,
      "背": 4277,
      "胎": 4278,
      "胖": 4279,
      "胚": 4280,
      "胛": 4281,
      "胜": 4282,
      "胞": 4283,
      "胡": 4284,
      "胤": 4285,
      "胥": 4286,
      "胧": 4287,
      "胨": 4288,
      "胪": 4289,
      "胫": 4290,
      "胭": 4291,
      "胯": 4292,
      "胰": 4293,
      "胱": 4294,
      "胳": 4295,
      "胴": 4296,
      "胶": 4297,
      "胸": 4298,
      "胺": 4299,
      "能": 4300,
      "脂": 4301,
      "脆": 4302,
      "脉": 4303,
      "脊": 4304,
      "脍": 4305,
      "脎": 4306,
      "脏": 4307,
      "脐": 4308,
      "脑": 4309,
      "脓": 4310,
      "脖": 4311,
      "脚": 4312,
      "脯": 4313,
      "脱": 4314,
      "脲": 4315,
      "脸": 4316,
      "脾": 4317,
      "腆": 4318,
      "腊": 4319,
      "腋": 4320,
      "腌": 4321,
      "腐": 4322,
      "腑": 4323,
      "腓": 4324,
      "腔": 4325,
      "腕": 4326,
      "腚": 4327,
      "腥": 4328,
      "腦": 4329,
      "腩": 4330,
      "腭": 4331,
      "腮": 4332,
      "腰": 4333,
      "腱": 4334,
      "腳": 4335,
      "腴": 4336,
      "腹": 4337,
      "腺": 4338,
      "腻": 4339,
      "腼": 4340,
      "腾": 4341,
      "腿": 4342,
      "膀": 4343,
      "膈": 4344,
      "膊": 4345,
      "膏": 4346,
      "膑": 4347,
      "膘": 4348,
      "膛": 4349,
      "膜": 4350,
      "膝": 4351,
      "膦": 4352,
      "膨": 4353,
      "膳": 4354,
      "膺": 4355,
      "膻": 4356,
      "臀": 4357,
      "臂": 4358,
      "臃": 4359,
      "臆": 4360,
      "臉": 4361,
      "臊": 4362,
      "臌": 4363,
      "臣": 4364,
      "臧": 4365,
      "自": 4366,
      "臬": 4367,
      "臭": 4368,
      "至": 4369,
      "致": 4370,
      "臻": 4371,
      "臼": 4372,
      "臾": 4373,
      "舀": 4374,
      "舂": 4375,
      "舅": 4376,
      "舆": 4377,
      "興": 4378,
      "舌": 4379,
      "舍": 4380,
      "舐": 4381,
      "舒": 4382,
      "舔": 4383,
      "舖": 4384,
      "舛": 4385,
      "舜": 4386,
      "舞": 4387,
      "舟": 4388,
      "舢": 4389,
      "航": 4390,
      "舫": 4391,
      "般": 4392,
      "舰": 4393,
      "舱": 4394,
      "舴": 4395,
      "舵": 4396,
      "舶": 4397,
      "舷": 4398,
      "舸": 4399,
      "船": 4400,
      "艄": 4401,
      "艇": 4402,
      "艋": 4403,
      "艘": 4404,
      "良": 4405,
      "艰": 4406,
      "色": 4407,
      "艳": 4408,
      "艹": 4409,
      "艺": 4410,
      "艾": 4411,
      "艿": 4412,
      "节": 4413,
      "芃": 4414,
      "芈": 4415,
      "芊": 4416,
      "芋": 4417,
      "芍": 4418,
      "芒": 4419,
      "芘": 4420,
      "芙": 4421,
      "芜": 4422,
      "芝": 4423,
      "芡": 4424,
      "芥": 4425,
      "芦": 4426,
      "芨": 4427,
      "芪": 4428,
      "芫": 4429,
      "芬": 4430,
      "芭": 4431,
      "芮": 4432,
      "芯": 4433,
      "芰": 4434,
      "花": 4435,
      "芳": 4436,
      "芴": 4437,
      "芷": 4438,
      "芸": 4439,
      "芹": 4440,
      "芽": 4441,
      "芾": 4442,
      "苇": 4443,
      "苌": 4444,
      "苍": 4445,
      "苎": 4446,
      "苏": 4447,
      "苑": 4448,
      "苒": 4449,
      "苓": 4450,
      "苔": 4451,
      "苕": 4452,
      "苗": 4453,
      "苛": 4454,
      "苜": 4455,
      "苞": 4456,
      "苟": 4457,
      "苡": 4458,
      "苣": 4459,
      "若": 4460,
      "苦": 4461,
      "苫": 4462,
      "苯": 4463,
      "英": 4464,
      "苷": 4465,
      "苹": 4466,
      "苻": 4467,
      "茁": 4468,
      "茂": 4469,
      "范": 4470,
      "茄": 4471,
      "茅": 4472,
      "茉": 4473,
      "茎": 4474,
      "茏": 4475,
      "茔": 4476,
      "茕": 4477,
      "茗": 4478,
      "茚": 4479,
      "茛": 4480,
      "茜": 4481,
      "茧": 4482,
      "茨": 4483,
      "茫": 4484,
      "茬": 4485,
      "茭": 4486,
      "茯": 4487,
      "茱": 4488,
      "茴": 4489,
      "茵": 4490,
      "茶": 4491,
      "茸": 4492,
      "茹": 4493,
      "荀": 4494,
      "荃": 4495,
      "荅": 4496,
      "荆": 4497,
      "荇": 4498,
      "草": 4499,
      "荏": 4500,
      "荐": 4501,
      "荒": 4502,
      "荔": 4503,
      "荚": 4504,
      "荛": 4505,
      "荞": 4506,
      "荟": 4507,
      "荠": 4508,
      "荡": 4509,
      "荣": 4510,
      "荤": 4511,
      "荥": 4512,
      "荦": 4513,
      "荧": 4514,
      "荨": 4515,
      "荪": 4516,
      "荫": 4517,
      "药": 4518,
      "荷": 4519,
      "荸": 4520,
      "荻": 4521,
      "荼": 4522,
      "莅": 4523,
      "莆": 4524,
      "莉": 4525,
      "莊": 4526,
      "莎": 4527,
      "莒": 4528,
      "莓": 4529,
      "莘": 4530,
      "莜": 4531,
      "莞": 4532,
      "莠": 4533,
      "莫": 4534,
      "莱": 4535,
      "莲": 4536,
      "莳": 4537,
      "莴": 4538,
      "获": 4539,
      "莹": 4540,
      "莺": 4541,
      "莽": 4542,
      "菁": 4543,
      "菅": 4544,
      "菇": 4545,
      "菊": 4546,
      "菌": 4547,
      "菏": 4548,
      "菖": 4549,
      "菜": 4550,
      "菟": 4551,
      "菠": 4552,
      "菡": 4553,
      "菩": 4554,
      "菱": 4555,
      "菲": 4556,
      "菸": 4557,
      "菽": 4558,
      "萃": 4559,
      "萄": 4560,
      "萊": 4561,
      "萋": 4562,
      "萌": 4563,
      "萍": 4564,
      "萎": 4565,
      "萏": 4566,
      "萘": 4567,
      "萜": 4568,
      "萝": 4569,
      "萤": 4570,
      "营": 4571,
      "萦": 4572,
      "萧": 4573,
      "萨": 4574,
      "萱": 4575,
      "萸": 4576,
      "萼": 4577,
      "落": 4578,
      "葆": 4579,
      "著": 4580,
      "葚": 4581,
      "葛": 4582,
      "葡": 4583,
      "董": 4584,
      "葩": 4585,
      "葫": 4586,
      "葬": 4587,
      "葭": 4588,
      "葱": 4589,
      "葳": 4590,
      "葵": 4591,
      "葺": 4592,
      "蒂": 4593,
      "蒋": 4594,
      "蒙": 4595,
      "蒜": 4596,
      "蒡": 4597,
      "蒲": 4598,
      "蒴": 4599,
      "蒸": 4600,
      "蒹": 4601,
      "蒺": 4602,
      "蒿": 4603,
      "蓁": 4604,
      "蓄": 4605,
      "蓉": 4606,
      "蓊": 4607,
      "蓋": 4608,
      "蓍": 4609,
      "蓑": 4610,
      "蓓": 4611,
      "蓖": 4612,
      "蓝": 4613,
      "蓟": 4614,
      "蓦": 4615,
      "蓬": 4616,
      "蓼": 4617,
      "蓿": 4618,
      "蔑": 4619,
      "蔓": 4620,
      "蔗": 4621,
      "蔚": 4622,
      "蔡": 4623,
      "蔫": 4624,
      "蔬": 4625,
      "蔷": 4626,
      "蔸": 4627,
      "蔺": 4628,
      "蔻": 4629,
      "蔼": 4630,
      "蔽": 4631,
      "蕃": 4632,
      "蕈": 4633,
      "蕉": 4634,
      "蕊": 4635,
      "蕖": 4636,
      "蕙": 4637,
      "蕤": 4638,
      "蕨": 4639,
      "蕲": 4640,
      "蕴": 4641,
      "蕾": 4642,
      "薄": 4643,
      "薅": 4644,
      "薇": 4645,
      "薏": 4646,
      "薛": 4647,
      "薜": 4648,
      "薤": 4649,
      "薩": 4650,
      "薪": 4651,
      "薮": 4652,
      "薯": 4653,
      "薰": 4654,
      "薹": 4655,
      "藁": 4656,
      "藉": 4657,
      "藍": 4658,
      "藏": 4659,
      "藐": 4660,
      "藓": 4661,
      "藕": 4662,
      "藜": 4663,
      "藤": 4664,
      "藩": 4665,
      "藻": 4666,
      "蘅": 4667,
      "蘑": 4668,
      "蘖": 4669,
      "蘩": 4670,
      "蘸": 4671,
      "蘼": 4672,
      "虎": 4673,
      "虏": 4674,
      "虐": 4675,
      "虑": 4676,
      "虔": 4677,
      "處": 4678,
      "虚": 4679,
      "虞": 4680,
      "虢": 4681,
      "虫": 4682,
      "虬": 4683,
      "虱": 4684,
      "虹": 4685,
      "虻": 4686,
      "虽": 4687,
      "虾": 4688,
      "虿": 4689,
      "蚀": 4690,
      "蚁": 4691,
      "蚂": 4692,
      "蚊": 4693,
      "蚋": 4694,
      "蚌": 4695,
      "蚓": 4696,
      "蚕": 4697,
      "蚜": 4698,
      "蚝": 4699,
      "蚣": 4700,
      "蚤": 4701,
      "蚧": 4702,
      "蚩": 4703,
      "蚪": 4704,
      "蚯": 4705,
      "蚰": 4706,
      "蚱": 4707,
      "蚶": 4708,
      "蛀": 4709,
      "蛄": 4710,
      "蛆": 4711,
      "蛇": 4712,
      "蛉": 4713,
      "蛊": 4714,
      "蛋": 4715,
      "蛎": 4716,
      "蛏": 4717,
      "蛐": 4718,
      "蛑": 4719,
      "蛔": 4720,
      "蛙": 4721,
      "蛛": 4722,
      "蛟": 4723,
      "蛤": 4724,
      "蛩": 4725,
      "蛭": 4726,
      "蛮": 4727,
      "蛰": 4728,
      "蛱": 4729,
      "蛳": 4730,
      "蛴": 4731,
      "蛹": 4732,
      "蛾": 4733,
      "蜀": 4734,
      "蜂": 4735,
      "蜃": 4736,
      "蜇": 4737,
      "蜈": 4738,
      "蜉": 4739,
      "蜊": 4740,
      "蜍": 4741,
      "蜒": 4742,
      "蜓": 4743,
      "蜕": 4744,
      "蜗": 4745,
      "蜘": 4746,
      "蜚": 4747,
      "蜜": 4748,
      "蜡": 4749,
      "蜢": 4750,
      "蜣": 4751,
      "蜥": 4752,
      "蜮": 4753,
      "蜴": 4754,
      "蜷": 4755,
      "蜻": 4756,
      "蜿": 4757,
      "蝇": 4758,
      "蝈": 4759,
      "蝉": 4760,
      "蝌": 4761,
      "蝎": 4762,
      "蝗": 4763,
      "蝙": 4764,
      "蝠": 4765,
      "蝣": 4766,
      "蝤": 4767,
      "蝥": 4768,
      "蝮": 4769,
      "蝰": 4770,
      "蝴": 4771,
      "蝶": 4772,
      "蝻": 4773,
      "蝼": 4774,
      "蝽": 4775,
      "蝾": 4776,
      "螂": 4777,
      "螃": 4778,
      "螅": 4779,
      "螈": 4780,
      "螋": 4781,
      "融": 4782,
      "螟": 4783,
      "螨": 4784,
      "螫": 4785,
      "螬": 4786,
      "螭": 4787,
      "螯": 4788,
      "螳": 4789,
      "螺": 4790,
      "蟀": 4791,
      "蟆": 4792,
      "蟊": 4793,
      "蟋": 4794,
      "蟑": 4795,
      "蟒": 4796,
      "蟜": 4797,
      "蟠": 4798,
      "蟪": 4799,
      "蟮": 4800,
      "蟲": 4801,
      "蟹": 4802,
      "蟾": 4803,
      "蠃": 4804,
      "蠕": 4805,
      "蠖": 4806,
      "蠡": 4807,
      "蠢": 4808,
      "蠹": 4809,
      "蠼": 4810,
      "血": 4811,
      "衅": 4812,
      "行": 4813,
      "衍": 4814,
      "衔": 4815,
      "街": 4816,
      "衙": 4817,
      "衡": 4818,
      "衢": 4819,
      "衣": 4820,
      "补": 4821,
      "表": 4822,
      "衩": 4823,
      "衫": 4824,
      "衬": 4825,
      "衮": 4826,
      "衰": 4827,
      "衲": 4828,
      "衷": 4829,
      "衹": 4830,
      "衾": 4831,
      "衿": 4832,
      "袁": 4833,
      "袂": 4834,
      "袄": 4835,
      "袅": 4836,
      "袈": 4837,
      "袋": 4838,
      "袍": 4839,
      "袒": 4840,
      "袖": 4841,
      "袜": 4842,
      "袤": 4843,
      "被": 4844,
      "袭": 4845,
      "袱": 4846,
      "裁": 4847,
      "裂": 4848,
      "装": 4849,
      "裆": 4850,
      "裔": 4851,
      "裕": 4852,
      "裘": 4853,
      "裙": 4854,
      "補": 4855,
      "裝": 4856,
      "裟": 4857,
      "裡": 4858,
      "裢": 4859,
      "裤": 4860,
      "裨": 4861,
      "裰": 4862,
      "裱": 4863,
      "裳": 4864,
      "裴": 4865,
      "裸": 4866,
      "裹": 4867,
      "裾": 4868,
      "褂": 4869,
      "褐": 4870,
      "褒": 4871,
      "褓": 4872,
      "褚": 4873,
      "褛": 4874,
      "褡": 4875,
      "褥": 4876,
      "褪": 4877,
      "褴": 4878,
      "褶": 4879,
      "襁": 4880,
      "襄": 4881,
      "襞": 4882,
      "襟": 4883,
      "襦": 4884,
      "西": 4885,
      "要": 4886,
      "覃": 4887,
      "覆": 4888,
      "見": 4889,
      "親": 4890,
      "覺": 4891,
      "见": 4892,
      "观": 4893,
      "规": 4894,
      "觅": 4895,
      "视": 4896,
      "览": 4897,
      "觉": 4898,
      "觊": 4899,
      "觎": 4900,
      "觐": 4901,
      "觑": 4902,
      "角": 4903,
      "觞": 4904,
      "解": 4905,
      "觥": 4906,
      "触": 4907,
      "言": 4908,
      "訇": 4909,
      "討": 4910,
      "訢": 4911,
      "許": 4912,
      "訴": 4913,
      "詝": 4914,
      "話": 4915,
      "該": 4916,
      "詹": 4917,
      "誉": 4918,
      "誊": 4919,
      "誓": 4920,
      "說": 4921,
      "誰": 4922,
      "課": 4923,
      "請": 4924,
      "論": 4925,
      "諾": 4926,
      "謇": 4927,
      "講": 4928,
      "謝": 4929,
      "識": 4930,
      "警": 4931,
      "譬": 4932,
      "讀": 4933,
      "變": 4934,
      "讌": 4935,
      "讓": 4936,
      "计": 4937,
      "订": 4938,
      "认": 4939,
      "讥": 4940,
      "讦": 4941,
      "讧": 4942,
      "讨": 4943,
      "让": 4944,
      "讪": 4945,
      "讫": 4946,
      "训": 4947,
      "议": 4948,
      "讯": 4949,
      "记": 4950,
      "讲": 4951,
      "讳": 4952,
      "讴": 4953,
      "讵": 4954,
      "讶": 4955,
      "讷": 4956,
      "许": 4957,
      "讹": 4958,
      "论": 4959,
      "讼": 4960,
      "讽": 4961,
      "设": 4962,
      "访": 4963,
      "诀": 4964,
      "证": 4965,
      "诃": 4966,
      "评": 4967,
      "诅": 4968,
      "识": 4969,
      "诈": 4970,
      "诉": 4971,
      "诊": 4972,
      "诋": 4973,
      "诌": 4974,
      "词": 4975,
      "诏": 4976,
      "译": 4977,
      "诓": 4978,
      "试": 4979,
      "诗": 4980,
      "诘": 4981,
      "诙": 4982,
      "诚": 4983,
      "诛": 4984,
      "话": 4985,
      "诞": 4986,
      "诟": 4987,
      "诠": 4988,
      "诡": 4989,
      "询": 4990,
      "诣": 4991,
      "诤": 4992,
      "该": 4993,
      "详": 4994,
      "诧": 4995,
      "诨": 4996,
      "诩": 4997,
      "诫": 4998,
      "诬": 4999,
      "语": 5000,
      "诮": 5001,
      "误": 5002,
      "诰": 5003,
      "诱": 5004,
      "诲": 5005,
      "说": 5006,
      "诵": 5007,
      "诶": 5008,
      "请": 5009,
      "诸": 5010,
      "诺": 5011,
      "读": 5012,
      "诽": 5013,
      "课": 5014,
      "诿": 5015,
      "谀": 5016,
      "谁": 5017,
      "调": 5018,
      "谄": 5019,
      "谅": 5020,
      "谆": 5021,
      "谈": 5022,
      "谊": 5023,
      "谋": 5024,
      "谌": 5025,
      "谍": 5026,
      "谎": 5027,
      "谏": 5028,
      "谐": 5029,
      "谑": 5030,
      "谒": 5031,
      "谓": 5032,
      "谔": 5033,
      "谕": 5034,
      "谖": 5035,
      "谗": 5036,
      "谙": 5037,
      "谚": 5038,
      "谛": 5039,
      "谜": 5040,
      "谟": 5041,
      "谡": 5042,
      "谢": 5043,
      "谣": 5044,
      "谤": 5045,
      "谥": 5046,
      "谦": 5047,
      "谧": 5048,
      "谨": 5049,
      "谩": 5050,
      "谪": 5051,
      "谬": 5052,
      "谭": 5053,
      "谯": 5054,
      "谰": 5055,
      "谱": 5056,
      "谲": 5057,
      "谴": 5058,
      "谶": 5059,
      "谷": 5060,
      "谿": 5061,
      "豁": 5062,
      "豆": 5063,
      "豇": 5064,
      "豉": 5065,
      "豌": 5066,
      "豕": 5067,
      "豚": 5068,
      "象": 5069,
      "豢": 5070,
      "豪": 5071,
      "豫": 5072,
      "豸": 5073,
      "豹": 5074,
      "豺": 5075,
      "貂": 5076,
      "貅": 5077,
      "貉": 5078,
      "貌": 5079,
      "貐": 5080,
      "貓": 5081,
      "貔": 5082,
      "貘": 5083,
      "貝": 5084,
      "貨": 5085,
      "買": 5086,
      "貼": 5087,
      "賣": 5088,
      "賺": 5089,
      "贝": 5090,
      "贞": 5091,
      "负": 5092,
      "贡": 5093,
      "财": 5094,
      "责": 5095,
      "贤": 5096,
      "败": 5097,
      "账": 5098,
      "货": 5099,
      "质": 5100,
      "贩": 5101,
      "贪": 5102,
      "贫": 5103,
      "贬": 5104,
      "购": 5105,
      "贮": 5106,
      "贯": 5107,
      "贰": 5108,
      "贱": 5109,
      "贲": 5110,
      "贴": 5111,
      "贵": 5112,
      "贷": 5113,
      "贸": 5114,
      "费": 5115,
      "贺": 5116,
      "贻": 5117,
      "贼": 5118,
      "贽": 5119,
      "贾": 5120,
      "贿": 5121,
      "赁": 5122,
      "赂": 5123,
      "赃": 5124,
      "资": 5125,
      "赅": 5126,
      "赈": 5127,
      "赉": 5128,
      "赊": 5129,
      "赋": 5130,
      "赌": 5131,
      "赍": 5132,
      "赎": 5133,
      "赏": 5134,
      "赐": 5135,
      "赑": 5136,
      "赓": 5137,
      "赔": 5138,
      "赕": 5139,
      "赖": 5140,
      "赘": 5141,
      "赚": 5142,
      "赛": 5143,
      "赝": 5144,
      "赞": 5145,
      "赟": 5146,
      "赠": 5147,
      "赡": 5148,
      "赢": 5149,
      "赣": 5150,
      "赤": 5151,
      "赦": 5152,
      "赧": 5153,
      "赫": 5154,
      "赭": 5155,
      "走": 5156,
      "赳": 5157,
      "赴": 5158,
      "赵": 5159,
      "赶": 5160,
      "起": 5161,
      "趁": 5162,
      "趄": 5163,
      "超": 5164,
      "越": 5165,
      "趋": 5166,
      "趑": 5167,
      "趔": 5168,
      "趕": 5169,
      "趟": 5170,
      "趣": 5171,
      "足": 5172,
      "趴": 5173,
      "趵": 5174,
      "趾": 5175,
      "趿": 5176,
      "跂": 5177,
      "跃": 5178,
      "跄": 5179,
      "跆": 5180,
      "跋": 5181,
      "跌": 5182,
      "跎": 5183,
      "跑": 5184,
      "跖": 5185,
      "跗": 5186,
      "跘": 5187,
      "跚": 5188,
      "跛": 5189,
      "距": 5190,
      "跟": 5191,
      "跤": 5192,
      "跨": 5193,
      "跪": 5194,
      "跬": 5195,
      "路": 5196,
      "跳": 5197,
      "践": 5198,
      "跶": 5199,
      "跷": 5200,
      "跸": 5201,
      "跹": 5202,
      "跺": 5203,
      "跻": 5204,
      "踅": 5205,
      "踉": 5206,
      "踊": 5207,
      "踌": 5208,
      "踏": 5209,
      "踝": 5210,
      "踞": 5211,
      "踟": 5212,
      "踢": 5213,
      "踩": 5214,
      "踪": 5215,
      "踫": 5216,
      "踮": 5217,
      "踯": 5218,
      "踱": 5219,
      "踵": 5220,
      "踹": 5221,
      "踼": 5222,
      "踽": 5223,
      "蹁": 5224,
      "蹂": 5225,
      "蹄": 5226,
      "蹇": 5227,
      "蹈": 5228,
      "蹉": 5229,
      "蹊": 5230,
      "蹋": 5231,
      "蹑": 5232,
      "蹒": 5233,
      "蹓": 5234,
      "蹙": 5235,
      "蹚": 5236,
      "蹦": 5237,
      "蹩": 5238,
      "蹬": 5239,
      "蹭": 5240,
      "蹰": 5241,
      "蹲": 5242,
      "蹴": 5243,
      "蹶": 5244,
      "蹼": 5245,
      "蹿": 5246,
      "躁": 5247,
      "躅": 5248,
      "躇": 5249,
      "躏": 5250,
      "身": 5251,
      "躬": 5252,
      "躯": 5253,
      "躲": 5254,
      "躺": 5255,
      "車": 5256,
      "车": 5257,
      "轧": 5258,
      "轨": 5259,
      "轩": 5260,
      "转": 5261,
      "轭": 5262,
      "轮": 5263,
      "软": 5264,
      "轰": 5265,
      "轱": 5266,
      "轲": 5267,
      "轳": 5268,
      "轴": 5269,
      "轶": 5270,
      "轸": 5271,
      "轻": 5272,
      "轼": 5273,
      "载": 5274,
      "轿": 5275,
      "辂": 5276,
      "较": 5277,
      "辄": 5278,
      "辅": 5279,
      "辆": 5280,
      "辇": 5281,
      "辈": 5282,
      "辉": 5283,
      "辋": 5284,
      "辍": 5285,
      "辎": 5286,
      "辐": 5287,
      "辑": 5288,
      "输": 5289,
      "辔": 5290,
      "辕": 5291,
      "辖": 5292,
      "辗": 5293,
      "辘": 5294,
      "辙": 5295,
      "辚": 5296,
      "辛": 5297,
      "辜": 5298,
      "辞": 5299,
      "辟": 5300,
      "辣": 5301,
      "辦": 5302,
      "辨": 5303,
      "辩": 5304,
      "辫": 5305,
      "辰": 5306,
      "辱": 5307,
      "農": 5308,
      "边": 5309,
      "辽": 5310,
      "达": 5311,
      "迁": 5312,
      "迂": 5313,
      "迄": 5314,
      "迅": 5315,
      "过": 5316,
      "迈": 5317,
      "迎": 5318,
      "运": 5319,
      "近": 5320,
      "迓": 5321,
      "返": 5322,
      "还": 5323,
      "这": 5324,
      "进": 5325,
      "远": 5326,
      "违": 5327,
      "连": 5328,
      "迟": 5329,
      "迢": 5330,
      "迤": 5331,
      "迥": 5332,
      "迦": 5333,
      "迩": 5334,
      "迪": 5335,
      "迫": 5336,
      "迭": 5337,
      "述": 5338,
      "迳": 5339,
      "迷": 5340,
      "迸": 5341,
      "迹": 5342,
      "追": 5343,
      "退": 5344,
      "送": 5345,
      "适": 5346,
      "逃": 5347,
      "逅": 5348,
      "逆": 5349,
      "选": 5350,
      "逊": 5351,
      "逋": 5352,
      "逍": 5353,
      "透": 5354,
      "逐": 5355,
      "逑": 5356,
      "递": 5357,
      "途": 5358,
      "逖": 5359,
      "逗": 5360,
      "這": 5361,
      "通": 5362,
      "逛": 5363,
      "逝": 5364,
      "逞": 5365,
      "速": 5366,
      "造": 5367,
      "逡": 5368,
      "逢": 5369,
      "逦": 5370,
      "逮": 5371,
      "進": 5372,
      "逵": 5373,
      "逶": 5374,
      "逸": 5375,
      "逻": 5376,
      "逼": 5377,
      "逾": 5378,
      "遁": 5379,
      "遂": 5380,
      "遇": 5381,
      "運": 5382,
      "遍": 5383,
      "過": 5384,
      "遏": 5385,
      "遐": 5386,
      "遑": 5387,
      "遒": 5388,
      "道": 5389,
      "達": 5390,
      "遗": 5391,
      "遛": 5392,
      "遠": 5393,
      "遢": 5394,
      "遣": 5395,
      "遥": 5396,
      "遨": 5397,
      "遭": 5398,
      "遮": 5399,
      "遴": 5400,
      "遵": 5401,
      "遽": 5402,
      "避": 5403,
      "邀": 5404,
      "邂": 5405,
      "邃": 5406,
      "還": 5407,
      "邈": 5408,
      "邊": 5409,
      "邋": 5410,
      "邑": 5411,
      "邓": 5412,
      "邕": 5413,
      "邗": 5414,
      "邙": 5415,
      "邛": 5416,
      "邢": 5417,
      "那": 5418,
      "邦": 5419,
      "邪": 5420,
      "邬": 5421,
      "邮": 5422,
      "邯": 5423,
      "邰": 5424,
      "邱": 5425,
      "邳": 5426,
      "邵": 5427,
      "邸": 5428,
      "邹": 5429,
      "邺": 5430,
      "邻": 5431,
      "邾": 5432,
      "郁": 5433,
      "郄": 5434,
      "郅": 5435,
      "郊": 5436,
      "郎": 5437,
      "郑": 5438,
      "郓": 5439,
      "郗": 5440,
      "郜": 5441,
      "郝": 5442,
      "郞": 5443,
      "郡": 5444,
      "郢": 5445,
      "郤": 5446,
      "郦": 5447,
      "郧": 5448,
      "部": 5449,
      "郭": 5450,
      "郯": 5451,
      "郴": 5452,
      "郸": 5453,
      "都": 5454,
      "鄂": 5455,
      "鄙": 5456,
      "鄚": 5457,
      "鄜": 5458,
      "鄞": 5459,
      "鄢": 5460,
      "鄮": 5461,
      "鄯": 5462,
      "鄱": 5463,
      "酉": 5464,
      "酊": 5465,
      "酋": 5466,
      "酌": 5467,
      "配": 5468,
      "酐": 5469,
      "酒": 5470,
      "酗": 5471,
      "酚": 5472,
      "酝": 5473,
      "酞": 5474,
      "酢": 5475,
      "酣": 5476,
      "酥": 5477,
      "酩": 5478,
      "酪": 5479,
      "酬": 5480,
      "酮": 5481,
      "酯": 5482,
      "酰": 5483,
      "酱": 5484,
      "酲": 5485,
      "酵": 5486,
      "酶": 5487,
      "酷": 5488,
      "酸": 5489,
      "酹": 5490,
      "酾": 5491,
      "酿": 5492,
      "醅": 5493,
      "醇": 5494,
      "醉": 5495,
      "醋": 5496,
      "醌": 5497,
      "醍": 5498,
      "醐": 5499,
      "醒": 5500,
      "醚": 5501,
      "醛": 5502,
      "醪": 5503,
      "醮": 5504,
      "醴": 5505,
      "醺": 5506,
      "釆": 5507,
      "采": 5508,
      "釉": 5509,
      "释": 5510,
      "里": 5511,
      "重": 5512,
      "野": 5513,
      "量": 5514,
      "金": 5515,
      "釜": 5516,
      "針": 5517,
      "鉆": 5518,
      "鉴": 5519,
      "銀": 5520,
      "銮": 5521,
      "鋪": 5522,
      "錡": 5523,
      "錢": 5524,
      "録": 5525,
      "鍪": 5526,
      "鎮": 5527,
      "鏖": 5528,
      "鐻": 5529,
      "鑫": 5530,
      "针": 5531,
      "钉": 5532,
      "钊": 5533,
      "钋": 5534,
      "钍": 5535,
      "钎": 5536,
      "钏": 5537,
      "钓": 5538,
      "钗": 5539,
      "钙": 5540,
      "钛": 5541,
      "钜": 5542,
      "钝": 5543,
      "钞": 5544,
      "钟": 5545,
      "钠": 5546,
      "钡": 5547,
      "钢": 5548,
      "钥": 5549,
      "钦": 5550,
      "钧": 5551,
      "钨": 5552,
      "钩": 5553,
      "钮": 5554,
      "钯": 5555,
      "钰": 5556,
      "钱": 5557,
      "钳": 5558,
      "钴": 5559,
      "钵": 5560,
      "钺": 5561,
      "钻": 5562,
      "钼": 5563,
      "钾": 5564,
      "钿": 5565,
      "铀": 5566,
      "铁": 5567,
      "铂": 5568,
      "铃": 5569,
      "铄": 5570,
      "铅": 5571,
      "铆": 5572,
      "铉": 5573,
      "铋": 5574,
      "铎": 5575,
      "铐": 5576,
      "铕": 5577,
      "铖": 5578,
      "铛": 5579,
      "铜": 5580,
      "铝": 5581,
      "铠": 5582,
      "铡": 5583,
      "铢": 5584,
      "铣": 5585,
      "铤": 5586,
      "铧": 5587,
      "铩": 5588,
      "铬": 5589,
      "铭": 5590,
      "铮": 5591,
      "铯": 5592,
      "铰": 5593,
      "铱": 5594,
      "铲": 5595,
      "铳": 5596,
      "铵": 5597,
      "银": 5598,
      "铷": 5599,
      "铸": 5600,
      "铺": 5601,
      "链": 5602,
      "铿": 5603,
      "销": 5604,
      "锁": 5605,
      "锂": 5606,
      "锃": 5607,
      "锄": 5608,
      "锅": 5609,
      "锆": 5610,
      "锈": 5611,
      "锉": 5612,
      "锋": 5613,
      "锌": 5614,
      "锏": 5615,
      "锐": 5616,
      "锑": 5617,
      "锒": 5618,
      "锔": 5619,
      "锗": 5620,
      "错": 5621,
      "锚": 5622,
      "锛": 5623,
      "锜": 5624,
      "锟": 5625,
      "锡": 5626,
      "锢": 5627,
      "锣": 5628,
      "锤": 5629,
      "锥": 5630,
      "锦": 5631,
      "锨": 5632,
      "锭": 5633,
      "键": 5634,
      "锯": 5635,
      "锰": 5636,
      "锱": 5637,
      "锲": 5638,
      "锵": 5639,
      "锶": 5640,
      "锷": 5641,
      "锹": 5642,
      "锺": 5643,
      "锻": 5644,
      "锾": 5645,
      "镀": 5646,
      "镁": 5647,
      "镂": 5648,
      "镇": 5649,
      "镉": 5650,
      "镊": 5651,
      "镌": 5652,
      "镍": 5653,
      "镏": 5654,
      "镐": 5655,
      "镑": 5656,
      "镒": 5657,
      "镓": 5658,
      "镖": 5659,
      "镛": 5660,
      "镜": 5661,
      "镝": 5662,
      "镢": 5663,
      "镣": 5664,
      "镫": 5665,
      "镬": 5666,
      "镭": 5667,
      "镯": 5668,
      "镰": 5669,
      "镳": 5670,
      "镶": 5671,
      "長": 5672,
      "长": 5673,
      "門": 5674,
      "開": 5675,
      "間": 5676,
      "關": 5677,
      "门": 5678,
      "闩": 5679,
      "闪": 5680,
      "闫": 5681,
      "闭": 5682,
      "问": 5683,
      "闯": 5684,
      "闰": 5685,
      "闱": 5686,
      "闲": 5687,
      "闳": 5688,
      "间": 5689,
      "闵": 5690,
      "闷": 5691,
      "闸": 5692,
      "闹": 5693,
      "闺": 5694,
      "闻": 5695,
      "闼": 5696,
      "闽": 5697,
      "闾": 5698,
      "闿": 5699,
      "阀": 5700,
      "阁": 5701,
      "阂": 5702,
      "阄": 5703,
      "阅": 5704,
      "阆": 5705,
      "阈": 5706,
      "阉": 5707,
      "阊": 5708,
      "阎": 5709,
      "阏": 5710,
      "阐": 5711,
      "阑": 5712,
      "阒": 5713,
      "阔": 5714,
      "阕": 5715,
      "阖": 5716,
      "阗": 5717,
      "阙": 5718,
      "阚": 5719,
      "阜": 5720,
      "队": 5721,
      "阡": 5722,
      "阪": 5723,
      "阮": 5724,
      "阱": 5725,
      "防": 5726,
      "阳": 5727,
      "阴": 5728,
      "阵": 5729,
      "阶": 5730,
      "阻": 5731,
      "阿": 5732,
      "陀": 5733,
      "陂": 5734,
      "附": 5735,
      "际": 5736,
      "陆": 5737,
      "陇": 5738,
      "陈": 5739,
      "陉": 5740,
      "陋": 5741,
      "陌": 5742,
      "降": 5743,
      "限": 5744,
      "陕": 5745,
      "陛": 5746,
      "陟": 5747,
      "陡": 5748,
      "院": 5749,
      "除": 5750,
      "陨": 5751,
      "险": 5752,
      "陪": 5753,
      "陬": 5754,
      "陲": 5755,
      "陵": 5756,
      "陶": 5757,
      "陷": 5758,
      "陽": 5759,
      "隅": 5760,
      "隆": 5761,
      "隈": 5762,
      "隋": 5763,
      "隍": 5764,
      "随": 5765,
      "隐": 5766,
      "隔": 5767,
      "隗": 5768,
      "隘": 5769,
      "隙": 5770,
      "障": 5771,
      "隧": 5772,
      "隰": 5773,
      "隶": 5774,
      "隻": 5775,
      "隼": 5776,
      "隽": 5777,
      "难": 5778,
      "雀": 5779,
      "雁": 5780,
      "雄": 5781,
      "雅": 5782,
      "集": 5783,
      "雇": 5784,
      "雉": 5785,
      "雌": 5786,
      "雍": 5787,
      "雎": 5788,
      "雏": 5789,
      "雒": 5790,
      "雕": 5791,
      "雞": 5792,
      "離": 5793,
      "難": 5794,
      "雨": 5795,
      "雪": 5796,
      "雯": 5797,
      "雲": 5798,
      "雳": 5799,
      "零": 5800,
      "雷": 5801,
      "雹": 5802,
      "雾": 5803,
      "需": 5804,
      "霁": 5805,
      "霄": 5806,
      "霆": 5807,
      "震": 5808,
      "霉": 5809,
      "霍": 5810,
      "霎": 5811,
      "霏": 5812,
      "霓": 5813,
      "霖": 5814,
      "霜": 5815,
      "霞": 5816,
      "霭": 5817,
      "霰": 5818,
      "露": 5819,
      "霸": 5820,
      "霹": 5821,
      "霾": 5822,
      "青": 5823,
      "靓": 5824,
      "靖": 5825,
      "静": 5826,
      "靛": 5827,
      "非": 5828,
      "靠": 5829,
      "靡": 5830,
      "面": 5831,
      "靥": 5832,
      "革": 5833,
      "靳": 5834,
      "靴": 5835,
      "靶": 5836,
      "靼": 5837,
      "鞅": 5838,
      "鞋": 5839,
      "鞍": 5840,
      "鞑": 5841,
      "鞘": 5842,
      "鞠": 5843,
      "鞣": 5844,
      "鞭": 5845,
      "鞮": 5846,
      "鞯": 5847,
      "韦": 5848,
      "韧": 5849,
      "韩": 5850,
      "韪": 5851,
      "韫": 5852,
      "韬": 5853,
      "韭": 5854,
      "音": 5855,
      "韵": 5856,
      "韶": 5857,
      "頁": 5858,
      "頂": 5859,
      "須": 5860,
      "領": 5861,
      "頭": 5862,
      "顗": 5863,
      "顧": 5864,
      "页": 5865,
      "顶": 5866,
      "顷": 5867,
      "顸": 5868,
      "项": 5869,
      "顺": 5870,
      "须": 5871,
      "顼": 5872,
      "顽": 5873,
      "顾": 5874,
      "顿": 5875,
      "颀": 5876,
      "颁": 5877,
      "颂": 5878,
      "预": 5879,
      "颅": 5880,
      "领": 5881,
      "颇": 5882,
      "颈": 5883,
      "颉": 5884,
      "颊": 5885,
      "颌": 5886,
      "颍": 5887,
      "颏": 5888,
      "颐": 5889,
      "频": 5890,
      "颓": 5891,
      "颔": 5892,
      "颖": 5893,
      "颗": 5894,
      "题": 5895,
      "颙": 5896,
      "颚": 5897,
      "颛": 5898,
      "颜": 5899,
      "额": 5900,
      "颞": 5901,
      "颠": 5902,
      "颡": 5903,
      "颢": 5904,
      "颤": 5905,
      "颦": 5906,
      "颧": 5907,
      "風": 5908,
      "风": 5909,
      "飏": 5910,
      "飒": 5911,
      "飓": 5912,
      "飕": 5913,
      "飘": 5914,
      "飙": 5915,
      "飚": 5916,
      "飛": 5917,
      "飞": 5918,
      "食": 5919,
      "飨": 5920,
      "飯": 5921,
      "飽": 5922,
      "餐": 5923,
      "餓": 5924,
      "餮": 5925,
      "饕": 5926,
      "饥": 5927,
      "饨": 5928,
      "饪": 5929,
      "饬": 5930,
      "饭": 5931,
      "饮": 5932,
      "饯": 5933,
      "饰": 5934,
      "饱": 5935,
      "饲": 5936,
      "饴": 5937,
      "饵": 5938,
      "饶": 5939,
      "饷": 5940,
      "饸": 5941,
      "饹": 5942,
      "饺": 5943,
      "饼": 5944,
      "饽": 5945,
      "饿": 5946,
      "馀": 5947,
      "馁": 5948,
      "馄": 5949,
      "馅": 5950,
      "馆": 5951,
      "馈": 5952,
      "馊": 5953,
      "馋": 5954,
      "馍": 5955,
      "馏": 5956,
      "馐": 5957,
      "馑": 5958,
      "馒": 5959,
      "馓": 5960,
      "馔": 5961,
      "馕": 5962,
      "首": 5963,
      "馗": 5964,
      "香": 5965,
      "馥": 5966,
      "馨": 5967,
      "馬": 5968,
      "騑": 5969,
      "驢": 5970,
      "马": 5971,
      "驭": 5972,
      "驮": 5973,
      "驯": 5974,
      "驰": 5975,
      "驱": 5976,
      "驳": 5977,
      "驴": 5978,
      "驶": 5979,
      "驷": 5980,
      "驸": 5981,
      "驹": 5982,
      "驻": 5983,
      "驼": 5984,
      "驽": 5985,
      "驾": 5986,
      "驿": 5987,
      "骁": 5988,
      "骂": 5989,
      "骃": 5990,
      "骄": 5991,
      "骅": 5992,
      "骆": 5993,
      "骇": 5994,
      "骈": 5995,
      "骊": 5996,
      "骋": 5997,
      "验": 5998,
      "骏": 5999,
      "骐": 6000,
      "骑": 6001,
      "骒": 6002,
      "骓": 6003,
      "骖": 6004,
      "骗": 6005,
      "骘": 6006,
      "骚": 6007,
      "骛": 6008,
      "骜": 6009,
      "骞": 6010,
      "骠": 6011,
      "骡": 6012,
      "骢": 6013,
      "骤": 6014,
      "骥": 6015,
      "骧": 6016,
      "骨": 6017,
      "骰": 6018,
      "骶": 6019,
      "骷": 6020,
      "骸": 6021,
      "骺": 6022,
      "骼": 6023,
      "髀": 6024,
      "髅": 6025,
      "髋": 6026,
      "髓": 6027,
      "高": 6028,
      "髙": 6029,
      "髡": 6030,
      "髦": 6031,
      "髫": 6032,
      "髭": 6033,
      "髮": 6034,
      "髯": 6035,
      "髻": 6036,
      "鬃": 6037,
      "鬈": 6038,
      "鬓": 6039,
      "鬟": 6040,
      "鬣": 6041,
      "鬻": 6042,
      "鬼": 6043,
      "魁": 6044,
      "魂": 6045,
      "魃": 6046,
      "魄": 6047,
      "魅": 6048,
      "魆": 6049,
      "魇": 6050,
      "魈": 6051,
      "魉": 6052,
      "魍": 6053,
      "魎": 6054,
      "魏": 6055,
      "魑": 6056,
      "魔": 6057,
      "魚": 6058,
      "魟": 6059,
      "鮋": 6060,
      "鮟": 6061,
      "鮣": 6062,
      "鰲": 6063,
      "鱇": 6064,
      "鱷": 6065,
      "鱼": 6066,
      "鱿": 6067,
      "鲁": 6068,
      "鲂": 6069,
      "鲅": 6070,
      "鲇": 6071,
      "鲈": 6072,
      "鲋": 6073,
      "鲍": 6074,
      "鲎": 6075,
      "鲑": 6076,
      "鲛": 6077,
      "鲜": 6078,
      "鲞": 6079,
      "鲟": 6080,
      "鲠": 6081,
      "鲢": 6082,
      "鲤": 6083,
      "鲧": 6084,
      "鲨": 6085,
      "鲫": 6086,
      "鲭": 6087,
      "鲮": 6088,
      "鲱": 6089,
      "鲲": 6090,
      "鲳": 6091,
      "鲵": 6092,
      "鲶": 6093,
      "鲷": 6094,
      "鲸": 6095,
      "鲻": 6096,
      "鲼": 6097,
      "鲽": 6098,
      "鳃": 6099,
      "鳄": 6100,
      "鳅": 6101,
      "鳌": 6102,
      "鳍": 6103,
      "鳎": 6104,
      "鳏": 6105,
      "鳐": 6106,
      "鳓": 6107,
      "鳔": 6108,
      "鳕": 6109,
      "鳖": 6110,
      "鳗": 6111,
      "鳙": 6112,
      "鳜": 6113,
      "鳝": 6114,
      "鳞": 6115,
      "鳟": 6116,
      "鳢": 6117,
      "鳥": 6118,
      "鳾": 6119,
      "鴨": 6120,
      "鷹": 6121,
      "鸟": 6122,
      "鸠": 6123,
      "鸡": 6124,
      "鸢": 6125,
      "鸣": 6126,
      "鸥": 6127,
      "鸦": 6128,
      "鸨": 6129,
      "鸩": 6130,
      "鸪": 6131,
      "鸫": 6132,
      "鸬": 6133,
      "鸭": 6134,
      "鸮": 6135,
      "鸯": 6136,
      "鸱": 6137,
      "鸲": 6138,
      "鸳": 6139,
      "鸵": 6140,
      "鸶": 6141,
      "鸸": 6142,
      "鸹": 6143,
      "鸽": 6144,
      "鸾": 6145,
      "鸿": 6146,
      "鹁": 6147,
      "鹂": 6148,
      "鹃": 6149,
      "鹄": 6150,
      "鹅": 6151,
      "鹇": 6152,
      "鹈": 6153,
      "鹉": 6154,
      "鹊": 6155,
      "鹋": 6156,
      "鹌": 6157,
      "鹏": 6158,
      "鹑": 6159,
      "鹓": 6160,
      "鹕": 6161,
      "鹗": 6162,
      "鹘": 6163,
      "鹚": 6164,
      "鹜": 6165,
      "鹞": 6166,
      "鹣": 6167,
      "鹤": 6168,
      "鹦": 6169,
      "鹧": 6170,
      "鹫": 6171,
      "鹬": 6172,
      "鹭": 6173,
      "鹮": 6174,
      "鹰": 6175,
      "鹳": 6176,
      "鹿": 6177,
      "麂": 6178,
      "麇": 6179,
      "麈": 6180,
      "麋": 6181,
      "麒": 6182,
      "麓": 6183,
      "麝": 6184,
      "麟": 6185,
      "麦": 6186,
      "麴": 6187,
      "麵": 6188,
      "麸": 6189,
      "麻": 6190,
      "麼": 6191,
      "麽": 6192,
      "麾": 6193,
      "黃": 6194,
      "黄": 6195,
      "黍": 6196,
      "黎": 6197,
      "黏": 6198,
      "黑": 6199,
      "黒": 6200,
      "黔": 6201,
      "默": 6202,
      "黛": 6203,
      "黜": 6204,
      "黝": 6205,
      "點": 6206,
      "黟": 6207,
      "黠": 6208,
      "黢": 6209,
      "黥": 6210,
      "黧": 6211,
      "黩": 6212,
      "黯": 6213,
      "黻": 6214,
      "黼": 6215,
      "黾": 6216,
      "鼎": 6217,
      "鼐": 6218,
      "鼓": 6219,
      "鼙": 6220,
      "鼠": 6221,
      "鼬": 6222,
      "鼯": 6223,
      "鼴": 6224,
      "鼷": 6225,
      "鼹": 6226,
      "鼻": 6227,
      "鼾": 6228,
      "齁": 6229,
      "齐": 6230,
      "齒": 6231,
      "齾": 6232,
      "齿": 6233,
      "龃": 6234,
      "龄": 6235,
      "龅": 6236,
      "龇": 6237,
      "龈": 6238,
      "龉": 6239,
      "龊": 6240,
      "龋": 6241,
      "龌": 6242,
      "龍": 6243,
      "龙": 6244,
      "龚": 6245,
      "龛": 6246,
      "龟": 6247,
      "𫐓": 6248,
      "CH": 6249,
      "ER": 6250,
      "IL": 6251,
      "CHIL": 6252,
      "CHILD": 6253,
      "TA": 6254,
      "T_": 6255,
      "RG": 6256,
      "ET_": 6257,
      "TARG": 6258,
      "ET_CHILD": 6259,
      "TARGET_CHILD": 6260,
      "TH": 6261,
      "THER": 6262,
      "OTHER": 6263,
      "MOTHER": 6264,
      ":\"": 6265,
      "。\"": 6266,
      "!\"": 6267,
      "TI": 6268,
      "VE": 6269,
      "AT": 6270,
      "OR": 6271,
      "IN": 6272,
      "GAT": 6273,
      "STI": 6274,
      "VESTI": 6275,
      "INVESTI": 6276,
      "GATOR": 6277,
      "INVESTIGATOR": 6278,
      "..": 6279,
      "in": 6280,
      "en": 6281,
      "er": 6282,
      "EA": 6283,
      "TEA": 6284,
      "CHER": 6285,
      "TEACHER": 6286,
      "ac": 6287,
      "fr": 6288,
      "frac": 6289,
      "lin": 6290,
      "erlin": 6291,
      "le": 6292,
      "an": 6293,
      "erline": 6294,
      "xx": 6295,
      ",\"": 6296,
      "ri": 6297,
      "?\"": 6298,
      "...": 6299,
      "gh": 6300,
      "ght": 6301,
      "right": 6302,
      "i4": 6303,
      "AD": 6304,
      "UL": 6305,
      "ADUL": 6306,
      "ADULT": 6307,
      "ao": 6308,
      "me": 6309,
      "ft": 6310,
      "rm": 6311,
      "ent": 6312,
      "left": 6313,
      "cent": 6314,
      "10": 6315,
      "centerline": 6316,
      "i3": 6317,
      "un": 6318,
      "20": 6319,
      "--": 6320,
      "do": 6321,
      "la": 6322,
      "_2": 6323,
      "xxx": 6324,
      "he": 6325,
      "und": 6326,
      "i2": 6327,
      "underline": 6328,
      "ti": 6329,
      "dot": 6330,
      "sh": 6331,
      "ang": 6332,
      "FA": 6333,
      "FATHER": 6334,
      "12": 6335,
      "\",": 6336,
      "u4": 6337,
      "mes": 6338,
      "times": 6339,
      "AN": 6340,
      "ar": 6341,
      "end": 6342,
      "i1": 6343,
      "ge": 6344,
      "ma": 6345,
      "\"。": 6346,
      "ao3": 6347,
      "fla": 6348,
      "flag": 6349,
      "endflag": 6350,
      "centerlineendflag": 6351,
      "ta": 6352,
      "...\"": 6353,
      "ni3": 6354,
      "ro": 6355,
      "00": 6356,
      "_1": 6357,
      "),": 6358,
      "sq": 6359,
      "XX": 6360,
      "frac1": 6361,
      "ou": 6362,
      "。\"\"": 6363,
      "sqr": 6364,
      "hu": 6365,
      "sqrt": 6366,
      "row": 6367,
      "a4": 6368,
      "arrow": 6369,
      "zhe": 6370,
      "centerlineendflagcenterline": 6371,
      "''": 6372,
      "AND": 6373,
      "GR": 6374,
      "GRAND": 6375,
      "xi": 6376,
      "an4": 6377,
      "ao4": 6378,
      "ji": 6379,
      "ha": 6380,
      "rightarrow": 6381,
      "di": 6382,
      "19": 6383,
      "ov": 6384,
      "cdot": 6385,
      "ba": 6386,
      "ne": 6387,
      ").": 6388,
      "_3": 6389,
      "ai4": 6390,
      "?\"\"": 6391,
      "errightarrow": 6392,
      "GRANDMOTHER": 6393,
      "uo": 6394,
      "overrightarrow": 6395,
      "15": 6396,
      "!\"\"": 6397,
      "ir": 6398,
      "a2": 6399,
      "a_": 6400,
      "ang4": 6401,
      "BL": 6402,
      "ANK": 6403,
      "BLANK": 6404,
      "a1": 6405,
      "11": 6406,
      "zh": 6407,
      "de": 6408,
      "zhei4": 6409,
      "ng": 6410,
      "18": 6411,
      "x2": 6412,
      "ch": 6413,
      "BA": 6414,
      "ou3": 6415,
      ")。": 6416,
      ".(": 6417,
      "100": 6418,
      "shi4": 6419,
      "eng": 6420,
      "co": 6421,
      "sin": 6422,
      "u2": 6423,
      "wo": 6424,
      "AB": 6425,
      "frac12": 6426,
      "bu4": 6427,
      "lai2": 6428,
      "div": 6429,
      "ing": 6430,
      "16": 6431,
      "be": 6432,
      "30": 6433,
      "wo3": 6434,
      "pi": 6435,
      "cir": 6436,
      "25": 6437,
      "circ": 6438,
      "13": 6439,
      "24": 6440,
      "cos": 6441,
      "th": 6442,
      "ca": 6443,
      "u1": 6444,
      "14": 6445,
      "es": 6446,
      "'''": 6447,
      "hao3": 6448,
      "lan": 6449,
      "en2": 6450,
      "he1": 6451,
      "22": 6452,
      "da": 6453,
      "lant": 6454,
      "qs": 6455,
      "qslant": 6456,
      "\"\"": 6457,
      "ta1": 6458,
      "yi2": 6459,
      "50": 6460,
      "CO": 6461,
      "kan4": 6462,
      "mo": 6463,
      "al": 6464,
      "》,": 6465,
      "tri": 6466,
      "NBA": 6467,
      "gei3": 6468,
      "_4": 6469,
      "a_n": 6470,
      "Cl": 6471,
      "the": 6472,
      "23": 6473,
      "qu4": 6474,
      "Na": 6475,
      "_0": 6476,
      "60": 6477,
      "angle": 6478,
      "()": 6479,
      "40": 6480,
      "che1": 6481,
      "uo1": 6482,
      "17": 6483,
      "ho": 6484,
      "unk": 6485,
      "ya": 6486,
      "fleft": 6487,
      "ab": 6488,
      "you3": 6489,
      "bu2": 6490,
      "anr": 6491,
      "frac3": 6492,
      "an1": 6493,
      "an2": 6494,
      "21": 6495,
      "RE": 6496,
      "5G": 6497,
      "200": 6498,
      "cdots": 6499,
      "e2": 6500,
      "--\"": 6501,
      "e3": 6502,
      "H_2": 6503,
      "el": 6504,
      "bi": 6505,
      "nei4": 6506,
      "mol": 6507,
      "pha": 6508,
      "alpha": 6509,
      "chi1": 6510,
      "XXX": 6511,
      "sqrt3": 6512,
      "XXXXX": 6513,
      "2x": 6514,
      "ong": 6515,
      "uo4": 6516,
      "mei2": 6517,
      "ai": 6518,
      "ai1": 6519,
      "ao1": 6520,
      "NA": 6521,
      "math": 6522,
      "cas": 6523,
      "zai4": 6524,
      "45": 6525,
      "cases": 6526,
      "qi": 6527,
      "en2me": 6528,
      "u3": 6529,
      "jiu4": 6530,
      "li": 6531,
      "leqslant": 6532,
      "hai2": 6533,
      "ou4": 6534,
      "ang1": 6535,
      "OH": 6536,
      "SO": 6537,
      "D错": 6538,
      "shang4": 6539,
      "80": 6540,
      "te": 6541,
      "shen2me": 6542,
      "ABC": 6543,
      "Del": 6544,
      "Delta": 6545,
      "。(": 6546,
      "xiao3": 6547,
      "to": 6548,
      "ang2": 6549,
      "theta": 6550,
      "mb": 6551,
      "ma1": 6552,
      "A错": 6553,
      "triangle": 6554,
      "yao4": 6555,
      "gin": 6556,
      "ang3": 6557,
      "begin": 6558,
      "shuo1": 6559,
      "na2": 6560,
      "bf": 6561,
      "C错": 6562,
      "D正": 6563,
      "x_2": 6564,
      "ku": 6565,
      "en1": 6566,
      "zhei4ge": 6567,
      "No": 6568,
      "C正": 6569,
      "B错": 6570,
      "x_1": 6571,
      "ms": 6572,
      "99": 6573,
      "》。": 6574,
      "frac2": 6575,
      "GRANDFATHER": 6576,
      "da4": 6577,
      "ga": 6578,
      "O_2": 6579,
      "lo": 6580,
      "2times": 6581,
      "B正": 6582,
      "a_1": 6583,
      "90": 6584,
      "hua4": 6585,
      "CA": 6586,
      "you": 6587,
      "cm": 6588,
      "gu": 6589,
      "_n": 6590,
      "36": 6591,
      "CBA": 6592,
      "an3": 6593,
      "ing1": 6594,
      "zi": 6595,
      "32": 6596,
      "bao3": 6597,
      "er4": 6598,
      "eng2": 6599,
      "35": 6600,
      "A正": 6601,
      "D项": 6602,
      "dfrac": 6603,
      "2019": 6604,
      "nar": 6605,
      "zuo4": 6606,
      "、\"": 6607,
      "ao2": 6608,
      "A项": 6609,
      "re": 6610,
      "kuai4": 6611,
      "----": 6612,
      "B项": 6613,
      "ui4": 6614,
      "28": 6615,
      "34": 6616,
      "yi4": 6617,
      "se": 6618,
      "geqslant": 6619,
      "pri": 6620,
      "KER": 6621,
      "lamb": 6622,
      "CARE": 6623,
      "TAKER": 6624,
      "CARETAKER": 6625,
      "C项": 6626,
      "DNA": 6627,
      "。。": 6628,
      "b2": 6629,
      ")-": 6630,
      "(-": 6631,
      "prime": 6632,
      "frac13": 6633,
      "y2": 6634,
      "lambda": 6635,
      "dao4": 6636,
      "000": 6637,
      "xia4": 6638,
      "zen": 6639,
      "sqrt2": 6640,
      "70": 6641,
      ")(": 6642,
      "O_3": 6643,
      "you4": 6644,
      "eng1": 6645,
      "zhe4": 6646,
      "matri": 6647,
      "LA": 6648,
      "e1": 6649,
      "SO_4": 6650,
      "frac5": 6651,
      "x1": 6652,
      "ei": 6653,
      "mathbf": 6654,
      "ve": 6655,
      "\"、\"": 6656,
      "na": 6657,
      "TIVE": 6658,
      "RELA": 6659,
      "RELATIVE": 6660,
      "BC": 6661,
      "2020": 6662,
      "CO_3": 6663,
      "qu": 6664,
      "dou1": 6665,
      "tan": 6666,
      ";\"": 6667,
      "frac14": 6668,
      "da3": 6669,
      "chu": 6670,
      "ing2": 6671,
      "wanr": 6672,
      "ad": 6673,
      "si": 6674,
      "a1yi2": 6675,
      "zher4": 6676,
      "2个": 6677,
      "ma1ma": 6678,
      "frac4": 6679,
      "bie2": 6680,
      "xy": 6681,
      "tab": 6682,
      "yi1": 6683,
      "mega": 6684,
      "wanr2": 6685,
      "AC": 6686,
      "ln": 6687,
      "fo": 6688,
      "27": 6689,
      "ni": 6690,
      "F_1": 6691,
      "a_2": 6692,
      "zou3": 6693,
      "overrightarrowb": 6694,
      "Fe": 6695,
      "jiao4": 6696,
      "3个": 6697,
      "C罗": 6698,
      ",-": 6699,
      "yi2ge": 6700,
      "26": 6701,
      "kg": 6702,
      "F_2": 6703,
      "CO_2": 6704,
      "matrix": 6705,
      "3times": 6706,
      "na4": 6707,
      "',": 6708,
      "Yes": 6709,
      "table": 6710,
      "log": 6711,
      "H_2O": 6712,
      "endcases": 6713,
      "kai1": 6714,
      "begincases": 6715,
      "a3": 6716,
      "dong": 6717,
      "li3": 6718,
      ":'": 6719,
      "e4": 6720,
      "3me": 6721,
      "xt": 6722,
      "zen3me": 6723,
      "D选": 6724,
      "bo": 6725,
      "ge1": 6726,
      "120": 6727,
      "5times": 6728,
      "beta": 6729,
      "rho": 6730,
      "inft": 6731,
      "infty": 6732,
      "ong4": 6733,
      "ei4": 6734,
      "A选": 6735,
      "C选": 6736,
      "!!": 6737,
      "ba4": 6738,
      "ji1": 6739,
      "x_0": 6740,
      "1000": 6741,
      "pp": 6742,
      "x3": 6743,
      "text": 6744,
      "xi1": 6745,
      "huai4": 6746,
      "B选": 6747,
      "2m": 6748,
      "?。": 6749,
      "shu": 6750,
      "75": 6751,
      "lao3": 6752,
      "2018": 6753,
      "()。": 6754,
      "29": 6755,
      "xin": 6756,
      "ye3": 6757,
      "ED": 6758,
      "are": 6759,
      "IS": 6760,
      "DE": 6761,
      "on": 6762,
      "nei4ge": 6763,
      ":(": 6764,
      "Cu": 6765,
      "overrightarrowa": 6766,
      "c2": 6767,
      "2019年": 6768,
      "FI": 6769,
      "zhu": 6770,
      "it": 6771,
      "she": 6772,
      "su": 6773,
      ")、": 6774,
      "v_": 6775,
      "4个": 6776,
      "ere": 6777,
      "jia1": 6778,
      ",《": 6779,
      "Omega": 6780,
      "qi4": 6781,
      "33": 6782,
      "men": 6783,
      ");": 6784,
      "en4": 6785,
      "NO_3": 6786,
      "\";": 6787,
      "hi": 6788,
      "ji3": 6789,
      "ba3": 6790,
      "Na_2": 6791,
      "n1": 6792,
      "48": 6793,
      "anr3": 6794,
      "'。": 6795,
      "rightleft": 6796,
      "Ca": 6797,
      "TER": 6798,
      "r2": 6799,
      "SIS": 6800,
      "eng4": 6801,
      "SISTER": 6802,
      "55": 6803,
      "UN": 6804,
      "xing2": 6805,
      "n2": 6806,
      ".\"": 6807,
      "jin": 6808,
      "Cl_2": 6809,
      "nar3": 6810,
      "DEN": 6811,
      "IDEN": 6812,
      "TIFI": 6813,
      "UNIDEN": 6814,
      "TIFIED": 6815,
      "UNIDENTIFIED": 6816,
      "56": 6817,
      "ei1": 6818,
      "neng2": 6819,
      "up": 6820,
      "1个": 6821,
      "1的": 6822,
      "500": 6823,
      "v_0": 6824,
      "dianr3": 6825,
      "shei2": 6826,
      "frac23": 6827,
      "4times": 6828,
      "300": 6829,
      "NaOH": 6830,
      "31": 6831,
      "2020年": 6832,
      "3x": 6833,
      "...\"\"": 6834,
      "NH": 6835,
      "98": 6836,
      "ou2": 6837,
      "quad": 6838,
      "yu": 6839,
      "78": 6840,
      "squ": 6841,
      "there": 6842,
      "square": 6843,
      "qi3": 6844,
      "RNA": 6845,
      "st": 6846,
      "dai4": 6847,
      "123": 6848,
      "64": 6849,
      "guo4": 6850,
      "dot不": 6851,
      "qi2": 6852,
      "sqrt5": 6853,
      "fore": 6854,
      "5个": 6855,
      "m2": 6856,
      ",'": 6857,
      "38": 6858,
      "42": 6859,
      "_A": 6860,
      "di4": 6861,
      "mL": 6862,
      "bc": 6863,
      "frac15": 6864,
      "overline": 6865,
      "therefore": 6866,
      "wa": 6867,
      "2left": 6868,
      "1times": 6869,
      "BR": 6870,
      "ight": 6871,
      "》、": 6872,
      "chu1": 6873,
      "fracpi": 6874,
      "lg": 6875,
      "x_": 6876,
      "ir3": 6877,
      "frac16": 6878,
      "gan4": 6879,
      "hui2": 6880,
      "2017": 6881,
      "vec": 6882,
      "9年": 6883,
      "gen1": 6884,
      "x的": 6885,
      "a_3": 6886,
      "dong4": 6887,
      "wan2": 6888,
      "C的": 6889,
      "mi": 6890,
      "。'": 6891,
      "zi4": 6892,
      "hone": 6893,
      "NBA的": 6894,
      "Mg": 6895,
      "shou3": 6896,
      "ightarrow": 6897,
      "tian1": 6898,
      "zhao3": 6899,
      "S_": 6900,
      "BROTHER": 6901,
      "?(": 6902,
      "10月": 6903,
      "fang4": 6904,
      "Rightarrow": 6905,
      "yang2": 6906,
      "qiu2": 6907,
      "400": 6908,
      "tablecenterline": 6909,
      "bao4": 6910,
      "ou1": 6911,
      "ong1": 6912,
      "65": 6913,
      "nar4": 6914,
      "HCl": 6915,
      "mathbfR": 6916,
      "huir3": 6917,
      "3年": 6918,
      "6times": 6919,
      "dui4": 6920,
      "37": 6921,
      "op": 6922,
      "》、《": 6923,
      "ting1": 6924,
      "pm": 6925,
      "by": 6926,
      "Al": 6927,
      "ei2": 6928,
      "iP": 6929,
      "mu": 6930,
      "frac7": 6931,
      "fracx2": 6932,
      "zhen1": 6933,
      "ba4ba": 6934,
      "??": 6935,
      "CH_3": 6936,
      "ren2": 6937,
      "endmatrix": 6938,
      "du": 6939,
      "duo1": 6940,
      "rang4": 6941,
      "》《": 6942,
      "\",\"": 6943,
      "2的": 6944,
      "nu": 6945,
      "of": 6946,
      "BLANK3": 6947,
      "PP": 6948,
      "sim": 6949,
      "3的": 6950,
      "fan4": 6951,
      "150": 6952,
      "44": 6953,
      "BLANK2": 6954,
      "BLANK1": 6955,
      "2年": 6956,
      "BLANK6": 6957,
      "6个": 6958,
      "ATP": 6959,
      "BLANK4": 6960,
      "ir4": 6961,
      ",(": 6962,
      "pH": 6963,
      "bi3": 6964,
      "88": 6965,
      "9月": 6966,
      "180": 6967,
      "95": 6968,
      "xie3": 6969,
      "12月": 6970,
      "C_": 6971,
      "erm": 6972,
      "2a": 6973,
      "BLANK5": 6974,
      "Ag": 6975,
      "no": 6976,
      "。《": 6977,
      "96": 6978,
      "k1": 6979,
      "textbf": 6980,
      "2016": 6981,
      "bao1": 6982,
      "2000": 6983,
      "ma2": 6984,
      "po": 6985,
      "qi3lai2": 6986,
      "11月": 6987,
      "beginmatrix": 6988,
      "m_": 6989,
      "anr1": 6990,
      "bao3bao3": 6991,
      "x0": 6992,
      "1年": 6993,
      "yang4": 6994,
      "frac34": 6995,
      "E_": 6996,
      "overrightarrowO": 6997,
      "7年": 6998,
      "nong4": 6999,
      "centerlin": 7000,
      "x4": 7001,
      "zhi1": 7002,
      "ng2": 7003,
      "le4": 7004,
      "NaCl": 7005,
      "huo": 7006,
      "abc": 7007,
      "2018年": 7008,
      "yy": 7009,
      "BLANK7": 7010,
      "lu": 7011,
      "fracsqrt": 7012,
      "2n": 7013,
      "iPhone": 7014,
      "centerlinerm": 7015,
      "43": 7016,
      "hui4": 7017,
      "ha1": 7018,
      "dow": 7019,
      "deng1": 7020,
      "ke3": 7021,
      "m的": 7022,
      "S_n": 7023,
      "zi4ji3": 7024,
      "C_2": 7025,
      "xi3": 7026,
      "a_n1": 7027,
      "A的": 7028,
      "and": 7029,
      "kan4kan4": 7030,
      "nai3": 7031,
      "tu": 7032,
      "yi3": 7033,
      "ya1": 7034,
      "fracsqrt3": 7035,
      "BLANK8": 7036,
      "y_1": 7037,
      "76": 7038,
      "8times": 7039,
      "\"!": 7040,
      "2R": 7041,
      "a0": 7042,
      "mv": 7043,
      "mm": 7044,
      "shi2": 7045,
      "ok": 7046,
      "ra": 7047,
      "la1": 7048,
      "xiang3": 7049,
      "fprime": 7050,
      "y_2": 7051,
      "\")": 7052,
      "5的": 7053,
      "wu3": 7054,
      "ld": 7055,
      "4me": 7056,
      "ing3": 7057,
      "ABC中": 7058,
      "110": 7059,
      "app": 7060,
      "si4": 7061,
      "Ba": 7062,
      "jian4": 7063,
      "a的": 7064,
      "72": 7065,
      "aiyou": 7066,
      "60circ": 7067,
      "1月": 7068,
      "hou4": 7069,
      "min": 7070,
      "):": 7071,
      "mg": 7072,
      "3月": 7073,
      "O_4": 7074,
      "bao": 7075,
      "BLANK9": 7076,
      "4年": 7077,
      "zan2": 7078,
      "ma3": 7079,
      "220": 7080,
      "ex": 7081,
      "k2": 7082,
      "66": 7083,
      "da1": 7084,
      "àn": 7085,
      "shu1": 7086,
      "hao": 7087,
      "2015": 7088,
      "mao1": 7089,
      "eng3": 7090,
      "5G手": 7091,
      "lu4": 7092,
      "t2": 7093,
      "ing4": 7094,
      "\"--": 7095,
      "39": 7096,
      "'''(": 7097,
      "--------": 7098,
      "4x": 7099,
      "frac1x": 7100,
      "diao4": 7101,
      "49": 7102,
      "uparrow": 7103,
      "B的": 7104,
      "20世": 7105,
      "dot正": 7106,
      "8年": 7107,
      "AM": 7108,
      "52": 7109,
      "is": 7110,
      "SO_2": 7111,
      "guo4lai2": 7112,
      "4月": 7113,
      "5g": 7114,
      "fracp": 7115,
      "frac32": 7116,
      "bianr1": 7117,
      "》)": 7118,
      "198": 7119,
      "bu": 7120,
      "dot误": 7121,
      "1日": 7122,
      "dot确": 7123,
      "1234": 7124,
      "II": 7125,
      "CD": 7126,
      "iv": 7127,
      "bao3bao": 7128,
      "dian4": 7129,
      "8个": 7130,
      "uo2": 7131,
      "BLANK10": 7132,
      "mathbfN": 7133,
      "shui3": 7134,
      "zhi1dao4": 7135,
      "yi": 7136,
      "var": 7137,
      "zu": 7138,
      "6月": 7139,
      "ye": 7140,
      "molL": 7141,
      "dao3": 7142,
      "sui4": 7143,
      "frac9": 7144,
      "2021": 7145,
      "2月": 7146,
      "5月": 7147,
      "dot错": 7148,
      "baby": 7149,
      "overrightarrowAB": 7150,
      "bb": 7151,
      "frac35": 7152,
      "10年": 7153,
      "xiang4": 7154,
      "N_2": 7155,
      "x_1x_2": 7156,
      "b_n": 7157,
      "zang1": 7158,
      "10个": 7159,
      "pao3": 7160,
      "800": 7161,
      "qi4che1": 7162,
      "5年": 7163,
      "7times": 7164,
      "fracU": 7165,
      "v_1": 7166,
      "set": 7167,
      "54": 7168,
      "wu1": 7169,
      "Br": 7170,
      "mn": 7171,
      "yu3": 7172,
      "。)": 7173,
      "CH_2": 7174,
      "》:\"": 7175,
      "men2": 7176,
      "xu": 7177,
      "right的": 7178,
      "Aleft": 7179,
      "wang3": 7180,
      "jin4": 7181,
      "R_": 7182,
      "ABCD": 7183,
      "MV": 7184,
      "Pleft": 7185,
      "。【": 7186,
      "lim": 7187,
      "12345": 7188,
      "4G": 7189,
      "frac45": 7190,
      "mai3": 7191,
      "tou2": 7192,
      "H_": 7193,
      "fracx": 7194,
      "a2b2": 7195,
      "46": 7196,
      "NH_3": 7197,
      "NH_4": 7198,
      "bing1": 7199,
      "hen": 7200,
      "or": 7201,
      "fracn": 7202,
      "0的": 7203,
      "CP": 7204,
      "frac8": 7205,
      "fraca": 7206,
      "600": 7207,
      "gu1": 7208,
      "tou": 7209,
      "Na_2CO_3": 7210,
      "\"(": 7211,
      "_C": 7212,
      "yao3": 7213,
      "frac12times": 7214,
      "5G的": 7215,
      "mbo": 7216,
      "AI": 7217,
      "nin": 7218,
      "gleft": 7219,
      "10times": 7220,
      "0时": 7221,
      "53": 7222,
      "7月": 7223,
      "dong1": 7224,
      "F_": 7225,
      "use": 7226,
      "molcdot": 7227,
      "8月": 7228,
      "41": 7229,
      "67": 7230,
      "mma": 7231,
      "wai4": 7232,
      "N的": 7233,
      "fei1": 7234,
      "r4": 7235,
      "bai2": 7236,
      "2A": 7237,
      "x轴": 7238,
      "z_1": 7239,
      "bei1": 7240,
      "62": 7241,
      "7个": 7242,
      "frac25": 7243,
      "ll": 7244,
      "199": 7245,
      "at": 7246,
      "tian2": 7247,
      "125": 7248,
      "NO": 7249,
      "xleft": 7250,
      "hat": 7251,
      "overrightarrowe": 7252,
      "niao4": 7253,
      "B两": 7254,
      "ān": 7255,
      "centerlineendflagcenterlinerm": 7256,
      "v_2": 7257,
      "a_4": 7258,
      "beca": 7259,
      "di1": 7260,
      "ji4": 7261,
      "huo3": 7262,
      "fracy": 7263,
      "ba1": 7264,
      "hong2": 7265,
      "63": 7266,
      "frac18": 7267,
      "2倍": 7268,
      "ce1": 7269,
      "liang3": 7270,
      "em": 7271,
      "J_C": 7272,
      "x2y": 7273,
      "ku1": 7274,
      "20年": 7275,
      "rox": 7276,
      "for": 7277,
      "chu1lai2": 7278,
      "9times": 7279,
      "HCO_3": 7280,
      "dfrac12": 7281,
      "wu": 7282,
      "z_2": 7283,
      "jie1": 7284,
      "5分": 7285,
      "Mn": 7286,
      "km": 7287,
      "wi": 7288,
      "yin": 7289,
      "centerlineendflagcenterline0": 7290,
      "indow": 7291,
      "ms2": 7292,
      "zen4me": 7293,
      "2017年": 7294,
      "because": 7295,
      "68": 7296,
      "uo3": 7297,
      "sqrta": 7298,
      "shuai1": 7299,
      "APP": 7300,
      "ce": 7301,
      "tang2": 7302,
      "tai4": 7303,
      "frac110": 7304,
      "240": 7305,
      "3分": 7306,
      "A_2": 7307,
      "tuo1": 7308,
      "'''('''": 7309,
      "2错": 7310,
      "4的": 7311,
      "erset": 7312,
      "ace": 7313,
      "6年": 7314,
      "pro": 7315,
      "ABC的": 7316,
      "2y": 7317,
      "Bleft": 7318,
      "aov": 7319,
      "H_2SO_4": 7320,
      "CBA的": 7321,
      "5x": 7322,
      "eh": 7323,
      "qi1": 7324,
      "101": 7325,
      "fracy2": 7326,
      "all": 7327,
      "indows": 7328,
      "wei4": 7329,
      "chen2": 7330,
      "250": 7331,
      "aoverrightarrow": 7332,
      "A_1": 7333,
      "gao4": 7334,
      "tion": 7335,
      "wo3men": 7336,
      "Ccenterlineendflagcenterline": 7337,
      "AMD": 7338,
      "1错": 7339,
      "ye2": 7340,
      "90circ": 7341,
      "2016年": 7342,
      "tui1": 7343,
      "-)": 7344,
      "2014": 7345,
      "tiao4": 7346,
      "N_A": 7347,
      "xiu1": 7348,
      "yi4huir3": 7349,
      "xi1xi1": 7350,
      "!'": 7351,
      ",,": 7352,
      "wei2": 7353,
      "mathop": 7354,
      "92": 7355,
      "BD": 7356,
      "Zn": 7357,
      "xia4lai2": 7358,
      "mp": 7359,
      "centerlineendflagcenterline1": 7360,
      "dian3": 7361,
      "2k": 7362,
      "103": 7363,
      "-(": 7364,
      "1时": 7365,
      "?!\"": 7366,
      "overrightarrowaoverrightarrow": 7367,
      "ed": 7368,
      "gao1": 7369,
      "omega": 7370,
      "1分": 7371,
      "3错": 7372,
      "3000": 7373,
      "97": 7374,
      "nai": 7375,
      "SO_3": 7376,
      "veca": 7377,
      "1s": 7378,
      "b的": 7379,
      "160": 7380,
      "n项": 7381,
      "acdot": 7382,
      "a_5": 7383,
      "gamma": 7384,
      "approx": 7385,
      "?!": 7386,
      "10分": 7387,
      "I_": 7388,
      "hao2": 7389,
      "。()": 7390,
      "\":": 7391,
      "V_": 7392,
      "3m": 7393,
      "57": 7394,
      "sqrt1": 7395,
      "centerlineendflagcenterline2": 7396,
      "hai2zi": 7397,
      "58": 7398,
      "GM": 7399,
      "Hz": 7400,
      "sp": 7401,
      "shu3": 7402,
      "sqrtfrac": 7403,
      "ray": 7404,
      "QQ": 7405,
      "guan1": 7406,
      "ca1": 7407,
      "shui4": 7408,
      "yu2": 7409,
      "ax": 7410,
      "kJ": 7411,
      "yang": 7412,
      "47": 7413,
      "30circ": 7414,
      "nai3nai": 7415,
      "\"...": 7416,
      "2s": 7417,
      "51": 7418,
      "9个": 7419,
      "r1": 7420,
      "2012": 7421,
      "hei": 7422,
      "jie3": 7423,
      "jin1": 7424,
      "xleqslant": 7425,
      "22年": 7426,
      "mathrm": 7427,
      ".《": 7428,
      "2b": 7429,
      "4错": 7430,
      "V的": 7431,
      "án": 7432,
      "fracm": 7433,
      "chang4": 7434,
      "84": 7435,
      "fracb": 7436,
      "hei1": 7437,
      "19世": 7438,
      "mathbb": 7439,
      "2sqrt": 7440,
      "you2": 7441,
      "3倍": 7442,
      "\".": 7443,
      "R_1": 7444,
      "ip": 7445,
      "san1": 7446,
      "】:": 7447,
      "xin1": 7448,
      "R_2": 7449,
      "cha1": 7450,
      "deng3": 7451,
      "CaCO_3": 7452,
      "fracleft": 7453,
      "BLANK11": 7454,
      "360": 7455,
      "NO_2": 7456,
      "y1": 7457,
      "zei4": 7458,
      "fracc": 7459,
      "x2y2": 7460,
      "P_": 7461,
      "_12": 7462,
      "108": 7463,
      "hao2yu3": 7464,
      "05": 7465,
      "liang4": 7466,
      "P的": 7467,
      "cup": 7468,
      "hh": 7469,
      "y轴": 7470,
      "zan2men": 7471,
      "2sin": 7472,
      "deng4": 7473,
      "ju": 7474,
      "t_1": 7475,
      "xie2": 7476,
      "1正": 7477,
      "6x": 7478,
      "ke": 7479,
      "140": 7480,
      "ong2": 7481,
      "zui3": 7482,
      "1小": 7483,
      "am": 7484,
      "b0": 7485,
      "frac1a": 7486,
      "jiao3": 7487,
      "195": 7488,
      "overrightarrowc": 7489,
      "ppo": 7490,
      "6的": 7491,
      "C_3": 7492,
      "PS": 7493,
      "pi4": 7494,
      "t_2": 7495,
      "210": 7496,
      "3正": 7497,
      "12个": 7498,
      "194": 7499,
      "1500": 7500,
      "gong1": 7501,
      "dei3": 7502,
      "qiao2": 7503,
      "overrightarrowaoverrightarrowb": 7504,
      "1是": 7505,
      "1mol": 7506,
      "Si": 7507,
      "WTA": 7508,
      "---": 7509,
      "hua1": 7510,
      "yuan2": 7511,
      "FF": 7512,
      "Pro": 7513,
      "nei3": 7514,
      "'''。": 7515,
      "U_": 7516,
      "sy": 7517,
      "frac43": 7518,
      "UI": 7519,
      "12times": 7520,
      "dai1": 7521,
      "qian2": 7522,
      "SO_42": 7523,
      "D不": 7524,
      "gang1": 7525,
      "ge4": 7526,
      "81": 7527,
      ";'": 7528,
      "pa4": 7529,
      "...,": 7530,
      "CuSO_4": 7531,
      "that": 7532,
      "haha": 7533,
      "zhu4": 7534,
      "Cl_3": 7535,
      "gan4ma2": 7536,
      "yyy": 7537,
      "-、": 7538,
      "Bcenterlineendflagcenterline": 7539,
      "FM": 7540,
      "har": 7541,
      "77": 7542,
      "y_0": 7543,
      "ǎn": 7544,
      "2正": 7545,
      ">,": 7546,
      "Li": 7547,
      "P_1": 7548,
      "phi": 7549,
      "wa2": 7550,
      "sheng1": 7551,
      "xian4": 7552,
      "T2": 7553,
      "gai1": 7554,
      "so": 7555,
      "0times": 7556,
      "Fi": 7557,
      "The": 7558,
      "),(": 7559,
      "zhi3": 7560,
      "kgcdot": 7561,
      "CH_3CO": 7562,
      "2015年": 7563,
      "xue2": 7564,
      "oppo": 7565,
      "a_n2": 7566,
      "W_": 7567,
      "ci": 7568,
      "tao2": 7569,
      "fracv": 7570,
      "190": 7571,
      "overrightarrowAC": 7572,
      "ge1ge": 7573,
      "fracsqrt32": 7574,
      "2theta": 7575,
      "P_2": 7576,
      "equ": 7577,
      "yong4": 7578,
      "fracsin": 7579,
      "10的": 7580,
      "centerlineendflagcenterline3": 7581,
      "a_1a_2": 7582,
      "86": 7583,
      "reng1": 7584,
      "dots": 7585,
      "chang2": 7586,
      "82": 7587,
      "Acenterlineendflagcenterline": 7588,
      "b3": 7589,
      "n的": 7590,
      "shi3": 7591,
      "mian4": 7592,
      "3D": 7593,
      "O_": 7594,
      "cu": 7595,
      "go": 7596,
      "underlineunderline": 7597,
      "shi1": 7598,
      "shir4": 7599,
      "guai1": 7600,
      "huo3che1": 7601,
      "01": 7602,
      "1和": 7603,
      "3次": 7604,
      "aa": 7605,
      "du1": 7606,
      "m3": 7607,
      "ty": 7608,
      "105": 7609,
      "2013": 7610,
      "yue4": 7611,
      "2中": 7612,
      "2次": 7613,
      "2x2": 7614,
      "85": 7615,
      "fracab": 7616,
      "zhan4": 7617,
      "900": 7618,
      "t_": 7619,
      "。...": 7620,
      "_2O_3": 7621,
      "A_": 7622,
      "ai3": 7623,
      "ai2": 7624,
      "kx": 7625,
      "x_3": 7626,
      "book": 7627,
      "He": 7628,
      "PC": 7629,
      "jing1": 7630,
      "right2": 7631,
      "100米": 7632,
      "S_triangle": 7633,
      "AR": 7634,
      "os": 7635,
      "en3": 7636,
      "197": 7637,
      "vecb": 7638,
      "fracsqrt22": 7639,
      "OPP": 7640,
      "pi2": 7641,
      "xie4": 7642,
      "cap": 7643,
      "AgNO_3": 7644,
      "2时": 7645,
      "5000": 7646,
      "D三": 7647,
      "Le": 7648,
      "man4": 7649,
      "viv": 7650,
      "10N": 7651,
      "OPPO": 7652,
      "2alpha": 7653,
      "PF_2": 7654,
      "ldots": 7655,
      "2011": 7656,
      "E_k": 7657,
      "!)": 7658,
      "1号": 7659,
      "71": 7660,
      "700": 7661,
      "Dcenterlineendflagcenterline": 7662,
      "dfrac1": 7663,
      "overrightarrowacdot": 7664,
      "chuan1": 7665,
      "4正": 7666,
      "x5": 7667,
      "xian1": 7668,
      "jian3": 7669,
      "tor": 7670,
      "bot": 7671,
      "'。\"": 7672,
      "2H_2O": 7673,
      "teng2": 7674,
      "shi": 7675,
      "huan1": 7676,
      "jiao1": 7677,
      "MVP": 7678,
      "vivo": 7679,
      "94": 7680,
      "A点": 7681,
      "y3": 7682,
      "20circ": 7683,
      "frac17": 7684,
      "ir2": 7685,
      "zhei4yang4": 7686,
      "70周": 7687,
      "ons": 7688,
      "varphi": 7689,
      "3a": 7690,
      "Asin": 7691,
      "m_2": 7692,
      "one": 7693,
      "le4le4": 7694,
      "0circ": 7695,
      "91": 7696,
      "9的": 7697,
      "I_2": 7698,
      "ya2": 7699,
      "xiang1": 7700,
      "30分": 7701,
      "5G技": 7702,
      "hui2lai2": 7703,
      "yang2yang2": 7704,
      "symbo": 7705,
      "Aa": 7706,
      "b1": 7707,
      "80年": 7708,
      "its": 7709,
      "\"。\"": 7710,
      "8的": 7711,
      "In": 7712,
      "KCl": 7713,
      "yan3": 7714,
      "bold": 7715,
      "ye2ye": 7716,
      "boldsymbo": 7717,
      "2t": 7718,
      "tu3": 7719,
      "wen4": 7720,
      "y的": 7721,
      "fraca2": 7722,
      "poons": 7723,
      "harpoons": 7724,
      "ck": 7725,
      "gai4": 7726,
      "ka3": 7727,
      "tu4": 7728,
      "20个": 7729,
      "20分": 7730,
      "ong3": 7731,
      "rightleftharpoons": 7732,
      "2号": 7733,
      "G的": 7734,
      "ter": 7735,
      "ftrightarrow": 7736,
      "ti1": 7737,
      "30年": 7738,
      "60年": 7739,
      "XXXXX的": 7740,
      "sty": 7741,
      "C_4": 7742,
      "Fe2": 7743,
      "ming2": 7744,
      "xgeqslant": 7745,
      "jiu3": 7746,
      "a_6": 7747,
      "bei4": 7748,
      "2014年": 7749,
      "'(": 7750,
      "87": 7751,
      ":《": 7752,
      "feng1": 7753,
      "gan3": 7754,
      "lou2": 7755,
      "underset": 7756,
      "a_12": 7757,
      "Ma": 7758,
      "as": 7759,
      "ban1": 7760,
      "od": 7761,
      "su4": 7762,
      "wa1": 7763,
      "xrightarrow": 7764,
      "ya4": 7765,
      "huan4": 7766,
      "hai1": 7767,
      "\").": 7768,
      "5米": 7769,
      "CH_4": 7770,
      "lei4": 7771,
      "frac56": 7772,
      "Leftrightarrow": 7773,
      "style": 7774,
      ")\"": 7775,
      "1div": 7776,
      "A不": 7777,
      "fracba": 7778,
      "102": 7779,
      "2010年": 7780,
      "array": 7781,
      "cm2": 7782,
      "down": 7783,
      "mi1": 7784,
      "ts": 7785,
      "。--": 7786,
      "mv2": 7787,
      "112": 7788,
      "2是": 7789,
      "4g": 7790,
      "59": 7791,
      "7的": 7792,
      "fi": 7793,
      "fu": 7794,
      "frac6": 7795,
      "fracDelta": 7796,
      "2022年": 7797,
      "you1": 7798,
      "nei3ge": 7799,
      "ku4": 7800,
      "xu3": 7801,
      "70年": 7802,
      "sub": 7803,
      "1中": 7804,
      "2g": 7805,
      "4次": 7806,
      "TV": 7807,
      "beng4": 7808,
      "qin": 7809,
      "frac10": 7810,
      "2008年": 7811,
      "zhuang1": 7812,
      "2分": 7813,
      "89": 7814,
      "gt": 7815,
      "lou": 7816,
      "r3": 7817,
      "xia1": 7818,
      "NaHCO_3": 7819,
      "DNA分": 7820,
      "5元": 7821,
      "79": 7822,
      "B不": 7823,
      "IP": 7824,
      "S_2": 7825,
      "fa1": 7826,
      "y0": 7827,
      "niao3": 7828,
      "180circ": 7829,
      "3x2": 7830,
      "4倍": 7831,
      "Bo": 7832,
      "C_1": 7833,
      "Windows": 7834,
      "ban4": 7835,
      "he2": 7836,
      "kua": 7837,
      "xi3huan1": 7838,
      "jin1tian1": 7839,
      "boldsymbol": 7840,
      "2cos": 7841,
      "4000": 7842,
      "><": 7843,
      "A和": 7844,
      "ly": 7845,
      "wei": 7846,
      "cheng2": 7847,
      "24小": 7848,
      "45circ": 7849,
      "not": 7850,
      "\"、": 7851,
      "-,": 7852,
      "n3": 7853,
      "wang4": 7854,
      "shou1": 7855,
      "frac112": 7856,
      "de2": 7857,
      "\"?": 7858,
      "))": 7859,
      "mRNA": 7860,
      "10000": 7861,
      "20多": 7862,
      "90年": 7863,
      "A是": 7864,
      "CE": 7865,
      "kin": 7866,
      "mao4": 7867,
      "mei4": 7868,
      "centerlineendflagcenterline4": 7869,
      "jie": 7870,
      "forall": 7871,
      "C不": 7872,
      "ke1": 7873,
      "m1": 7874,
      "m_1": 7875,
      "nleft": 7876,
      "ào": 7877,
      "frac19": 7878,
      "overrightarrowBC": 7879,
      "cai2": 7880,
      "di4xia4": 7881,
      "I2R": 7882,
      "K_2": 7883,
      "wu2": 7884,
      "ling": 7885,
      "25times": 7886,
      "CO_32": 7887,
      "F_1F_2": 7888,
      "gao4su4": 7889,
      "mathoplim": 7890,
      "'!\"": 7891,
      "2rm": 7892,
      "3种": 7893,
      "b_1": 7894,
      "x_n": 7895,
      "fracF": 7896,
      "hai4": 7897,
      "hao3hao": 7898,
      "17年": 7899,
      "sig": 7900,
      "Na_2O_2": 7901,
      "kuair4": 7902,
      ";(": 7903,
      "atimes": 7904,
      "b21": 7905,
      "gou4": 7906,
      "ig": 7907,
      "mao2": 7908,
      "enr2": 7909,
      "un1": 7910,
      "arc": 7911,
      "NBA球": 7912,
      "qiang1": 7913,
      "。(《": 7914,
      "mathbfZ": 7915,
      "null": 7916,
      "2021年": 7917,
      "2sqrt2": 7918,
      "OS": 7919,
      "man": 7920,
      "px": 7921,
      "20日": 7922,
      "max": 7923,
      "NBA比": 7924,
      "kg的": 7925,
      "1米": 7926,
      "2米": 7927,
      "2sqrt3": 7928,
      "5天": 7929,
      "H2": 7930,
      "du4": 7931,
      "er2": 7932,
      "center": 7933,
      "50年": 7934,
      "4y": 7935,
      "OK": 7936,
      "_B": 7937,
      "cp": 7938,
      "q2": 7939,
      "āo": 7940,
      "hair2": 7941,
      "1次": 7942,
      "1200": 7943,
      "2不": 7944,
      "5N": 7945,
      "E_1": 7946,
      "HI": 7947,
      "dang1": 7948,
      "zao3": 7949,
      "frac2x": 7950,
      "centerlineendflagcenterline5": 7951,
      "AB的": 7952,
      "big": 7953,
      "was": 7954,
      "1leqslant": 7955,
      "5日": 7956,
      "73": 7957,
      "CC": 7958,
      "nba": 7959,
      "yan2": 7960,
      "cong2": 7961,
      "a_11": 7962,
      "se4": 7963,
      "yang2yang": 7964,
      "2C": 7965,
      "3中": 7966,
      "b_": 7967,
      "b_2": 7968,
      "c罗": 7969,
      "áo": 7970,
      "centerlineendflagcenterline实": 7971,
      "sum": 7972,
      "tablecenterline选": 7973,
      "limits": 7974,
      "1left": 7975,
      "2c": 7976,
      "2r": 7977,
      "3不": 7978,
      "4left": 7979,
      "5m": 7980,
      "D符": 7981,
      "a和": 7982,
      "dfrac2": 7983,
      "gou3": 7984,
      "dou4": 7985,
      "bai3": 7986,
      "zhao4": 7987,
      "CPU": 7988,
      "xian4zai4": 7989,
      "equiv": 7990,
      "2div": 7991,
      "83": 7992,
      "A_3": 7993,
      "k的": 7994,
      "yx": 7995,
      "lin2": 7996,
      "15日": 7997,
      "18年": 7998,
      "ms的": 7999,
      "cm3": 8000,
      "BaCl_2": 8001,
      "212": 8002,
      "4div": 8003,
      "8div": 8004,
      "aleqslant": 8005,
      "yao2": 8006,
      "ane": 8007,
      "frac1e": 8008,
      "100个": 8009,
      "te4": 8010,
      "li3tou": 8011,
      "overrightarrowOA": 8012,
      ")?": 8013,
      "1千": 8014,
      "61": 8015,
      "B符": 8016,
      "ax2": 8017,
      "bx": 8018,
      "l的": 8019,
      "fracQ": 8020,
      "...。": 8021,
      "frac1n": 8022,
      "a_7": 8023,
      "ACD": 8024,
      "begincasesx": 8025,
      "downarrow": 8026,
      "2和": 8027,
      "_a": 8028,
      "ci1": 8029,
      "li4": 8030,
      "peng2": 8031,
      "we": 8032,
      "BLANK12": 8033,
      "BCD": 8034,
      "!...\"": 8035,
      "4种": 8036,
      "450": 8037,
      "5div": 8038,
      "HNO_3": 8039,
      "m0": 8040,
      "mgh": 8041,
      "ngeqslant": 8042,
      "tel": 8043,
      "10日": 8044,
      "18日": 8045,
      "25日": 8046,
      "5次": 8047,
      "E_2": 8048,
      "Fe3": 8049,
      "Mm": 8050,
      "si3": 8051,
      "ver": 8052,
      "10倍": 8053,
      "124": 8054,
      "ar3": 8055,
      "19年": 8056,
      "17日": 8057,
      "999": 8058,
      "2012年": 8059,
      "jie3jie": 8060,
      "1n": 8061,
      "1不": 8062,
      "2frac": 8063,
      ":-": 8064,
      "100元": 8065,
      "mo1": 8066,
      "。。。。": 8067,
      "fracx2a2": 8068,
      "dong1xi1": 8069,
      "overrightarrowe_2": 8070,
      "1x": 8071,
      "2人": 8072,
      "3是": 8073,
      "C符": 8074,
      "di3": 8075,
      "z2": 8076,
      "ard": 8077,
      "15分": 8078,
      "mbox": 8079,
      "1m": 8080,
      "4人": 8081,
      "6div": 8082,
      "P点": 8083,
      "fracb2": 8084,
      "15年": 8085,
      "a2b": 8086,
      "ther": 8087,
      "chu1qu4": 8088,
      "123456": 8089,
      "1元": 8090,
      "3人": 8091,
      "3left": 8092,
      "A符": 8093,
      "B是": 8094,
      "Bsin": 8095,
      "si1": 8096,
      "right1": 8097,
      "right是": 8098,
      "10元": 8099,
      "CuO": 8100,
      "6分": 8101,
      "Acos": 8102,
      "bang4": 8103,
      "der": 8104,
      "duo2": 8105,
      "ki": 8106,
      "wan3": 8107,
      "àng": 8108,
      "ǎo": 8109,
      "fracln": 8110,
      "104": 8111,
      "135": 8112,
      "frac38": 8113,
      "maths": 8114,
      "low": 8115,
      "FeCl_3": 8116,
      "120circ": 8117,
      "MnO_4": 8118,
      "App": 8119,
      "dan4": 8120,
      "ji2": 8121,
      "pai1": 8122,
      "15times": 8123,
      "15circ": 8124,
      "11的": 8125,
      "50元": 8126,
      "bian1": 8127,
      "sqrt52": 8128,
      "acebook": 8129,
      "I_g": 8130,
      "mathbbR": 8131,
      "sigma": 8132,
      "93": 8133,
      "PM": 8134,
      "ting3": 8135,
      "centerlineBcenterlineendflagcenterline": 8136,
      "la4": 8137,
      "''',": 8138,
      "overrightarrowOB": 8139,
      "AO": 8140,
      "ment": 8141,
      "qing1": 8142,
      "。\"(": 8143,
      "10米": 8144,
      "a_n的": 8145,
      "170": 8146,
      "5G网": 8147,
      "na3": 8148,
      "2小": 8149,
      "4分": 8150,
      "8日": 8151,
      "Mleft": 8152,
      "N极": 8153,
      "Pa": 8154,
      "R2": 8155,
      "sa1": 8156,
      "era": 8157,
      "frach": 8158,
      "chou4": 8159,
      "5G时": 8160,
      "teq": 8161,
      "mber": 8162,
      "seteq": 8163,
      "220V": 8164,
      "sui4sui4": 8165,
      "yin1": 8166,
      "3日": 8167,
      "?'": 8168,
      "IT": 8169,
      "PA": 8170,
      "xing1": 8171,
      "y4": 8172,
      "--《": 8173,
      "ang2x": 8174,
      "ar1": 8175,
      "hai": 8176,
      "186": 8177,
      "H_2O_2": 8178,
      "28日": 8179,
      "bye": 8180,
      "overrightarrowe_1": 8181,
      "liang3ge": 8182,
      "subseteq": 8183,
      "2种": 8184,
      "F的": 8185,
      "S_1": 8186,
      "nn": 8187,
      "jiang3": 8188,
      "ABD": 8189,
      "frac12left": 8190,
      "thing": 8191,
      "liang2": 8192,
      "beginmatri": 8193,
      "R_g": 8194,
      "em4": 8195,
      "mathsf": 8196,
      "bi2": 8197,
      "ping2": 8198,
      "windows": 8199,
      "mei": 8200,
      "a_k": 8201,
      "!--": 8202,
      "\"),": 8203,
      ",<": 8204,
      "74": 8205,
      "AA": 8206,
      "C是": 8207,
      "LO": 8208,
      "PF_1": 8209,
      "_甲": 8210,
      "c的": 8211,
      "ci4": 8212,
      "d2": 8213,
      "hou2": 8214,
      "wang2x": 8215,
      "zui4": 8216,
      "》?": 8217,
      "ack": 8218,
      "centerlineDcenterlineendflagcenterline": 8219,
      "mate": 8220,
      "100times": 8221,
      "2xy": 8222,
      "----------------": 8223,
      "qin2": 8224,
      "1N": 8225,
      "130": 8226,
      ";;": 8227,
      "H_4": 8228,
      "_乙": 8229,
      "sang4": 8230,
      ":\"'": 8231,
      "20岁": 8232,
      "100分": 8233,
      "50米": 8234,
      "40年": 8235,
      "zai4jian4": 8236,
      "v_02": 8237,
      "。'\"": 8238,
      "jin4qu4": 8239,
      "2013年": 8240,
      "wang2xi1": 8241,
      "2cdot": 8242,
      "3n": 8243,
      "4m": 8244,
      "B点": 8245,
      "J的": 8246,
      "dao1": 8247,
      "isin": 8248,
      "rou4": 8249,
      "sqrt6": 8250,
      "overset": 8251,
      "16times": 8252,
      "mathbfR上": 8253,
      "ke3yi3": 8254,
      "C时": 8255,
      "F_3": 8256,
      "nm": 8257,
      "xi4": 8258,
      "frac78": 8259,
      "20times": 8260,
      "tian": 8261,
      "12日": 8262,
      "jiu1": 8263,
      "neq": 8264,
      "a_i": 8265,
      "zhang1": 8266,
      "cai3": 8267,
      "frac52": 8268,
      "bing1bing1": 8269,
      "119": 8270,
      "2B": 8271,
      "2N": 8272,
      "3号": 8273,
      "4不": 8274,
      "4是": 8275,
      "cai4": 8276,
      "l_2": 8277,
      "yo": 8278,
      "y2x": 8279,
      "la2": 8280,
      "''')。": 8281,
      "dian4hua4": 8282,
      "!...": 8283,
      "1万": 8284,
      "6日": 8285,
      "A中": 8286,
      "O2": 8287,
      "kW": 8288,
      "l_1": 8289,
      "mu4": 8290,
      "ps": 8291,
      "t时": 8292,
      "tang3": 8293,
      "wa4": 8294,
      "。''": 8295,
      "。'''": 8296,
      "!\",": 8297,
      "frac0": 8298,
      "frack": 8299,
      "10circ": 8300,
      "frac1b": 8301,
      "kan4jian4": 8302,
      "anr4": 8303,
      "CaCl_2": 8304,
      "fracy2b21": 8305,
      "wa2wa": 8306,
      "ka3che1": 8307,
      "3时": 8308,
      "jing4": 8309,
      "yan4": 8310,
      "lay": 8311,
      "11个": 8312,
      "100多": 8313,
      "frac12mv2": 8314,
      "30的": 8315,
      "mo2": 8316,
      "29日": 8317,
      "MgCl_2": 8318,
      "fei1ji1": 8319,
      "peng2you3": 8320,
      "erator": 8321,
      "1或": 8322,
      "D的": 8323,
      "MN": 8324,
      "Mac": 8325,
      "fa": 8326,
      "m4": 8327,
      "nan2": 8328,
      "r_2": 8329,
      "zha1": 8330,
      "》(": 8331,
      "fracf": 8332,
      "20的": 8333,
      "huang2": 8334,
      "zhong1": 8335,
      "16年": 8336,
      "178": 8337,
      "yi4dianr3": 8338,
      "zhu1": 8339,
      "v_B": 8340,
      "1cdot": 8341,
      "5岁": 8342,
      "M的": 8343,
      "X射": 8344,
      "da2": 8345,
      "ke4": 8346,
      "pe": 8347,
      "x6": 8348,
      "128": 8349,
      "hu2": 8350,
      "overrightarrown": 8351,
      "a_9": 8352,
      "hao3wanr2": 8353,
      "guang1": 8354,
      "zhe4ge": 8355,
      "operator": 8356,
      "76人": 8357,
      "0除": 8358,
      "3米": 8359,
      "?...": 8360,
      "AP": 8361,
      "Bcos": 8362,
      "m4me": 8363,
      "ss": 8364,
      "sqrtb": 8365,
      "xie1": 8366,
      "zhao2": 8367,
      "comp": 8368,
      "lon": 8369,
      "re4": 8370,
      "!!!": 8371,
      "zhuang4": 8372,
      "itty": 8373,
      "y_1y_2": 8374,
      "Mate": 8375,
      "operatorna": 8376,
      "2ab": 8377,
      "3s": 8378,
      "5s": 8379,
      "U_2": 8380,
      "gmol": 8381,
      "li2": 8382,
      "og": 8383,
      "per": 8384,
      "1999": 8385,
      "x2x": 8386,
      "silon": 8387,
      "MnO_2": 8388,
      "-\"": 8389,
      "5号": 8390,
      "B_1": 8391,
      "H_3": 8392,
      "Rh": 8393,
      "Th": 8394,
      "eV": 8395,
      "ger": 8396,
      "gu4": 8397,
      "n个": 8398,
      "renr2": 8399,
      "wu4": 8400,
      "jia4": 8401,
      "ha2": 8402,
      "18岁": 8403,
      "100万": 8404,
      "biao3": 8405,
      "Apple": 8406,
      "4日": 8407,
      "8号": 8408,
      "Bb": 8409,
      "che": 8410,
      "nao3": 8411,
      "win": 8412,
      "acos": 8413,
      "right中": 8414,
      "--\"\"": 8415,
      "nem4me": 8416,
      "187": 8417,
      "chong2": 8418,
      "22日": 8419,
      "frac37": 8420,
      "200米": 8421,
      "xyz": 8422,
      "fracpi6": 8423,
      "iphone": 8424,
      "CH_3COO": 8425,
      "limits_": 8426,
      "02": 8427,
      "5ms": 8428,
      "Facebook": 8429,
      "Go": 8430,
      "X的": 8431,
      "ct": 8432,
      "tang4": 8433,
      "a_8": 8434,
      "11times": 8435,
      "de1": 8436,
      "dei4": 8437,
      "25circ": 8438,
      "DNA的": 8439,
      "wanr2qu4": 8440,
      "overrightarrowbleft": 8441,
      "Fe_2O_3": 8442,
      "bo1": 8443,
      "guo4qu4": 8444,
      "qiu2qiu2": 8445,
      "shi2hou4": 8446,
      "1rm": 8447,
      "3A": 8448,
      "6次": 8449,
      ";《": 8450,
      "Wi": 8451,
      "bang1": 8452,
      "cleft": 8453,
      "nɡ": 8454,
      "suo3": 8455,
      "xa": 8456,
      "196": 8457,
      "185": 8458,
      "50个": 8459,
      "21日": 8460,
      "2008": 8461,
      "Na_2SO_4": 8462,
      "bao4bao4": 8463,
      "2leqslant": 8464,
      "5万": 8465,
      "69": 8466,
      "8分": 8467,
      "KNO_3": 8468,
      "b4": 8469,
      "mi3": 8470,
      "o1": 8471,
      "y_": 8472,
      "rightleqslant": 8473,
      "del": 8474,
      "100g": 8475,
      "jiao4che1": 8476,
      "ren2jia1": 8477,
      "kmh": 8478,
      "2元": 8479,
      "280": 8480,
      "3y": 8481,
      "4中": 8482,
      "5V": 8483,
      "5倍": 8484,
      "5时": 8485,
      "8米": 8486,
      "Ga": 8487,
      "leng3": 8488,
      "p_2": 8489,
      "v2": 8490,
      "xfrac": 8491,
      "xne": 8492,
      "fracGM": 8493,
      "107": 8494,
      "shu4": 8495,
      "12年": 8496,
      "sqrtx": 8497,
      "centerlineendflagcenterline10": 8498,
      "had": 8499,
      "a_10": 8500,
      "14日": 8501,
      "hao3kan4": 8502,
      "mao1mao1": 8503,
      "2或": 8504,
      "3k": 8505,
      "3小": 8506,
      "3比": 8507,
      "5cm": 8508,
      "8g": 8509,
      "Gfrac": 8510,
      "ah": 8511,
      "hm": 8512,
      "hou": 8513,
      "xing4": 8514,
      "rightsqrt": 8515,
      "15个": 8516,
      "111": 8517,
      "x21": 8518,
      "24日": 8519,
      "14times": 8520,
      "Cl_4": 8521,
      "40分": 8522,
      "2x1": 8523,
      "400米": 8524,
      "III": 8525,
      "shui4jiao4": 8526,
      "kJcdot": 8527,
      "2011年": 8528,
      ",...": 8529,
      "0leqslant": 8530,
      "LED": 8531,
      "exi": 8532,
      "gan1": 8533,
      "p_1": 8534,
      "tt": 8535,
      "yz": 8536,
      "ze4": 8537,
      "!\"...": 8538,
      "right为": 8539,
      "frac120": 8540,
      "hu3": 8541,
      "30多": 8542,
      "134": 8543,
      "H_2S": 8544,
      "exist": 8545,
      "0sim": 8546,
      "3天": 8547,
      "7分": 8548,
      "A2": 8549,
      "A在": 8550,
      "aleft": 8551,
      "ageqslant": 8552,
      "c0": 8553,
      "res": 8554,
      "wang2": 8555,
      "xx2": 8556,
      "mei3": 8557,
      "10秒": 8558,
      "_24": 8559,
      "centerlineendflagcenterlineCcenterlineendflagcenterline": 8560,
      "15岁": 8561,
      "frac12m": 8562,
      "144": 8563,
      "NaH": 8564,
      "H_2uparrow": 8565,
      "ABC是": 8566,
      "90分": 8567,
      "------": 8568,
      "x_12": 8569,
      "ling2": 8570,
      "operatorname": 8571,
      "1A": 8572,
      "2bc": 8573,
      "3和": 8574,
      "4时": 8575,
      "6时": 8576,
      "6000": 8577,
      "7日": 8578,
      "B中": 8579,
      "Hg": 8580,
      "H_1": 8581,
      "cang2": 8582,
      "pa": 8583,
      "r_1": 8584,
      "sa": 8585,
      "zi1": 8586,
      "frac22": 8587,
      "ould": 8588,
      "xiao4": 8589,
      "overrightarrowM": 8590,
      "zheng4": 8591,
      "100倍": 8592,
      "14年": 8593,
      "22times": 8594,
      "ab0": 8595,
      "2009年": 8596,
      "number": 8597,
      "iPhone11": 8598,
      "bigcirc": 8599,
      "1人": 8600,
      "4s": 8601,
      "Ba2": 8602,
      "C所": 8603,
      "Cu2": 8604,
      "PB": 8605,
      "P在": 8606,
      "Q的": 8607,
      "SC": 8608,
      "_rm": 8609,
      "bin": 8610,
      "cd": 8611,
      "can": 8612,
      "den1": 8613,
      "han": 8614,
      "kou1": 8615,
      "zou4": 8616,
      "》:": 8617,
      "int": 8618,
      "20元": 8619,
      "121": 8620,
      "15N": 8621,
      "zhei4bianr1": 8622,
      "ta1men": 8623,
      "60times": 8624,
      "his": 8625,
      "overrightarrowOC": 8626,
      "a2b2c2": 8627,
      "1949年": 8628,
      "CH_3COOH": 8629,
      "comple": 8630,
      "4N": 8631,
      "8N": 8632,
      "GD": 8633,
      "I_1": 8634,
      "V_2": 8635,
      "V_1": 8636,
      "eq": 8637,
      "id": 8638,
      "long": 8639,
      "xī": 8640,
      "ài": 8641,
      "ēng": 8642,
      "enh": 8643,
      "1010": 8644,
      "centerlineendflagcenterline加": 8645,
      "wo1": 8646,
      "hao3chi1": 8647,
      "yi2xia4": 8648,
      "234": 8649,
      "26日": 8650,
      "fracpi2": 8651,
      "mei4mei": 8652,
      "2i": 8653,
      "3元": 8654,
      "8元": 8655,
      "9日": 8656,
      "Mo": 8657,
      "nd": 8658,
      "sen2me": 8659,
      "ying1": 8660,
      "18世": 8661,
      "168": 8662,
      "13日": 8663,
      "50circ": 8664,
      "2006年": 8665,
      "liu2": 8666,
      "lao3ya1": 8667,
      "nothing": 8668,
      "Book": 8669,
      "1在": 8670,
      "2日": 8671,
      "230": 8672,
      "324": 8673,
      ">。": 8674,
      "KMnO_4": 8675,
      "Phi": 8676,
      "cba": 8677,
      "guo3": 8678,
      "ru": 8679,
      "ste": 8680,
      "frac24": 8681,
      "10天": 8682,
      "frac11": 8683,
      "sqrtab": 8684,
      "huar1": 8685,
      "zhi": 8686,
      "132": 8687,
      "136": 8688,
      "che1che1": 8689,
      "nei4bianr1": 8690,
      "guan3": 8691,
      "en4me": 8692,
      "ji3ge": 8693,
      "E_p": 8694,
      "z_1z_2": 8695,
      "CEO": 8696,
      "03": 8697,
      "312": 8698,
      "A球": 8699,
      "C三": 8700,
      "VR": 8701,
      "dth": 8702,
      "et": 8703,
      "hao4": 8704,
      "áng": 8705,
      "sqrt4": 8706,
      "die2": 8707,
      "wor": 8708,
      "23日": 8709,
      "CO_2uparrow": 8710,
      "fracx24": 8711,
      "varnothing": 8712,
      "U_AB": 8713,
      "\";\"": 8714,
      "2万": 8715,
      "216": 8716,
      "F1": 8717,
      "PG": 8718,
      "P_0": 8719,
      "ff": 8720,
      "guo2": 8721,
      "whi": 8722,
      "fracq": 8723,
      "10ms2": 8724,
      "20万": 8725,
      "under": 8726,
      "sqrtn": 8727,
      "19日": 8728,
      ").(": 8729,
      "nai2": 8730,
      "overrightarrowaleft": 8731,
      "tian2tian": 8732,
      "width": 8733,
      "exists": 8734,
      "\":\"": 8735,
      "2pi": 8736,
      "4a": 8737,
      "4k": 8738,
      "4米": 8739,
      "5circ": 8740,
      "6V": 8741,
      "6岁": 8742,
      "GPS": 8743,
      "jing3": 8744,
      "ǎng": 8745,
      "!\"。": 8746,
      "fracfleft": 8747,
      "lai": 8748,
      "dot有": 8749,
      "126": 8750,
      "jian1": 8751,
      "ba2": 8752,
      "11日": 8753,
      "chi": 8754,
      "100circ": 8755,
      "16岁": 8756,
      "chi1wan2": 8757,
      "。。。": 8758,
      "frac49": 8759,
      "with": 8760,
      "Intel": 8761,
      "'\"": 8762,
      "3只": 8763,
      "350": 8764,
      "5A": 8765,
      "7x": 8766,
      "BO": 8767,
      "Ca2": 8768,
      "We": 8769,
      "lou4": 8770,
      "n_2": 8771,
      "āng": 8772,
      "fracac": 8773,
      "lei": 8774,
      "endarray": 8775,
      "centerlineendflagcenterline6": 8776,
      "188": 8777,
      "''')": 8778,
      "》,《": 8779,
      "gua1": 8780,
      "frac53": 8781,
      "31日": 8782,
      "iPad": 8783,
      "2000年": 8784,
      "m_B": 8785,
      "C_2H_": 8786,
      "zei4ge": 8787,
      "tao2qi4": 8788,
      "LOL": 8789,
      "((": 8790,
      "1sim": 8791,
      "2p": 8792,
      "A为": 8793,
      "Fleft": 8794,
      "L_1": 8795,
      "S极": 8796,
      "a是": 8797,
      "ain": 8798,
      "ber": 8799,
      "gou": 8800,
      "nto": 8801,
      "ran2": 8802,
      "x10": 8803,
      "rightcdot": 8804,
      "shen1": 8805,
      "frac1m": 8806,
      "centerlineendflagcenterlineAcenterlineendflagcenterline": 8807,
      "jiu": 8808,
      "ong2m": 8809,
      "liu4": 8810,
      "beginarray": 8811,
      "35年": 8812,
      "zuo4zuo4": 8813,
      "FeSO_4": 8814,
      "CaO": 8815,
      "F_浮": 8816,
      "mathbbN": 8817,
      "ign": 8818,
      "complement": 8819,
      ")》": 8820,
      "4cm": 8821,
      "510": 8822,
      "6g": 8823,
      "6人": 8824,
      "Kitty": 8825,
      "OA": 8826,
      "nao4": 8827,
      "frac20": 8828,
      "un4": 8829,
      "jie4": 8830,
      "1998": 8831,
      "zhang3": 8832,
      "24个": 8833,
      "27日": 8834,
      "lus": 8835,
      "dong1xi": 8836,
      "tian2tian2": 8837,
      "ong2mao1": 8838,
      "0或": 8839,
      "2f": 8840,
      "340": 8841,
      "5千": 8842,
      "7点": 8843,
      "8x": 8844,
      "A说": 8845,
      "U_1": 8846,
      "adiv": 8847,
      "fan1": 8848,
      "n4": 8849,
      "ting2": 8850,
      "yx2": 8851,
      "yao1": 8852,
      "ung": 8853,
      "he4": 8854,
      "12的": 8855,
      "sqrtx2": 8856,
      "sqrt22": 8857,
      "H_2rm": 8858,
      "ted": 8859,
      "frac29": 8860,
      "v_0t": 8861,
      "12345678": 8862,
      "1right": 8863,
      "2a2": 8864,
      "224": 8865,
      "3N": 8866,
      "5人": 8867,
      "Co": 8868,
      "C上": 8869,
      "CCl_4": 8870,
      "D是": 8871,
      "RfracU": 8872,
      "gtimes": 8873,
      "my": 8874,
      "psilon": 8875,
      "sci": 8876,
      "vfrac": 8877,
      "y21": 8878,
      "zuo2": 8879,
      "T_2": 8880,
      "10万": 8881,
      "1023": 8882,
      "20div": 8883,
      "100div": 8884,
      "16个": 8885,
      "yi2kuair4": 8886,
      "40circ": 8887,
      "narray": 8888,
      "frac58": 8889,
      "BCD错": 8890,
      "niu2": 8891,
      "overlinez": 8892,
      "MgO": 8893,
      "1979年": 8894,
      "yan2se4": 8895,
      "eqnarray": 8896,
      "2有": 8897,
      "6N": 8898,
      "8时": 8899,
      "B球": 8900,
      "O的": 8901,
      "P为": 8902,
      "TT": 8903,
      "_9": 8904,
      "aq": 8905,
      "bl": 8906,
      "dy": 8907,
      "k为": 8908,
      "kou3": 8909,
      "lao": 8910,
      "q的": 8911,
      "song4": 8912,
      "x为": 8913,
      "xto": 8914,
      "yf": 8915,
      "in1": 8916,
      "ene": 8917,
      "right2left": 8918,
      "10ms": 8919,
      "00年": 8920,
      "x22x": 8921,
      "50times": 8922,
      "mod": 8923,
      "40多": 8924,
      "21年": 8925,
      "200多": 8926,
      "bian4": 8927,
      "xiao3hair2": 8928,
      "frac13times": 8929,
      "da3kai1": 8930,
      "arepsilon": 8931,
      "v_A": 8932,
      "AMD的": 8933,
      "yan3jing1": 8934,
      "sumlimits_": 8935,
      "):(": 8936,
      "115": 8937,
      "225": 8938,
      "2mol": 8939,
      "3H": 8940,
      "6s": 8941,
      "6种": 8942,
      "L_2": 8943,
      "P到": 8944,
      "T恤": 8945,
      "VI": 8946,
      "_水": 8947,
      "hnu": 8948,
      "kleft": 8949,
      "yleft": 8950,
      "ye4": 8951,
      "z的": 8952,
      "fracd": 8953,
      "fractan": 8954,
      "right上": 8955,
      "10次": 8956,
      "12时": 8957,
      "12div": 8958,
      "frac111": 8959,
      "xiong2mao1": 8960,
      "have": 8961,
      "de4": 8962,
      "14岁": 8963,
      "align": 8964,
      "5G了": 8965,
      "78年": 8966,
      "C_6": 8967,
      "a_n1a_n": 8968,
      "undersetnto": 8969,
      "2在": 8970,
      "8000": 8971,
      "9时": 8972,
      "?--": 8973,
      "C中": 8974,
      "Chi": 8975,
      "E的": 8976,
      "_5": 8977,
      "br": 8978,
      "gu2": 8979,
      "hang": 8980,
      "mx": 8981,
      "m_A": 8982,
      "xO": 8983,
      "y22": 8984,
      "fracP": 8985,
      "frac100": 8986,
      "10m": 8987,
      "12分": 8988,
      "ni3men": 8989,
      "0000": 8990,
      "centerlineendflagcenterline20": 8991,
      "xia2": 8992,
      "overrightarrow0": 8993,
      "11年": 8994,
      "con": 8995,
      "24times": 8996,
      "NBA了": 8997,
      "21世": 8998,
      "nian2": 8999,
      "bao1bao1": 9000,
      "x0时": 9001,
      "ma3lu4": 9002,
      "1s内": 9003,
      "SiO_2": 9004,
      "di3xia4": 9005,
      "'、": 9006,
      "(《": 9007,
      "-(-": 9008,
      "04": 9009,
      "1亿": 9010,
      "3千": 9011,
      "325": 9012,
      "480": 9013,
      "5小": 9014,
      "6元": 9015,
      "Acdot": 9016,
      "Acap": 9017,
      "Bfrac": 9018,
      "D说": 9019,
      "O为": 9020,
      "Ti": 9021,
      "V_0": 9022,
      "ban3": 9023,
      "ding1": 9024,
      "n为": 9025,
      "right满": 9026,
      "20米": 9027,
      "12岁": 9028,
      "12点": 9029,
      "rou2": 9030,
      "frac1100": 9031,
      "238": 9032,
      "CBA联": 9033,
      "overrightarrowa与": 9034,
      "jin3": 9035,
      "ei1you4": 9036,
      "C_5": 9037,
      "po4": 9038,
      "m_甲": 9039,
      "gang1cai2": 9040,
      "1100": 9041,
      "2与": 9042,
      "2只": 9043,
      "211": 9044,
      "4和": 9045,
      "5亿": 9046,
      "9分": 9047,
      "910": 9048,
      "A与": 9049,
      "B站": 9050,
      "Ccos": 9051,
      "DC": 9052,
      "K_": 9053,
      "ven": 9054,
      "ypm": 9055,
      "éng": 9056,
      "òu": 9057,
      "ōng": 9058,
      "106": 9059,
      "lar": 9060,
      "00后": 9061,
      "sqrt7": 9062,
      "wo4": 9063,
      "ABD错": 9064,
      "frac12a": 9065,
      "145": 9066,
      "frac2pi": 9067,
      "32P": 9068,
      "you4er2": 9069,
      "CH_3CH_2": 9070,
      "tang2lao3ya1": 9071,
      "centerdot": 9072,
      "PM2": 9073,
      "you4er2yuan2": 9074,
      "0C": 9075,
      "1当": 9076,
      "270": 9077,
      "2HCl": 9078,
      "3万": 9079,
      "ON": 9080,
      "VAR": 9081,
      "a5": 9082,
      "bac": 9083,
      "deng": 9084,
      "nen4me": 9085,
      "t的": 9086,
      "ti2": 9087,
      "x_4": 9088,
      "èn": 9089,
      "íng": 9090,
      "fracW": 9091,
      "fraca_n": 9092,
      "ri4": 9093,
      "overrightarrowa2": 9094,
      "256": 9095,
      "lan2": 9096,
      "60div": 9097,
      "hong": 9098,
      "liao3": 9099,
      "80circ": 9100,
      "frac54": 9101,
      "hui2qu4": 9102,
      "ipad": 9103,
      "xie4xie4": 9104,
      "notin": 9105,
      "GDP": 9106,
      "1天": 9107,
      "2H": 9108,
      "4x2": 9109,
      "5rm": 9110,
      "9div": 9111,
      "C为": 9112,
      "Wor": 9113,
      "XY": 9114,
      "face": 9115,
      "gt2": 9116,
      "ow": 9117,
      "suo1": 9118,
      "ur": 9119,
      "x8": 9120,
      "T_1": 9121,
      "...\",": 9122,
      "frac1a2": 9123,
      "sqrtleft": 9124,
      "hai3": 9125,
      "chen": 9126,
      "AB错": 9127,
      "30times": 9128,
      "14N": 9129,
      "40times": 9130,
      "ABC错": 9131,
      "CBA比": 9132,
      "menr2": 9133,
      "di4di4": 9134,
      "la1ji1": 9135,
      "Br_2": 9136,
      "ca1ca1": 9137,
      "_24He": 9138,
      "3名": 9139,
      "4只": 9140,
      "4小": 9141,
      "DI": 9142,
      "Pt": 9143,
      "ju2": 9144,
      "k_1": 9145,
      "ning3": 9146,
      "ren4": 9147,
      "sai": 9148,
      "tRNA": 9149,
      "x和": 9150,
      "zhai1": 9151,
      "fracca": 9152,
      "fracn2": 9153,
      "fracsqrt5": 9154,
      "109": 9155,
      "un2": 9156,
      "shao3": 9157,
      "ar4": 9158,
      "centerlineendflagcenterline7": 9159,
      "1978年": 9160,
      "_3O_4": 9161,
      "18times": 9162,
      "16日": 9163,
      "a_n满": 9164,
      "2005年": 9165,
      "sqrt3sin": 9166,
      "ABC为": 9167,
      "DNA和": 9168,
      "yi1fu": 9169,
      "nie1": 9170,
      "BaSO_4": 9171,
      "shu1shu": 9172,
      "FM的": 9173,
      "ku4zi": 9174,
      "arcsin": 9175,
      "H2O": 9176,
      "!(": 9177,
      "2V": 9178,
      "2比": 9179,
      "3在": 9180,
      "3或": 9181,
      "3rm": 9182,
      "8岁": 9183,
      "It": 9184,
      "bi4": 9185,
      "fang1": 9186,
      "old": 9187,
      "yu4": 9188,
      "zi3": 9189,
      "10千": 9190,
      "10号": 9191,
      "--!": 9192,
      "dou": 9193,
      "dot之": 9194,
      "122": 9195,
      "127": 9196,
      "round": 9197,
      "00C": 9198,
      "sqrt10": 9199,
      "BLANK13": 9200,
      "chou3": 9201,
      "100年": 9202,
      "NBA啊": 9203,
      "2003年": 9204,
      "2007年": 9205,
      "ma1ma1": 9206,
      "990": 9207,
      "36年": 9208,
      "frac47": 9209,
      "ACD错": 9210,
      "27年": 9211,
      "lao3lao": 9212,
      "overlineabc": 9213,
      "ATP的": 9214,
      "m_乙": 9215,
      "bai2tu4": 9216,
      "1992年": 9217,
      "gong1ji1": 9218,
      "a_1a_2a_3": 9219,
      "I2Rt": 9220,
      "\"'": 9221,
      ",。": 9222,
      "2ms": 9223,
      "3div": 9224,
      "5J": 9225,
      "5是": 9226,
      "A_4": 9227,
      "B为": 9228,
      "B_2": 9229,
      "C_n": 9230,
      "GA": 9231,
      "Nleft": 9232,
      "a与": 9233,
      "a为": 9234,
      "afrac": 9235,
      "gprime": 9236,
      "ry": 9237,
      "two": 9238,
      "x是": 9239,
      "y24": 9240,
      "】《": 9241,
      "lamp": 9242,
      "endmatri": 9243,
      "overrightarrowAD": 9244,
      "zhi4": 9245,
      "col": 9246,
      "cos2": 9247,
      "17岁": 9248,
      "45times": 9249,
      "zhuan4": 9250,
      "zhua1": 9251,
      "ting1jian4": 9252,
      "AgCl": 9253,
      "mate30": 9254,
      "black": 9255,
      ",()": 9256,
      "1张": 9257,
      "1frac12": 9258,
      "2cm": 9259,
      "3我": 9260,
      "5厘": 9261,
      "5和": 9262,
      "6天": 9263,
      "Air": 9264,
      "E正": 9265,
      "MF_2": 9266,
      "b5": 9267,
      "b22": 9268,
      "dfrac14": 9269,
      "e的": 9270,
      "fe": 9271,
      "k_": 9272,
      "k_2": 9273,
      "par": 9274,
      "xcdot": 9275,
      "...(": 9276,
      "ADP": 9277,
      "10岁": 9278,
      "dou3": 9279,
      "00万": 9280,
      "frac1x2": 9281,
      "jiao2": 9282,
      "1995": 9283,
      "over": 9284,
      "100px": 9285,
      "piao4": 9286,
      "yi2yang4": 9287,
      "2001年": 9288,
      "2004年": 9289,
      "quan2": 9290,
      "huo4": 9291,
      "luan4": 9292,
      "C_2H_4": 9293,
      "dian4shi4": 9294,
      "niao4niao4": 9295,
      "tsch": 9296,
      "'、'": 9297,
      "endmatrix2": 9298,
      "\"<": 9299,
      ")--": 9300,
      "1为": 9301,
      "2我": 9302,
      "3点": 9303,
      "FC": 9304,
      "Ni": 9305,
      "T细": 9306,
      "bu1": 9307,
      "cle": 9308,
      "her": 9309,
      "jī": 9310,
      "n_1": 9311,
      "nene": 9312,
      "pq": 9313,
      "s2": 9314,
      "sa3": 9315,
      "tao3": 9316,
      "yang3": 9317,
      "èi": 9318,
      "。\"...": 9319,
      "ence": 9320,
      "frac40": 9321,
      "10div": 9322,
      "tiao2": 9323,
      "out": 9324,
      "19岁": 9325,
      "30日": 9326,
      "COOH": 9327,
      "235": 9328,
      "17世": 9329,
      "2x3": 9330,
      "x_02": 9331,
      "suan4": 9332,
      "fracsqrt33": 9333,
      "PCR": 9334,
      "HIV": 9335,
      "'!": 9336,
      ",...,": 9337,
      "06": 9338,
      "1有": 9339,
      "1说": 9340,
      "2千": 9341,
      "2条": 9342,
      "3V": 9343,
      "3b": 9344,
      "314": 9345,
      "360circ": 9346,
      "4号": 9347,
      "4在": 9348,
      "4说": 9349,
      "5y": 9350,
      "7N": 9351,
      "7岁": 9352,
      "BB": 9353,
      "IU": 9354,
      "KOH": 9355,
      "OB": 9356,
      "ay": 9357,
      "langle": 9358,
      "ml": 9359,
      "om": 9360,
      "ot": 9361,
      "q_2": 9362,
      "xDelta": 9363,
      "。,": 9364,
      "--,": 9365,
      "dot于": 9366,
      "frac116": 9367,
      "18个": 9368,
      "100的": 9369,
      "30个": 9370,
      "13个": 9371,
      "13年": 9372,
      "50分": 9373,
      "NBA吗": 9374,
      "21岁": 9375,
      "aiya": 9376,
      "36div": 9377,
      ")-(": 9378,
      "56年": 9379,
      "C_2O_4": 9380,
      "1982年": 9381,
      "bubu": 9382,
      "di1di1": 9383,
      "chen2chen": 9384,
      "te4bie2": 9385,
      "zi1dao4": 9386,
      "WeWor": 9387,
      "!?": 9388,
      "1比": 9389,
      "2张": 9390,
      "2若": 9391,
      "3d": 9392,
      "3cm": 9393,
      "4千": 9394,
      ">(": 9395,
      "B说": 9396,
      "OP": 9397,
      "_6": 9398,
      "bleft": 9399,
      "bong1": 9400,
      "c1": 9401,
      "cha2": 9402,
      "emm": 9403,
      "gi": 9404,
      "jing": 9405,
      "p2": 9406,
      "peng4": 9407,
      "rangle": 9408,
      "tong3": 9409,
      "x与": 9410,
      "xfrac12": 9411,
      "ys": 9412,
      "。?": 9413,
      "fracx_1x_2": 9414,
      "10cm": 9415,
      "dot能": 9416,
      "zhi2": 9417,
      "cha4": 9418,
      "XXXXX说": 9419,
      "qiao1": 9420,
      "O_2uparrow": 9421,
      "a_22": 9422,
      "v_t": 9423,
      "v_12": 9424,
      "Na_2O": 9425,
      "ei1you": 9426,
      "Al3": 9427,
      "ABCD中": 9428,
      "yangr4": 9429,
      "fracbsin": 9430,
      "pi4gu": 9431,
      "File": 9432,
      "O_5": 9433,
      "jian3qi3lai2": 9434,
      "ods": 9435,
      "MacBook": 9436,
      "GfracMm": 9437,
      "C_6H_": 9438,
      ",--": 9439,
      "1吨": 9440,
      "2说": 9441,
      "213": 9442,
      "4ms": 9443,
      "9x": 9444,
      "CB": 9445,
      "Cleft": 9446,
      "LC": 9447,
      "La": 9448,
      "P是": 9449,
      "_min": 9450,
      "b是": 9451,
      "bmod": 9452,
      "cc": 9453,
      "chai1": 9454,
      "gong4": 9455,
      "ka": 9456,
      "!\"--": 9457,
      "_2left": 9458,
      "underrightarrow": 9459,
      "sqrt13": 9460,
      "centerlineendflagcenterline8": 9461,
      "overrightarrowCD": 9462,
      "a_2020": 9463,
      "cor": 9464,
      "F_1PF_2": 9465,
      "FIFA": 9466,
      "33路": 9467,
      "800米": 9468,
      "deng4zi": 9469,
      "1a": 9470,
      "1到": 9471,
      "1秒": 9472,
      "2当": 9473,
      "3张": 9474,
      "4pi": 9475,
      "8m": 9476,
      "Afrac": 9477,
      "BP": 9478,
      "Pb": 9479,
      "RS": 9480,
      "S的": 9481,
      "bar": 9482,
      "bing4": 9483,
      "c22": 9484,
      "dfrac3": 9485,
      "duo4": 9486,
      "jì": 9487,
      "kms": 9488,
      "l与": 9489,
      "p_0": 9490,
      "q_1": 9491,
      "ut": 9492,
      "yī": 9493,
      "ùn": 9494,
      "right3": 9495,
      "10多": 9496,
      "10Omega": 9497,
      "hel": 9498,
      "nei": 9499,
      "114": 9500,
      "'''),": 9501,
      "mo3": 9502,
      "NBA总": 9503,
      "ya3": 9504,
      "na2qu4": 9505,
      "90后": 9506,
      "1000米": 9507,
      "33年": 9508,
      "500米": 9509,
      "frac79": 9510,
      "but": 9511,
      "wei2wei2": 9512,
      "wan3shang4": 9513,
      "1999年": 9514,
      "RfracUI": 9515,
      "xOy": 9516,
      "2为": 9517,
      "2frac12": 9518,
      "320": 9519,
      "4rm": 9520,
      "6和": 9521,
      "D中": 9522,
      "PQ": 9523,
      "ds": 9524,
      "ol": 9525,
      "sou1": 9526,
      "yir4": 9527,
      "ykx": 9528,
      "èng": 9529,
      "...\"。": 9530,
      "un3": 9531,
      "1996": 9532,
      "18分": 9533,
      "sin2": 9534,
      "30天": 9535,
      "22m": 9536,
      "2002年": 9537,
      "XXXXX是": 9538,
      "yao4bu4": 9539,
      "9999": 9540,
      "gua4": 9541,
      "guai3": 9542,
      "b2c2": 9543,
      "Fe_3O_4": 9544,
      "zhuo1": 9545,
      ")、(": 9546,
      "42年": 9547,
      "di4di": 9548,
      "now": 9549,
      "yi3hou4": 9550,
      "ya1ya1": 9551,
      "wei2wei": 9552,
      "10Nkg": 9553,
      "ardleft": 9554,
      "------------------": 9555,
      "C_2H_5": 9556,
      ",'''": 9557,
      "2亿": 9558,
      "2秒": 9559,
      "2frac1": 9560,
      "4万": 9561,
      "4名": 9562,
      "420": 9563,
      ";-": 9564,
      "Aangle": 9565,
      "Ccenterlineendflag": 9566,
      "KI": 9567,
      "O点": 9568,
      "SE": 9569,
      "Se": 9570,
      "eta": 9571,
      "iOS": 9572,
      "pa1": 9573,
      "t1": 9574,
      "varepsilon": 9575,
      "xcos": 9576,
      "。??": 9577,
      "》\"": 9578,
      "fraccos": 9579,
      "fracrho": 9580,
      "20N": 9581,
      "2010": 9582,
      "hui1": 9583,
      "xiao1": 9584,
      "jie2": 9585,
      "1980年": 9586,
      "ove": 9587,
      "1111": 9588,
      "AB2": 9589,
      "AB选": 9590,
      "wo3men2": 9591,
      "143": 9592,
      "CO3": 9593,
      "ab1": 9594,
      "sqrt33": 9595,
      "45年": 9596,
      "frac2n": 9597,
      "a_1q": 9598,
      "28年": 9599,
      "xia4qu4": 9600,
      "begincasesx2": 9601,
      "li3bianr1": 9602,
      "x3y": 9603,
      "him": 9604,
      "ba3ba3": 9605,
      "yuan4": 9606,
      "fracpi4": 9607,
      "varPhi": 9608,
      "fracasin": 9609,
      "ce1ce1": 9610,
      "hhh": 9611,
      "pi4pi4": 9612,
      "sheng1qi4": 9613,
      "ax2bx": 9614,
      "!!\"": 9615,
      "1可": 9616,
      "1我": 9617,
      "1若": 9618,
      "2y2": 9619,
      "3g": 9620,
      "310": 9621,
      "5a": 9622,
      "5种": 9623,
      "7div": 9624,
      "A对": 9625,
      "Acup": 9626,
      "BM": 9627,
      "B细": 9628,
      "C与": 9629,
      "C说": 9630,
      "EF": 9631,
      "IfracU": 9632,
      "Mi": 9633,
      "PF": 9634,
      "VIS": 9635,
      "W_0": 9636,
      "_k": 9637,
      "bang3": 9638,
      "ben4": 9639,
      "c_1": 9640,
      "dang4": 9641,
      "dang3": 9642,
      "fu2": 9643,
      "fang2": 9644,
      "mleqslant": 9645,
      "pg": 9646,
      "p_n": 9647,
      "t0": 9648,
      "wen2": 9649,
      "xdiv": 9650,
      "!\"(": 9651,
      "right0": 9652,
      "10小": 9653,
      "centerlineAcenterlineendflagcenterline": 9654,
      "202": 9655,
      "hei4": 9656,
      "00元": 9657,
      "11岁": 9658,
      "189": 9659,
      "bei3": 9660,
      "25个": 9661,
      "13岁": 9662,
      "24年": 9663,
      "24div": 9664,
      "NBA打": 9665,
      "a_n中": 9666,
      "45分": 9667,
      "teg": 9668,
      "x_22": 9669,
      "frac27": 9670,
      "guai4": 9671,
      "dfracpi": 9672,
      "frac57": 9673,
      "chuang2": 9674,
      "xy0": 9675,
      "kai1kai1": 9676,
      "kai1shi3": 9677,
      "Mg2": 9678,
      "76年": 9679,
      "year": 9680,
      "gao1xing4": 9681,
      "C_3H_": 9682,
      "ITOR": 9683,
      "sci谜": 9684,
      "blacksquare": 9685,
      "VISITOR": 9686,
      "2n2": 9687,
      "3条": 9688,
      "3cdots": 9689,
      "4n": 9690,
      "4或": 9691,
      "8点": 9692,
      "?,": 9693,
      "AF": 9694,
      "C2": 9695,
      "D对": 9696,
      "GB": 9697,
      "R的": 9698,
      "S_3": 9699,
      "T的": 9700,
      "ation": 9701,
      "b为": 9702,
      "c_2": 9703,
      "ha4": 9704,
      "ju4": 9705,
      "n是": 9706,
      "n次": 9707,
      "odot": 9708,
      "p的": 9709,
      "su1": 9710,
      "tao4": 9711,
      "t_0": 9712,
      "wai1": 9713,
      "én": 9714,
      "óng": 9715,
      "10x": 9716,
      "dot当": 9717,
      "sha1": 9718,
      "hu1": 9719,
      "hua2": 9720,
      "118": 9721,
      "184": 9722,
      "50多": 9723,
      "a_n12": 9724,
      "_01n": 9725,
      "na2zou3": 9726,
      "zuo4hao3": 9727,
      "logo": 9728,
      "123cdots": 9729,
      "x_i": 9730,
      "abcd": 9731,
      "overrightarrowABcdot": 9732,
      "fracU2R": 9733,
      "sqrta2": 9734,
      "span": 9735,
      "WiFi": 9736,
      "ju2zi": 9737,
      "1i": 9738,
      "2e": 9739,
      "2这": 9740,
      "2n1": 9741,
      "32times": 9742,
      "4比": 9743,
      "4这": 9744,
      "5克": 9745,
      "5left": 9746,
      "6m": 9747,
      "8人": 9748,
      "?...\"": 9749,
      "Ar": 9750,
      "CD错": 9751,
      "L的": 9752,
      "b_3": 9753,
      "g的": 9754,
      "rui4": 9755,
      "x在": 9756,
      "z_3": 9757,
      "ái": 9758,
      "óu": 9759,
      "ǒng": 9760,
      "》;": 9761,
      "dot以": 9762,
      "125times": 9763,
      "1956年": 9764,
      "neg": 9765,
      "15的": 9766,
      "15秒": 9767,
      "116": 9768,
      "zhao1": 9769,
      "23times": 9770,
      "200元": 9771,
      "XXXXX上": 9772,
      "XXXXX里": 9773,
      "ton": 9774,
      "frac512": 9775,
      "kground": 9776,
      "endcases的": 9777,
      "ge1yao2": 9778,
      "lao3shu3": 9779,
      "37年": 9780,
      "SO_32": 9781,
      "1953年": 9782,
      "hao3haor": 9783,
      "underbr": 9784,
      "_922": 9785,
      "background": 9786,
      "!,": 9787,
      ")。\"": 9788,
      "1frac": 9789,
      "3排": 9790,
      "3ms": 9791,
      "4天": 9792,
      "Atan": 9793,
      "Csin": 9794,
      "Cequiv": 9795,
      "E项": 9796,
      "FT": 9797,
      "VIP": 9798,
      "ben3": 9799,
      "c3": 9800,
      "k21": 9801,
      "kou4": 9802,
      "mA": 9803,
      "p_": 9804,
      "rn": 9805,
      "rr": 9806,
      "r2m": 9807,
      "xsin": 9808,
      "y5": 9809,
      "yprime": 9810,
      "ying4": 9811,
      "ǎi": 9812,
      "10s": 9813,
      "20cm": 9814,
      "00多": 9815,
      "00div": 9816,
      "centerlineendflagcenterline9": 9817,
      "dig": 9818,
      "overrightarrowBA": 9819,
      "zhou1": 9820,
      "100C": 9821,
      "100克": 9822,
      "cong": 9823,
      "frac12n": 9824,
      "frac12x": 9825,
      "cal": 9826,
      "221": 9827,
      "232": 9828,
      "XXXXX在": 9829,
      "ABC三": 9830,
      "red": 9831,
      "frac59": 9832,
      "FeO": 9833,
      "300多": 9834,
      "C_2H_2": 9835,
      "ya1zi": 9836,
      "fracp2": 9837,
      "ory": 9838,
      "xin1xin": 9839,
      "zhan4qi3lai2": 9840,
      "ming2tian1": 9841,
      "fracFq": 9842,
      "steam": 9843,
      "tao3yan4": 9844,
      "tegory": 9845,
      "1与": 9846,
      "1大": 9847,
      "2句": 9848,
      "2名": 9849,
      "2fleft": 9850,
      "2lg": 9851,
      "3有": 9852,
      "6万": 9853,
      "9点": 9854,
      "B对": 9855,
      "Bcenterlineendflag": 9856,
      "EI": 9857,
      "P_3": 9858,
      "XB": 9859,
      "c为": 9860,
      "c是": 9861,
      "dfrac13": 9862,
      "duo3": 9863,
      "ga1": 9864,
      "i是": 9865,
      "ios": 9866,
      "jpg": 9867,
      "mao": 9868,
      "pto": 9869,
      "qī": 9870,
      "who": 9871,
      "would": 9872,
      "x元": 9873,
      "x12": 9874,
      "xy2": 9875,
      "yì": 9876,
      "。\"【": 9877,
      "frac21": 9878,
      "fracalpha": 9879,
      "frac65": 9880,
      "10人": 9881,
      "10只": 9882,
      "10点": 9883,
      "_2x": 9884,
      "155": 9885,
      "15div": 9886,
      "117": 9887,
      "11分": 9888,
      "zhong4": 9889,
      "frac12cdot": 9890,
      "NBA也": 9891,
      "NBA选": 9892,
      "60米": 9893,
      "40div": 9894,
      "ab2": 9895,
      "5G基": 9896,
      "lian3": 9897,
      "ba4ba4": 9898,
      "48年": 9899,
      "mid": 9900,
      "mvp": 9901,
      "wai4wai4": 9902,
      "zuo2tian1": 9903,
      "(\"": 9904,
      "1只": 9905,
      "2表": 9906,
      "2ac": 9907,
      "2Al": 9908,
      "3说": 9909,
      "3路": 9910,
      "4我": 9911,
      "5角": 9912,
      "512": 9913,
      "530": 9914,
      "6号": 9915,
      "7g": 9916,
      "7000": 9917,
      "?《": 9918,
      "A0": 9919,
      "Be": 9920,
      "C两": 9921,
      "MF_1": 9922,
      "PK": 9923,
      "PO_4": 9924,
      "Pods": 9925,
      "S型": 9926,
      "btimes": 9927,
      "c4": 9928,
      "ex_0": 9929,
      "mleft": 9930,
      "nai4": 9931,
      "na1": 9932,
      "pao4": 9933,
      "p_A": 9934,
      "p_B": 9935,
      "wei1": 9936,
      "ink": 9937,
      "fracc2": 9938,
      "10时": 9939,
      "--!\"": 9940,
      "_22": 9941,
      "_11": 9942,
      "19个": 9943,
      "1917年": 9944,
      "152": 9945,
      "156": 9946,
      "zhong3": 9947,
      "165": 9948,
      "25年": 9949,
      "moltimes": 9950,
      "qiu1": 9951,
      "80的": 9952,
      "gui4": 9953,
      "ree": 9954,
      "BC的": 9955,
      "sum_": 9956,
      "jinr4": 9957,
      "MgSO_4": 9958,
      "pH7": 9959,
      "nong4huai4": 9960,
      "shu1bao1": 9961,
      "v_1v_2": 9962,
      "CH_2CH_2": 9963,
      "gao4su": 9964,
      "arctan": 9965,
      ")(-": 9966,
      "07": 9967,
      "02times": 9968,
      "08年": 9969,
      "1种": 9970,
      "1centerlineendflagcenterline": 9971,
      "2可": 9972,
      "2对": 9973,
      "2点": 9974,
      "2geqslant": 9975,
      "3为": 9976,
      "318": 9977,
      "4项": 9978,
      "5秒": 9979,
      "737": 9980,
      "8次": 9981,
      "Dleft": 9982,
      "S2": 9983,
      "Xb": 9984,
      "agu": 9985,
      "q_": 9986,
      "ww": 9987,
      "ōu": 9988,
      "ǒu": 9989,
      "。、": 9990,
      "10g": 9991,
      "_23": 9992,
      "12N": 9993,
      "has": 9994,
      "1990年": 9995,
      "overrightarrowAP": 9996,
      "a_2018": 9997,
      "x2left": 9998,
      "30秒": 9999
    },
    "merges": [
      [
        "C",
        "H"
      ],
      [
        "E",
        "R"
      ],
      [
        "I",
        "L"
      ],
      [
        "CH",
        "IL"
      ],
      [
        "CHIL",
        "D"
      ],
      [
        "T",
        "A"
      ],
      [
        "T",
        "_"
      ],
      [
        "R",
        "G"
      ],
      [
        "E",
        "T_"
      ],
      [
        "TA",
        "RG"
      ],
      [
        "ET_",
        "CHILD"
      ],
      [
        "TARG",
        "ET_CHILD"
      ],
      [
        "T",
        "H"
      ],
      [
        "TH",
        "ER"
      ],
      [
        "O",
        "THER"
      ],
      [
        "M",
        "OTHER"
      ],
      [
        ":",
        "\""
      ],
      [
        "。",
        "\""
      ],
      [
        "!",
        "\""
      ],
      [
        "T",
        "I"
      ],
      [
        "V",
        "E"
      ],
      [
        "A",
        "T"
      ],
      [
        "O",
        "R"
      ],
      [
        "I",
        "N"
      ],
      [
        "G",
        "AT"
      ],
      [
        "S",
        "TI"
      ],
      [
        "VE",
        "STI"
      ],
      [
        "IN",
        "VESTI"
      ],
      [
        "GAT",
        "OR"
      ],
      [
        "INVESTI",
        "GATOR"
      ],
      [
        ".",
        "."
      ],
      [
        "i",
        "n"
      ],
      [
        "e",
        "n"
      ],
      [
        "e",
        "r"
      ],
      [
        "E",
        "A"
      ],
      [
        "T",
        "EA"
      ],
      [
        "CH",
        "ER"
      ],
      [
        "TEA",
        "CHER"
      ],
      [
        "a",
        "c"
      ],
      [
        "f",
        "r"
      ],
      [
        "fr",
        "ac"
      ],
      [
        "l",
        "in"
      ],
      [
        "er",
        "lin"
      ],
      [
        "l",
        "e"
      ],
      [
        "a",
        "n"
      ],
      [
        "erlin",
        "e"
      ],
      [
        "x",
        "x"
      ],
      [
        ",",
        "\""
      ],
      [
        "r",
        "i"
      ],
      [
        "?",
        "\""
      ],
      [
        "..",
        "."
      ],
      [
        "g",
        "h"
      ],
      [
        "gh",
        "t"
      ],
      [
        "ri",
        "ght"
      ],
      [
        "i",
        "4"
      ],
      [
        "A",
        "D"
      ],
      [
        "U",
        "L"
      ],
      [
        "AD",
        "UL"
      ],
      [
        "ADUL",
        "T"
      ],
      [
        "a",
        "o"
      ],
      [
        "m",
        "e"
      ],
      [
        "f",
        "t"
      ],
      [
        "r",
        "m"
      ],
      [
        "en",
        "t"
      ],
      [
        "le",
        "ft"
      ],
      [
        "c",
        "ent"
      ],
      [
        "1",
        "0"
      ],
      [
        "cent",
        "erline"
      ],
      [
        "i",
        "3"
      ],
      [
        "u",
        "n"
      ],
      [
        "2",
        "0"
      ],
      [
        "-",
        "-"
      ],
      [
        "d",
        "o"
      ],
      [
        "l",
        "a"
      ],
      [
        "_",
        "2"
      ],
      [
        "xx",
        "x"
      ],
      [
        "h",
        "e"
      ],
      [
        "un",
        "d"
      ],
      [
        "i",
        "2"
      ],
      [
        "und",
        "erline"
      ],
      [
        "t",
        "i"
      ],
      [
        "do",
        "t"
      ],
      [
        "s",
        "h"
      ],
      [
        "an",
        "g"
      ],
      [
        "F",
        "A"
      ],
      [
        "FA",
        "THER"
      ],
      [
        "1",
        "2"
      ],
      [
        "\"",
        ","
      ],
      [
        "u",
        "4"
      ],
      [
        "me",
        "s"
      ],
      [
        "ti",
        "mes"
      ],
      [
        "A",
        "N"
      ],
      [
        "a",
        "r"
      ],
      [
        "en",
        "d"
      ],
      [
        "i",
        "1"
      ],
      [
        "g",
        "e"
      ],
      [
        "m",
        "a"
      ],
      [
        "\"",
        "。"
      ],
      [
        "ao",
        "3"
      ],
      [
        "f",
        "la"
      ],
      [
        "fla",
        "g"
      ],
      [
        "end",
        "flag"
      ],
      [
        "centerline",
        "endflag"
      ],
      [
        "t",
        "a"
      ],
      [
        "...",
        "\""
      ],
      [
        "n",
        "i3"
      ],
      [
        "r",
        "o"
      ],
      [
        "0",
        "0"
      ],
      [
        "_",
        "1"
      ],
      [
        ")",
        ","
      ],
      [
        "s",
        "q"
      ],
      [
        "X",
        "X"
      ],
      [
        "frac",
        "1"
      ],
      [
        "o",
        "u"
      ],
      [
        "。\"",
        "\""
      ],
      [
        "sq",
        "r"
      ],
      [
        "h",
        "u"
      ],
      [
        "sqr",
        "t"
      ],
      [
        "ro",
        "w"
      ],
      [
        "a",
        "4"
      ],
      [
        "ar",
        "row"
      ],
      [
        "z",
        "he"
      ],
      [
        "centerlineendflag",
        "centerline"
      ],
      [
        "'",
        "'"
      ],
      [
        "AN",
        "D"
      ],
      [
        "G",
        "R"
      ],
      [
        "GR",
        "AND"
      ],
      [
        "x",
        "i"
      ],
      [
        "an",
        "4"
      ],
      [
        "ao",
        "4"
      ],
      [
        "j",
        "i"
      ],
      [
        "h",
        "a"
      ],
      [
        "right",
        "arrow"
      ],
      [
        "d",
        "i"
      ],
      [
        "1",
        "9"
      ],
      [
        "o",
        "v"
      ],
      [
        "c",
        "dot"
      ],
      [
        "b",
        "a"
      ],
      [
        "n",
        "e"
      ],
      [
        ")",
        "."
      ],
      [
        "_",
        "3"
      ],
      [
        "a",
        "i4"
      ],
      [
        "?\"",
        "\""
      ],
      [
        "er",
        "rightarrow"
      ],
      [
        "GRAND",
        "MOTHER"
      ],
      [
        "u",
        "o"
      ],
      [
        "ov",
        "errightarrow"
      ],
      [
        "1",
        "5"
      ],
      [
        "!\"",
        "\""
      ],
      [
        "i",
        "r"
      ],
      [
        "a",
        "2"
      ],
      [
        "a",
        "_"
      ],
      [
        "ang",
        "4"
      ],
      [
        "B",
        "L"
      ],
      [
        "AN",
        "K"
      ],
      [
        "BL",
        "ANK"
      ],
      [
        "a",
        "1"
      ],
      [
        "1",
        "1"
      ],
      [
        "z",
        "h"
      ],
      [
        "d",
        "e"
      ],
      [
        "zhe",
        "i4"
      ],
      [
        "n",
        "g"
      ],
      [
        "1",
        "8"
      ],
      [
        "x",
        "2"
      ],
      [
        "c",
        "h"
      ],
      [
        "B",
        "A"
      ],
      [
        "ou",
        "3"
      ],
      [
        ")",
        "。"
      ],
      [
        ".",
        "("
      ],
      [
        "10",
        "0"
      ],
      [
        "sh",
        "i4"
      ],
      [
        "en",
        "g"
      ],
      [
        "c",
        "o"
      ],
      [
        "s",
        "in"
      ],
      [
        "u",
        "2"
      ],
      [
        "w",
        "o"
      ],
      [
        "A",
        "B"
      ],
      [
        "frac",
        "12"
      ],
      [
        "b",
        "u4"
      ],
      [
        "la",
        "i2"
      ],
      [
        "di",
        "v"
      ],
      [
        "in",
        "g"
      ],
      [
        "1",
        "6"
      ],
      [
        "b",
        "e"
      ],
      [
        "3",
        "0"
      ],
      [
        "wo",
        "3"
      ],
      [
        "p",
        "i"
      ],
      [
        "c",
        "ir"
      ],
      [
        "2",
        "5"
      ],
      [
        "cir",
        "c"
      ],
      [
        "1",
        "3"
      ],
      [
        "2",
        "4"
      ],
      [
        "co",
        "s"
      ],
      [
        "t",
        "h"
      ],
      [
        "c",
        "a"
      ],
      [
        "u",
        "1"
      ],
      [
        "1",
        "4"
      ],
      [
        "e",
        "s"
      ],
      [
        "''",
        "'"
      ],
      [
        "h",
        "ao3"
      ],
      [
        "l",
        "an"
      ],
      [
        "en",
        "2"
      ],
      [
        "he",
        "1"
      ],
      [
        "2",
        "2"
      ],
      [
        "d",
        "a"
      ],
      [
        "lan",
        "t"
      ],
      [
        "q",
        "s"
      ],
      [
        "qs",
        "lant"
      ],
      [
        "\"",
        "\""
      ],
      [
        "ta",
        "1"
      ],
      [
        "y",
        "i2"
      ],
      [
        "5",
        "0"
      ],
      [
        "C",
        "O"
      ],
      [
        "k",
        "an4"
      ],
      [
        "m",
        "o"
      ],
      [
        "a",
        "l"
      ],
      [
        "》",
        ","
      ],
      [
        "t",
        "ri"
      ],
      [
        "N",
        "BA"
      ],
      [
        "ge",
        "i3"
      ],
      [
        "_",
        "4"
      ],
      [
        "a_",
        "n"
      ],
      [
        "C",
        "l"
      ],
      [
        "t",
        "he"
      ],
      [
        "2",
        "3"
      ],
      [
        "q",
        "u4"
      ],
      [
        "N",
        "a"
      ],
      [
        "_",
        "0"
      ],
      [
        "6",
        "0"
      ],
      [
        "ang",
        "le"
      ],
      [
        "(",
        ")"
      ],
      [
        "4",
        "0"
      ],
      [
        "c",
        "he1"
      ],
      [
        "uo",
        "1"
      ],
      [
        "1",
        "7"
      ],
      [
        "h",
        "o"
      ],
      [
        "un",
        "k"
      ],
      [
        "y",
        "a"
      ],
      [
        "f",
        "left"
      ],
      [
        "a",
        "b"
      ],
      [
        "y",
        "ou3"
      ],
      [
        "b",
        "u2"
      ],
      [
        "an",
        "r"
      ],
      [
        "frac",
        "3"
      ],
      [
        "an",
        "1"
      ],
      [
        "an",
        "2"
      ],
      [
        "2",
        "1"
      ],
      [
        "R",
        "E"
      ],
      [
        "5",
        "G"
      ],
      [
        "20",
        "0"
      ],
      [
        "cdot",
        "s"
      ],
      [
        "e",
        "2"
      ],
      [
        "--",
        "\""
      ],
      [
        "e",
        "3"
      ],
      [
        "H",
        "_2"
      ],
      [
        "e",
        "l"
      ],
      [
        "b",
        "i"
      ],
      [
        "ne",
        "i4"
      ],
      [
        "mo",
        "l"
      ],
      [
        "p",
        "ha"
      ],
      [
        "al",
        "pha"
      ],
      [
        "ch",
        "i1"
      ],
      [
        "XX",
        "X"
      ],
      [
        "sqrt",
        "3"
      ],
      [
        "XX",
        "XXX"
      ],
      [
        "2",
        "x"
      ],
      [
        "o",
        "ng"
      ],
      [
        "uo",
        "4"
      ],
      [
        "me",
        "i2"
      ],
      [
        "a",
        "i"
      ],
      [
        "a",
        "i1"
      ],
      [
        "ao",
        "1"
      ],
      [
        "N",
        "A"
      ],
      [
        "ma",
        "th"
      ],
      [
        "ca",
        "s"
      ],
      [
        "z",
        "ai4"
      ],
      [
        "4",
        "5"
      ],
      [
        "cas",
        "es"
      ],
      [
        "q",
        "i"
      ],
      [
        "en2",
        "me"
      ],
      [
        "u",
        "3"
      ],
      [
        "ji",
        "u4"
      ],
      [
        "l",
        "i"
      ],
      [
        "le",
        "qslant"
      ],
      [
        "ha",
        "i2"
      ],
      [
        "o",
        "u4"
      ],
      [
        "ang",
        "1"
      ],
      [
        "O",
        "H"
      ],
      [
        "S",
        "O"
      ],
      [
        "D",
        "错"
      ],
      [
        "sh",
        "ang4"
      ],
      [
        "8",
        "0"
      ],
      [
        "t",
        "e"
      ],
      [
        "sh",
        "en2me"
      ],
      [
        "AB",
        "C"
      ],
      [
        "D",
        "el"
      ],
      [
        "Del",
        "ta"
      ],
      [
        "。",
        "("
      ],
      [
        "xi",
        "ao3"
      ],
      [
        "t",
        "o"
      ],
      [
        "ang",
        "2"
      ],
      [
        "the",
        "ta"
      ],
      [
        "m",
        "b"
      ],
      [
        "ma",
        "1"
      ],
      [
        "A",
        "错"
      ],
      [
        "tri",
        "angle"
      ],
      [
        "y",
        "ao4"
      ],
      [
        "g",
        "in"
      ],
      [
        "ang",
        "3"
      ],
      [
        "be",
        "gin"
      ],
      [
        "sh",
        "uo1"
      ],
      [
        "n",
        "a2"
      ],
      [
        "b",
        "f"
      ],
      [
        "C",
        "错"
      ],
      [
        "D",
        "正"
      ],
      [
        "x",
        "_2"
      ],
      [
        "k",
        "u"
      ],
      [
        "en",
        "1"
      ],
      [
        "zhei4",
        "ge"
      ],
      [
        "N",
        "o"
      ],
      [
        "C",
        "正"
      ],
      [
        "B",
        "错"
      ],
      [
        "x",
        "_1"
      ],
      [
        "m",
        "s"
      ],
      [
        "9",
        "9"
      ],
      [
        "》",
        "。"
      ],
      [
        "frac",
        "2"
      ],
      [
        "GRAND",
        "FATHER"
      ],
      [
        "d",
        "a4"
      ],
      [
        "g",
        "a"
      ],
      [
        "O",
        "_2"
      ],
      [
        "l",
        "o"
      ],
      [
        "2",
        "times"
      ],
      [
        "B",
        "正"
      ],
      [
        "a",
        "_1"
      ],
      [
        "9",
        "0"
      ],
      [
        "hu",
        "a4"
      ],
      [
        "C",
        "A"
      ],
      [
        "y",
        "ou"
      ],
      [
        "c",
        "m"
      ],
      [
        "g",
        "u"
      ],
      [
        "_",
        "n"
      ],
      [
        "3",
        "6"
      ],
      [
        "C",
        "BA"
      ],
      [
        "an",
        "3"
      ],
      [
        "ing",
        "1"
      ],
      [
        "z",
        "i"
      ],
      [
        "3",
        "2"
      ],
      [
        "b",
        "ao3"
      ],
      [
        "er",
        "4"
      ],
      [
        "eng",
        "2"
      ],
      [
        "3",
        "5"
      ],
      [
        "A",
        "正"
      ],
      [
        "D",
        "项"
      ],
      [
        "d",
        "frac"
      ],
      [
        "20",
        "19"
      ],
      [
        "n",
        "ar"
      ],
      [
        "z",
        "uo4"
      ],
      [
        "、",
        "\""
      ],
      [
        "ao",
        "2"
      ],
      [
        "A",
        "项"
      ],
      [
        "r",
        "e"
      ],
      [
        "ku",
        "ai4"
      ],
      [
        "--",
        "--"
      ],
      [
        "B",
        "项"
      ],
      [
        "u",
        "i4"
      ],
      [
        "2",
        "8"
      ],
      [
        "3",
        "4"
      ],
      [
        "y",
        "i4"
      ],
      [
        "s",
        "e"
      ],
      [
        "ge",
        "qslant"
      ],
      [
        "p",
        "ri"
      ],
      [
        "K",
        "ER"
      ],
      [
        "la",
        "mb"
      ],
      [
        "CA",
        "RE"
      ],
      [
        "TA",
        "KER"
      ],
      [
        "CARE",
        "TAKER"
      ],
      [
        "C",
        "项"
      ],
      [
        "D",
        "NA"
      ],
      [
        "。",
        "。"
      ],
      [
        "b",
        "2"
      ],
      [
        ")",
        "-"
      ],
      [
        "(",
        "-"
      ],
      [
        "pri",
        "me"
      ],
      [
        "frac1",
        "3"
      ],
      [
        "y",
        "2"
      ],
      [
        "lamb",
        "da"
      ],
      [
        "d",
        "ao4"
      ],
      [
        "00",
        "0"
      ],
      [
        "xi",
[...]
