{"<s>":0,"<pad>":1,"</s>":2,"<unk>":3,"<mask>":4,"!":5,"\"":6,"#":7,"$":8,"%":9,"&":10,"'":11,"(":12,")":13,"*":14,"+":15,",":16,"-":17,".":18,"/":19,"0":20,"1":21,"2":22,"3":23,"4":24,"5":25,"6":26,"7":27,"8":28,"9":29,":":30,";":31,"<":32,"=":33,">":34,"?":35,"@":36,"A":37,"B":38,"C":39,"D":40,"E":41,"F":42,"G":43,"H":44,"I":45,"J":46,"K":47,"L":48,"M":49,"N":50,"O":51,"P":52,"Q":53,"R":54,"S":55,"T":56,"U":57,"V":58,"W":59,"X":60,"Y":61,"Z":62,"[":63,"\\":64,"]":65,"^":66,"_":67,"`":68,"a":69,"b":70,"c":71,"d":72,"e":73,"f":74,"g":75,"h":76,"i":77,"j":78,"k":79,"l":80,"m":81,"n":82,"o":83,"p":84,"q":85,"r":86,"s":87,"t":88,"u":89,"v":90,"w":91,"x":92,"y":93,"z":94,"{":95,"|":96,"}":97,"~":98,"¡":99,"¢":100,"£":101,"¤":102,"¥":103,"¦":104,"§":105,"¨":106,"©":107,"ª":108,"«":109,"¬":110,"®":111,"¯":112,"°":113,"±":114,"²":115,"³":116,"´":117,"µ":118,"¶":119,"·":120,"¸":121,"¹":122,"º":123,"»":124,"¼":125,"½":126,"¾":127,"¿":128,"À":129,"Á":130,"Â":131,"Ã":132,"Ä":133,"Å":134,"Æ":135,"Ç":136,"È":137,"É":138,"Ê":139,"Ë":140,"Ì":141,"Í":142,"Î":143,"Ï":144,"Ð":145,"Ñ":146,"Ò":147,"Ó":148,"Ô":149,"Õ":150,"Ö":151,"×":152,"Ø":153,"Ù":154,"Ú":155,"Û":156,"Ü":157,"Ý":158,"Þ":159,"ß":160,"à":161,"á":162,"â":163,"ã":164,"ä":165,"å":166,"æ":167,"ç":168,"è":169,"é":170,"ê":171,"ë":172,"ì":173,"í":174,"î":175,"ï":176,"ð":177,"ñ":178,"ò":179,"ó":180,"ô":181,"õ":182,"ö":183,"÷":184,"ø":185,"ù":186,"ú":187,"û":188,"ü":189,"ý":190,"þ":191,"ÿ":192,"Ā":193,"ā":194,"Ă":195,"ă":196,"Ą":197,"ą":198,"Ć":199,"ć":200,"Ĉ":201,"ĉ":202,"Ċ":203,"ċ":204,"Č":205,"č":206,"Ď":207,"ď":208,"Đ":209,"đ":210,"Ē":211,"ē":212,"Ĕ":213,"ĕ":214,"Ė":215,"ė":216,"Ę":217,"ę":218,"Ě":219,"ě":220,"Ĝ":221,"ĝ":222,"Ğ":223,"ğ":224,"Ġ":225,"ġ":226,"Ģ":227,"ģ":228,"Ĥ":229,"ĥ":230,"Ħ":231,"ħ":232,"Ĩ":233,"ĩ":234,"Ī":235,"ī":236,"Ĭ":237,"ĭ":238,"Į":239,"į":240,"İ":241,"ı":242,"Ĳ":243,"ĳ":244,"Ĵ":245,"ĵ":246,"Ķ":247,"ķ":248,"ĸ":249,"Ĺ":250,"ĺ":251,"Ļ":252,"ļ":253,"Ľ":254,"ľ":255,"Ŀ":256,"ŀ":257,"Ł":258,"ł":259,"Ń":260,"en":261,"ch":262,"er":263,"Ġd":264,"ei":265,"ie":266,"Ġ.":267,"Ġs":268,"ich":269,"st":270,"Ġw":271,"Ġ,":272,"ein":273,"nd":274,"Ġa":275,"Ġi":276,"Ġm":277,"as":278,"ge":279,"Ġn":280,"Ġh":281,"te":282,"an":283,"Ã¼":284,"ĠS":285,"es":286,"Ġu":287,"ll":288,"Ġein":289,"Ġb":290,"ir":291,"Ã¤":292,"Ġdie":293,"ar":294,"in":295,"Ġv":296,"gen":297,"icht":298,"Ġz":299,"hr":300,"au":301,"Ġk":302,"on":303,"sch":304,"Ġha":305,"Ġund":306,"Ġau":307,"Ġge":308,"it":309,"Ġdas":310,"or":311,"ĠM":312,"Ġder":313,"Ġzu":314,"Ġich":315,"un":316,"Ġnicht":317,"ten":318,"ach":319,"Ġist":320,"Ã¶":321,"Ġ?":322,"em":323,"Ġf":324,"Ġg":325,"al":326,"et":327,"el":328,"Ich":329,"mm":330,"ĠB":331,"ber":332,"ben":333,"ĠG":334,"ĠA":335,"ĠK":336,"ur":337,"ter":338,"ÃŁ":339,"Ġer":340,"ĠF":341,"Ġin":342,"ĠH":343,"Ġl":344,"ann":345,"Ġden":346,"ck":347,"ĠW":348,"ier":349,"Ġdu":350,"och":351,"Ã¼r":352,"Ġsch":353,"Ġso":354,"Ġwir":355,"ĠT":356,"eu":357,"ig":358,"Ġes":359,"Ġ!":360,"lich":361,"ĠL":362,"ss":363,"den":364,"Ġver":365,"der":366,"Ġsie":367,"ĠE":368,"eh":369,"ĠD":370,"ĠP":371,"ind":372,"..":373,"de":374,"ung":375,"Ġauf":376,"hn":377,"Ġmit":378,"Ġun":379,"at":380,"Ġ...":381,"Ġj":382,"am":383,"eine":384,"ag":385,"and":386,"ĠSie":387,"Ġr":388,"Ġan":389,"enn":390,"Ġwar":391,"eit":392,"be":393,"ĠR":394,"Ġwie":395,"Ġhat":396,"ĠSch":397,"Ġda":398,"tr":399,"Ġvon":400,"Ġ\"":401,"ut":402,"ĠV":403,"Ġsich":404,"ls":405,"omm":406,"etz":407,"Ġeine":408,"us":409,"le":410,"Ġo":411,"Ġbe":412,"se":413,"ĠN":414,"isch":415,"sen":416,"cht":417,"ol":418,"ĠI":419,"oll":420,"ern":421,"Ġmir":422,"ehr":423,"ro":424,"Ġdem":425,"ĠfÃ¼r":426,"ĠZ":427,"ĠJ":428,"Ġaus":429,"Das":430,"chen":431,"fen":432,"ser":433,"Ġall":434,"Ã¶n":435,"Die":436,"Ġihr":437,"ft":438,"Ġmich":439,"Ġdass":440,"is":441,"und":442,"Ġnoch":443,"re":444,"Ġsein":445,"Sie":446,"il":447,"Ġsind":448,"Und":449,"Ġauch":450,"rau":451,"Ġwas":452,"hl":453,"ill":454,"ste":455,"ahr":456,"um":457,"Ġals":458,"rei":459,"Ã¼ber":460,"Ġt":461,"Ġgeh":462,"iel":463,"Ġwei":464,"Ġmein":465,"Ġhaben":466,"Ġwer":467,"rÃ¼":468,"Ġ(":469,"ĠSt":470,"etzt":471,"ssen":472,"Ġim":473,"Ġhier":474,"ra":475,"bt":476,"Ġvor":477,"acht":478,"ist":479,"Ġeinen":480,"anz":481,"ĠC":482,"Ġnur":483,"Du":484,"Ġkann":485,"Ġum":486,"Er":487,"ot":488,"ing":489,"lei":490,"Ġaber":491,"ĠÃ¼ber":492,"Ġbei":493,"Ġdich":494,"Ã¶r":495,"eg":496,"Ġ)":497,"ik":498,"Ġp":499,"mmer":500,"ent":501,"Wir":502,"Ġuns":503,"Ġ'":504,"Es":505,"om":506,"nen":507,"Ġman":508,"Ġnach":509,"Ġdes":510,"ehen":511,"Ġhabe":512,"Ġihn":513,"nder":514,"Ġdir":515,"aus":516,"wei":517,"ff":518,"all":519,"sten":520,"Ġmal":521,"kt":522,"Ġwenn":523,"ĠU":524,"hm":525,"ĠO":526,"agen":527,"Ã¤t":528,"ion":529,"eben":530,"ĠVer":531,"Ġbin":532,"Ġwird":533,"Ġst":534,"uss":535,"Ġsoll":536,"ommen":537,"Aber":538,"Ġdoch":539,"lau":540,"ĠGe":541,"achen":542,"ĠkÃ¶n":543,"uch":544,"Ġsp":545,"ige":546,"ĠAn":547,"Ã¤n":548,"rie":549,"sp":550,"ort":551,"Ġoder":552,"Ġschon":553,"Ġjetzt":554,"Ġwo":555,"Ġdann":556,"tet":557,"Der":558,"Ġwill":559,"Ein":560,"os":561,"Ġ1":562,"Ġmehr":563,"ang":564,"pf":565,"igen":566,"imm":567,"Ġwieder":568,"ne":569,"Ġwoll":570,"Ġja":571,"che":572,"Ġwerden":573,"ab":574,"ul":575,"uf":576,"was":577,"he":578,"Ġtr":579,"ien":580,"eil":581,"Ġganz":582,"Ġ:":583,"schen":584,"urch":585,"Ġab":586,"ad":587,"hen":588,"zen":589,"Ã¤r":590,"Ġlie":591,"Ġkl":592,"ank":593,"ick":594,"gt":595,"Ġbes":596,"Ġhast":597,"est":598,"eute":599,"ĠEr":600,"mal":601,"ĠFr":602,"gel":603,"Ġeinem":604,"ĠAr":605,"Ġhin":606,"pp":607,"Ġsag":608,"her":609,"ger":610,"Ġimmer":611,"Ġmeine":612,"Ġander":613,"Ġet":614,"zu":615,"ĠSp":616,"ass":617,"Ġkein":618,"ungen":619,"Ġdein":620,"ÃŁen":621,"lie":622,"Ġzum":623,"Ġeiner":624,"ischen":625,"lo":626,"Ġnie":627,"rÃ¼ck":628,"ĠGes":629,"assen":630,"Wenn":631,"ht":632,"elt":633,"Ã¼ck":634,"Was":635,"Ġdar":636,"ĠweiÃŁ":637,"ert":638,"rin":639,"amm":640,"itte":641,"Ġges":642,"Ġdurch":643,"Ġher":644,"Ġhatte":645,"ĠHer":646,"bst":647,"men":648,"Ġihm":649,"Ġgew":650,"Ġbist":651,"ast":652,"iert":653,"ru":654,"Ġalles":655,"Ġkomm":656,"bei":657,"Ġmuss":658,"ĠIhr":659,"end":660,"af":661,"Ġent":662,"ed":663,"Ġste":664,"Ġgut":665,"ĠJahr":666,"Wie":667,"Ġam":668,"Ġkeine":669,"Ġwur":670,"eicht":671,"Ġetwas":672,"Ġunser":673,"ner":674,"ken":675,"Ġviel":676,"Ġdies":677,"Ġsehr":678,"Ġnichts":679,"ĠmÃ¼":680,"age":681,"Ġunter":682,"Ġhab":683,"ibt":684,"Ġbis":685,"Ġalle":686,"ĠwÃ¼r":687,"ĠFrau":688,"ri":689,"ieren":690,"Ġdenn":691,"eiÃŁ":692,"ster":693,"Ġ-":694,"hal":695,"nte":696,"Ġmachen":697,"heit":698,"Ġre":699,"ĠIch":700,"Ġgen":701,"art":702,"ell":703,"Ġgef":704,"chte":705,"ver":706,"ĠkÃ¶nnen":707,"ug":708,"Ġgro":709,"ap":710,"hnen":711,"ĠUn":712,"ĠMann":713,"Ġ2":714,"ĠZeit":715,"issen":716,"Ġgeht":717,"eid":718,"ater":719,"ĠMen":720,"br":721,"Ã¼n":722,"Ġgibt":723,"iell":724,"kommen":725,"Ã¤nd":726,"bl":727,"gend":728,"ische":729,"nt":730,"Sch":731,"ĠLeben":732,"uÃŁ":733,"ĠdaÃŁ":734,"lt":735,"ĠwÃ¤":736,"Ġdiese":737,"00":738,"ĠKind":739,"rÃ¤":740,"ĠBe":741,"aft":742,"usik":743,"Ġzwei":744,"Als":745,"Ja":746,"Ġger":747,"auf":748,"wer":749,"eigen":750,"agt":751,"eund":752,"ĠhÃ¤t":753,"ĠzurÃ¼ck":754,"egen":755,"ze":756,"In":757,"ffen":758,"Ġsagen":759,"Ġe":760,"ielleicht":761,"Ġwurde":762,"angen":763,"Ã¼hr":764,"ohn":765,"euch":766,"stell":767,"Da":768,"Ġsel":769,"xx":770,"Ġglau":771,"ĠEin":772,"leich":773,"bar":774,"ke":775,"schl":776,"ant":777,"keit":778,"Ġbrau":779,"hne":780,"ĠwÃ¼rde":781,"Ġsehen":782,"Ġje":783,"achte":784,"liche":785,"cken":786,"eut":787,"So":788,"Ġwollte":789,"Ġseine":790,"ĠStr":791,"ĠPro":792,"eln":793,"ĠmÃ¶":794,"orgen":795,"ange":796,"Ġeuch":797,"ĠRe":798,"ĠmÃ¼ssen":799,"ĠSchw":800,"kl":801,"Ġzur":802,"lichen":803,"fach":804,"ĠWas":805,"Ġfr":806,"ahl":807,"Ġwaren":808,"ĠIn":809,"ade":810,"Ã¤ch":811,"Ġverl":812,"eld":813,"Dann":814,"Ihr":815,"Ġgem":816,"me":817,"ers":818,"ation":819,"tern":820,"tes":821,"unden":822,"ĠFreund":823,"ÃŁe":824,"ĠFl":825,"Ã¼t":826,"ĠIhnen":827,"ah":828,"iss":829,"Ġkommt":830,"ess":831,"ehmen":832,"ĠschÃ¶n":833,"ungs":834,"ĠAu":835,"zt":836,"ĠÃ":837,"iger":838,"Ġdam":839,"Ġgehen":840,"Ġneu":841,"utter":842,"Ã¶rt":843,"Ġsagte":844,"Ġheute":845,"Ġgesch":846,"Ġdeine":847,"ache":848,"ob":849,"ĠKl":850,"Ġgu":851,"ĠBl":852,"Ġdieser":853,"war":854,"schaft":855,"Ġweiter":856,"iz":857,"Ã¤d":858,"Ġber":859,"iv":860,"Ġfind":861,"im":862,"pt":863,"Ġschl":864,"Ġeinfach":865,"ĠHerr":866,"Ã¤u":867,"iele":868,"ĠHau":869,"Ã¤hr":870,"ett":871,"War":872,"ĠhÃ¤tte":873,"ahren":874,"itt":875,"ĠLie":876,"Ġwerde":877,"ammen":878,"ĠSe":879,"fe":880,"sam":881,"Ġkon":882,"ĠCh":883,"lle":884,"ĠSchl":885,"klich":886,"ĠVater":887,"ĠMusik":888,"ĠwÃ¤re":889,"op":890,"Ġweil":891,"Ġihre":892,"Ġtun":893,"Ġweg":894,"atz":895,"Ã¤hl":896,"alt":897,"Ġmus":898,"esen":899,"so":900,"ichtig":901,"na":902,"Ġwohl":903,"od":904,"ĠMenschen":905,"Ġselbst":906,"ĠVor":907,"ennen":908,"aar":909,"ald":910,"Ġkommen":911,"Ġklein":912,"Man":913,"fl":914,"amen":915,"Ġob":916,"eiten":917,"Ġwen":918,"eich":919,"inn":920,"ĠGesch":921,"eim":922,"gst":923,"ochen":924,"ack":925,"Nein":926,"Ġgegen":927,"per":928,"ĠWelt":929,"lÃ¼ck":930,"ĠGr":931,"ĠKo":932,"ust":933,"Ġ--":934,"ler":935,"Ġblei":936,"Ġange":937,"ja":938,"ĠHaus":939,"ott":940,"Ġwollen":941,"Ġerst":942,"Ġvom":943,"Ġeigen":944,"ĠDu":945,"ay":946,"Ġgesagt":947,"Ġverst":948,"Ġzus":949,"anden":950,"Ġbitte":951,"ringen":952,"Ġwirklich":953,"Ġmacht":954,"Ġdamit":955,"rgend":956,"Ġgar":957,"og":958,"Ġvers":959,"ĠMar":960,"Ã¶ren":961,"Ġgleich":962,"Ġdr":963,"ĠHand":964,"fall":965,"Ã¼hl":966,"ĠPl":967,"vor":968,"Ġwissen":969,"ĠMutter":970,"ild":971,"Ġmeinen":972,"Ġbr":973,"aum":974,"ingt":975,"ĠOr":976,"Ist":977,"Ġohne":978,"Ġalso":979,"Ġar":980,"ĠAl":981,"tel":982,"eiÃŁt":983,"mer":984,"uld":985,"Ġbeg":986,"Ġanderen":987,"Ġ3":988,"Ġsollte":989,"fer":990,"Ġkannst":991,"Ġzusammen":992,"Ġwel":993,"ĠAuf":994,"rechen":995,"ffe":996,"aut":997,"ak":998,"Ġbest":999,"Ġal":1000,"Ã¤m":1001,"tlich":1002,"Ġjem":1003,"ĠAus":1004,"ech":1005,"sst":1006,"Ġins":1007,"ĠTag":1008,"Ġlassen":1009,"ĠLeute":1010,"ĠAb":1011,"aÃŁ":1012,"immt":1013,"ord":1014,"Ġsei":1015,"uchen":1016,"Ġhal":1017,"Ġraus":1018,"ĠBo":1019,"bend":1020,"ĠLand":1021,"Also":1022,"ĠkÃ¶nnte":1023,"ĠWei":1024,"ckt":1025,"ĠBer":1026,"onst":1027,"glich":1028,"ĠKinder":1029,"geben":1030,"Ġgerade":1031,"hin":1032,"Ġversch":1033,"ĠGeld":1034,"das":1035,"aten":1036,"ĠHo":1037,"sel":1038,"Mein":1039,"Ġeines":1040,"wie":1041,"die":1042,"Ġviele":1043,"orden":1044,"Hier":1045,"Ġletz":1046,"zÃ¤hl":1047,"Ġdiesem":1048,"oren":1049,"Eine":1050,"Ġirgend":1051,"Ġrein":1052,"dem":1053,"sche":1054,"Ġgest":1055,"Ġgemacht":1056,"Ġlang":1057,"ucht":1058,"Ġgel":1059,"ÃŁer":1060,"Jetzt":1061,"ĠAugen":1062,"nde":1063,"Ver":1064,"Ġbesser":1065,"immer":1066,"itz":1067,"att":1068,"cher":1069,"Ġvielleicht":1070,"Ġdiesen":1071,"Ġdrei":1072,"wo":1073,"adt":1074,"Wo":1075,"beit":1076,"Ġschw":1077,"auen":1078,"uh":1079,"Ġdort":1080,"Ġmeiner":1081,"unde":1082,"nell":1083,"von":1084,"Ġlange":1085,"Ġandere":1086,"Warum":1087,"ho":1088,"richt":1089,"ĠKr":1090,"Ġsicher":1091,"Ġnun":1092,"ĠDie":1093,"Ġgern":1094,"llt":1095,"ĠMon":1096,"ine":1097,"ĠmÃ¶chte":1098,"qu":1099,"Ġzw":1100,"Ġihnen":1101,"eht":1102,"Ġsagt":1103,"Ġkeinen":1104,"ĠGef":1105,"Ġmach":1106,"unter":1107,"Ġlos":1108,"Ġseiner":1109,"Ġeinmal":1110,"Ġgeb":1111,"ehe":1112,"Mit":1113,"ER":1114,"Ã¤dchen":1115,"erst":1116,"zie":1117,"xxx":1118,"nis":1119,"Ġglaube":1120,"ia":1121,"ic":1122,"Ã¶t":1123,"Ġseinen":1124,"ndern":1125,"Ġdieses":1126,"asse":1127,"ĠDas":1128,"ey":1129,"id":1130,"ges":1131,"Ġverd":1132,"ahn":1133,"ĠWir":1134,"igt":1135,"halten":1136,"Ġspiel":1137,"geb":1138,"Ġvoll":1139,"Ġkonnte":1140,"ĠWasser":1141,"ekt":1142,"ren":1143,"ĠMal":1144,"pl":1145,"ĠNacht":1146,"Ġmeinem":1147,"aben":1148,"Ġzie":1149,"Ġgesehen":1150,"Ġbesch":1151,"Ġbek":1152,"Un":1153,"Ġunsere":1154,"fÃ¼r":1155,"Ġho":1156,"zeit":1157,"ĠBes":1158,"Ġwillst":1159,"Nicht":1160,"iere":1161,"amil":1162,"CH":1163,"ok":1164,"Ġerf":1165,"ander":1166,"ĠÃ¤":1167,"Ġdrau":1168,"igkeit":1169,"ichte":1170,"Ġne":1171,"ĠSte":1172,"rÃ¶":1173,"Ġkam":1174,"ľber":1175,"aden":1176,"Ġle":1177,"Ġdachte":1178,"unge":1179,"ud":1180,"uck":1181,"weg":1182,"Wer":1183,"Ã¤lt":1184,"Ġmusst":1185,"ĠJahre":1186,"als":1187,"anken":1188,"Auf":1189,"llen":1190,"ĠMÃ¤dchen":1191,"under":1192,"ennt":1193,"gesch":1194,"Ġschnell":1195,"ĠMa":1196,"nung":1197,"aufen":1198,"Ġlei":1199,"gar":1200,"EN":1201,"olle":1202,"ĠgehÃ¶rt":1203,"ĠArbeit":1204,"ĠGeb":1205,"spr":1206,"ĠUnter":1207,"ĠLe":1208,"Vielleicht":1209,"Ġsteht":1210,"hst":1211,"ingen":1212,"ĠTage":1213,"nten":1214,"ĠFamil":1215,"ĠEnt":1216,"kel":1217,"ib":1218,"ĠAbend":1219,"ĠKÃ¶n":1220,"gehen":1221,"ĠNach":1222,"Ġhatten":1223,"Ġpass":1224,"ief":1225,"ĠKon":1226,"ĠerzÃ¤hl":1227,"Ġsol":1228,"gef":1229,"ĠStadt":1230,"euer":1231,"ĠAut":1232,"wa":1233,"Ġganze":1234,"inge":1235,"spiel":1236,"Komm":1237,"gew":1238,"ĠHause":1239,"Ġbed":1240,"ĠEl":1241,"Ġbet":1242,"Ġbl":1243,"ĠJahren":1244,"da":1245,"Ġseit":1246,"Ġeben":1247,"annt":1248,"net":1249,"orm":1250,"av":1251,"anke":1252,"Ġpaar":1253,"ĠRo":1254,"eist":1255,"Ġgenau":1256,"ĠGott":1257,"ĠBr":1258,"gl":1259,"ĠIhre":1260,"Ġeinz":1261,"--":1262,"ark":1263,"Ġihren":1264,"Ġsieht":1265,"Meine":1266,"err":1267,"hol":1268,"asst":1269,"Ġdavon":1270,"Ġkrie":1271,"Ġwahr":1272,"urz":1273,"halb":1274,"Ġrecht":1275,"ce":1276,"zeu":1277,"Ġjemand":1278,"Ġgeben":1279,"Oh":1280,"Ġfinden":1281,"fte":1282,"uten":1283,"ele":1284,"Im":1285,"einen":1286,"An":1287,"Ġbeim":1288,"ĠfrÃ¼":1289,"Ġ4":1290,"ppen":1291,"ĠKopf":1292,"Na":1293,"ĠRei":1294,"Ġ5":1295,"Ġarbei":1296,"ama":1297,"ame":1298,"ĠMÃ¤n":1299,"Ġwenig":1300,"afen":1301,"Ġseinem":1302,"ĠPol":1303,"Ġget":1304,"ĠSon":1305,"Ġleben":1306,"old":1307,"Ġdarf":1308,"Ġdeinen":1309,"erk":1310,"oten":1311,"Ġallein":1312,"ĠwÃ¤r":1313,"Ã¤ter":1314,"onder":1315,"ĠLu":1316,"ĠMin":1317,"Ġsah":1318,"itten":1319,"Ġbef":1320,"Ġgab":1321,"eite":1322,"Ġwirst":1323,"ĠgroÃŁ":1324,"ragen":1325,"ĠheiÃŁt":1326,"ĠKÃ¶nig":1327,"St":1328,"mand":1329,"ppe":1330,"ure":1331,"eck":1332,"Ġxxx":1333,"ĠBru":1334,"ĠmuÃŁ":1335,"Ġhinter":1336,"innen":1337,"ma":1338,"essen":1339,"du":1340,"Ġdabei":1341,"ollen":1342,"auer":1343,"Ġsollen":1344,"ĠUnd":1345,"ub":1346,"ĠWeg":1347,"Diese":1348,"ĠGer":1349,"Ġersch":1350,"Nur":1351,"Ġhei":1352,"iff":1353,"FÃ¼r":1354,"ĠweiÃŁt":1355,"ĠKa":1356,"Ġbeh":1357,"Ġverb":1358,"ĠWie":1359,"Ġging":1360,"ĠdafÃ¼r":1361,"affen":1362,"gessen":1363,"atÃ¼r":1364,"yp":1365,"ogen":1366,"Ġschwer":1367,"Hast":1368,"Ġreden":1369,"ĠGew":1370,"Den":1371,"ĠArt":1372,"eiden":1373,"Ġwurden":1374,"eder":1375,"chten":1376,"ĠLiebe":1377,"ehn":1378,"Ġmorgen":1379,"hle":1380,"Ġsondern":1381,"ĠSohn":1382,"Ġfrei":1383,"stÃ¤nd":1384,"Ġgek":1385,"Ġihrer":1386,"eister":1387,"Ġsonst":1388,"Ġnehmen":1389,"Ġna":1390,"Ġmag":1391,"Ã¤um":1392,"eig":1393,"ĠKar":1394,"Ġbleiben":1395,"etzen":1396,"ĠMr":1397,"ĠTr":1398,"Ġjed":1399,"ĠHerz":1400,"ĠTÃ¼r":1401,"ĠDr":1402,"ĠTh":1403,"Ġhel":1404,"ian":1405,"Bei":1406,"ĠPap":1407,"Nun":1408,"unkt":1409,"Ã¼ss":1410,"asch":1411,"alten":1412,"hau":1413,"ĠEnde":1414,"ĠSchu":1415,"Ġweit":1416,"ĠFil":1417,"eter":1418,"gangen":1419,"Ġrichtig":1420,"ĠFamilie":1421,"ÃŁt":1422,"Ġzwischen":1423,"Ġtot":1424,"Ġkleine":1425,"urt":1426,"Ġersten":1427,"Qu":1428,"eint":1429,"licher":1430,"Ġtut":1431,"ĠAngst":1432,"blem":1433,"iges":1434,"ĠÃĦ":1435,"ate":1436,"All":1437,"Ġdazu":1438,"dr":1439,"Ġhoch":1440,"ĠFrauen":1441,"ĠSpiel":1442,"sicht":1443,"inden":1444,"Ġwegen":1445,"bracht":1446,"Ġschle":1447,"schuld":1448,"Ã¤ft":1449,"Ġklar":1450,"ard":1451,"ĠnÃ¤ch":1452,"legen":1453,"io":1454,"ĠgroÃŁe":1455,"sk":1456,"Ġgenug":1457,"if":1458,"Ã¤nder":1459,"Ġfest":1460,"ette":1461,"Ġjeden":1462,"ĠKrie":1463,"Ġerw":1464,"ĠGlÃ¼ck":1465,"igung":1466,"Ġverk":1467,"ale":1468,"ĠTe":1469,"mann":1470,"atÃ¼rlich":1471,"Ã¼nf":1472,"Ġverw":1473,"Nach":1474,"Ġbereit":1475,"ĠSo":1476,"Ġstehen":1477,"ĠhÃ¶":1478,"ĠKam":1479,"ĠMo":1480,"kay":1481,"ĠGen":1482,"schie":1483,"Ġhol":1484,"achten":1485,"ĠPf":1486,"ittel":1487,"sehen":1488,"allen":1489,"Ġwarum":1490,"pfen":1491,"stand":1492,"ĠUm":1493,"ĠfÃ¼hr":1494,"ĠUhr":1495,"Ġwelche":1496,"ischer":1497,"ĠY":1498,"ĠNamen":1499,"FF":1500,"ĠgrÃ¶":1501,"stens":1502,"ĠGro":1503,"ĠMom":1504,"eten":1505,"ĠEs":1506,"zahl":1507,"Ġ20":1508,"000":1509,"Ġverm":1510,"Ġschrei":1511,"Ġbald":1512,"Ġdrin":1513,"ĠÃľber":1514,"stellen":1515,"Ġc":1516,"Ġbisschen":1517,"nehmen":1518,"Ġsollten":1519,"Ġstr":1520,"itzen":1521,"ionen":1522,"ock":1523,"rage":1524,"ha":1525,"ĠEn":1526,"ĠRu":1527,"Ġneue":1528,"ĠKn":1529,"fr":1530,"Ġ19":1531,"Ã¤l":1532,"Ġgewesen":1533,"land":1534,"Ġvier":1535,"Ġgetr":1536,"Ġverh":1537,"schein":1538,"los":1539,"fÃ¼hr":1540,"ĠMÃ¤nner":1541,"fort":1542,"Ã¶s":1543,"Auch":1544,"atur":1545,"ker":1546,"Ġkennen":1547,"ĠÃ¼":1548,"Ġfast":1549,"Ġbringen":1550,"klÃ¤r":1551,"Ġganzen":1552,"Ġausge":1553,"Ġoft":1554,"Sp":1555,"reich":1556,"Ġjeder":1557,"Ġhabt":1558,"Ġoben":1559,"Ã¤llt":1560,"ĠJa":1561,"ĠgroÃŁen":1562,"ĠProblem":1563,"bes":1564,"Ġpassiert":1565,"Ġkleinen":1566,"utz":1567,"rat":1568,"ĠhÃ¶r":1569,"ertig":1570,"scht":1571,"geln":1572,"eilen":1573,"ĠQu":1574,"Ġliegt":1575,"Ġaufge":1576,"icher":1577,"zei":1578,"Ġeigentlich":1579,"ans":1580,"Ġhelfen":1581,"arr":1582,"einander":1583,"eb":1584,"Ġend":1585,"Ġlieber":1586,"Ġetwa":1587,"ĠlÃ¤":1588,"Ġpl":1589,"Ġfahren":1590,"Ġkenn":1591,"Ġbrauchen":1592,"Ġallen":1593,"Ġen":1594,"ost":1595,"etten":1596,"ĠMensch":1597,"ĠGed":1598,"Ġbew":1599,"zlich":1600,"fol":1601,"Ġaller":1602,"Ġbeiden":1603,"itÃ¤t":1604,"ĠTod":1605,"Ġleid":1606,"orte":1607,"ow":1608,"isse":1609,"fel":1610,"Dar":1611,"ĠGesicht":1612,"Ġdeinem":1613,"ĠMit":1614,"Weil":1615,"zi":1616,"Ġsprechen":1617,"ĠGrund":1618,"Ġseid":1619,"ruck":1620,"stellt":1621,"Ġspr":1622,"ĠspÃ¤ter":1623,"Ġdeiner":1624,"Ġdarauf":1625,"ere":1626,"rot":1627,"ĠkÃ¼":1628,"Ġdenen":1629,"Ġwus":1630,"ĠStimm":1631,"ĠBruder":1632,"Ġkurz":1633,"akt":1634,"ats":1635,"Ġdaran":1636,"ehl":1637,"inner":1638,"ĠAnt":1639,"uer":1640,"amp":1641,"ĠGeh":1642,"weise":1643,"isten":1644,"org":1645,"Ġsofort":1646,"Ã¤ng":1647,"ĠhÃ¶ren":1648,"ink":1649,"abe":1650,"ester":1651,"Von":1652,"ider":1653,"ĠÃ¶":1654,"ende":1655,"Ġliebe":1656,"Ġhalten":1657,"reck":1658,"Ġnein":1659,"ĠMe":1660,"Ã¶hn":1661,"ys":1662,"Ã¤nger":1663,"Ġgute":1664,"ĠGl":1665,"ĠAuto":1666,"ĠGra":1667,"Ġihrem":1668,"eiÃŁe":1669,"ĠDeut":1670,"ĠZimmer":1671,"ĠFall":1672,"Ġflie":1673,"nahm":1674,"Ġfertig":1675,"Ġspielen":1676,"ochter":1677,"ĠEur":1678,"Ġrei":1679,"Ġsogar":1680,"haus":1681,"ufen":1682,"ĠZu":1683,"Ġged":1684,"ĠBuch":1685,"Will":1686,"ings":1687,"Ġde":1688,"inken":1689,"Ġben":1690,"Ġessen":1691,"Ġvergessen":1692,"blick":1693,"Ġpro":1694,"ĠHÃ¶":1695,"Ġdrauf":1696,"ĠBett":1697,"ĠBei":1698,"ĠWort":1699,"ichten":1700,"ĠfÃ¼hl":1701,"raft":1702,"ĠEuch":1703,"bte":1704,"ĠSÃ¼":1705,"Vor":1706,"Ġ6":1707,"haupt":1708,"Ġvorbei":1709,"ĠFilm":1710,"ernen":1711,"Doch":1712,"komm":1713,"ew":1714,"'s":1715,"Kann":1716,"Ġheraus":1717,"Ġbesonder":1718,"Ġem":1719,"Ã¤nde":1720,"elle":1721,"Ġbeide":1722,"ĠGeschichte":1723,"Oder":1724,"loÃŁ":1725,"ĠDinge":1726,"kte":1727,"ĠSeite":1728,"Ã¶l":1729,"ph":1730,"ĠfÃ¼nf":1731,"immel":1732,"ziehen":1733,"ĠSache":1734,"Ġletzten":1735,"ĠTo":1736,"ĠStra":1737,"test":1738,"echs":1739,"ĠReg":1740,"orn":1741,"ÃĦ":1742,"pfer":1743,"Ġanders":1744,"ĠEx":1745,"ehm":1746,"Ġdenke":1747,"ĠPar":1748,"ts":1749,"ĠPart":1750,"Ġsehe":1751,"Dies":1752,"wort":1753,"ellen":1754,"llig":1755,"Ġkr":1756,"wir":1757,"ĠJunge":1758,"uche":1759,"gem":1760,"aber":1761,"chmal":1762,"ute":1763,"Ach":1764,"ĠLebens":1765,"sie":1766,"kehr":1767,"raten":1768,"ĠwÃ¤hr":1769,"ĠdÃ¼r":1770,"ĠKrieg":1771,"ĠPfer":1772,"ĠTeil":1773,"ĠDer":1774,"Hat":1775,"EI":1776,"Ġfol":1777,"ĠwÃ¼rden":1778,"itter":1779,"Ġfort":1780,"off":1781,"lossen":1782,"ĠTochter":1783,"ĠDo":1784,"ĠFreunde":1785,"inger":1786,"euten":1787,"Alle":1788,"Ã¤cht":1789,"Ġsage":1790,"raum":1791,"Ġeins":1792,"aur":1793,"Ġbevor":1794,"inter":1795,"chst":1796,"ĠdarÃ¼ber":1797,"Ġmache":1798,"ĠMan":1799,"Ġrunter":1800,"Ġerste":1801,"ĠMorgen":1802,"icken":1803,"ĠwÃ¤hrend":1804,"hren":1805,"Ġallem":1806,"olz":1807,"stag":1808,"ĠMama":1809,"Ġgerne":1810,"ierte":1811,"Ġniemand":1812,"unft":1813,"ies":1814,"Sag":1815,"ĠPoliz":1816,"ĠLuft":1817,"Ġgekommen":1818,"arm":1819,"Ġfl":1820,"Ġerk":1821,"ĠBau":1822,"enden":1823,"Ġbekommen":1824,"Ġgefunden":1825,"ĠBab":1826,"Ġeinge":1827,"Bitte":1828,"hlen":1829,"ĠglÃ¼ck":1830,"Ġ18":1831,"ĠBÃ¼r":1832,"Ġwunder":1833,"ĠKomm":1834,"erv":1835,"arten":1836,"Ġeh":1837,"ĠJo":1838,"ĠUr":1839,"Ġauss":1840,"Ġmachst":1841,"fahr":1842,"dern":1843,"erl":1844,"mlich":1845,"Ġbraucht":1846,"Ġalten":1847,"Ġdenken":1848,"reis":1849,"Am":1850,"Ġmusste":1851,"Zu":1852,"ĠIde":1853,"Ã¶rper":1854,"Ġwusste":1855,"ierung":1856,"zw":1857,"aul":1858,"ĠLei":1859,"gegen":1860,"mals":1861,"Ġster":1862,"zeug":1863,"Ġern":1864,"zogen":1865,"gr":1866,"Ġgeworden":1867,"fern":1868,"Ġabge":1869,"ĠMill":1870,"ĠRÃ¼ck":1871,"achsen":1872,"Ġdeut":1873,"lung":1874,"cke":1875,"fallen":1876,"ĠÃ¼berhaupt":1877,"Ġverloren":1878,"ĠhÃ¤tten":1879,"schw":1880,"Ġunserer":1881,"ĠSu":1882,"Lass":1883,"etter":1884,"Ġverg":1885,"laub":1886,"bo":1887,"one":1888,"auber":1889,"alen":1890,"keiten":1891,"ium":1892,"ĠGem":1893,"Um":1894,"omp":1895,"sse":1896,"ickt":1897,"ĠSta":1898,"Ġbel":1899,"leid":1900,"ĠtÃ¶":1901,"Ġverschw":1902,"ĠStÃ¼ck":1903,"ase":1904,"Ġinter":1905,"ĠGel":1906,"ina":1907,"ĠBÃ¼":1908,"KÃ¶n":1909,"Ã¤h":1910,"ĠBild":1911,"Ġendlich":1912,"ĠJu":1913,"voll":1914,"abt":1915,"ip":1916,"Ġneuen":1917,"oche":1918,"ĠHoch":1919,"ĠPh":1920,"Ġstand":1921,"ĠfrÃ¼her":1922,"anzen":1923,"ĠEltern":1924,"ko":1925,"Ã¤uft":1926,"Ġalte":1927,"Ġglauben":1928,"ĠDe":1929,"ummer":1930,"trag":1931,"Ġoffen":1932,"urm":1933,"iet":1934,"Ġecht":1935,"ĠkÃ¶nnten":1936,"arbei":1937,"ĠauÃŁer":1938,"ĠKir":1939,"Ġunten":1940,"Ġgetan":1941,"Alles":1942,"az":1943,"bringen":1944,"zug":1945,"Hey":1946,"man":1947,"ĠLicht":1948,"ĠWohn":1949,"ĠLo":1950,"Ġgehe":1951,"Ġunbe":1952,"legt":1953,"ĠFeuer":1954,"ikan":1955,"ĠHimmel":1956,"ika":1957,"...":1958,"els":1959,"ĠSchule":1960,"Ġbrauche":1961,"ĠPlatz":1962,"uÃŁer":1963,"ilfe":1964,"ĠFlug":1965,"erson":1966,"ĠKat":1967,"ĠMinuten":1968,"ĠWochen":1969,"ens":1970,"rad":1971,"ĠCo":1972,"ai":1973,"ille":1974,"rieben":1975,"ĠFahr":1976,"Ġkomme":1977,"Denn":1978,"ĠAm":1979,"ĠWar":1980,"ĠChr":1981,"umen":1982,"Ã¤us":1983,"esse":1984,"riff":1985,"Ġdran":1986,"undert":1987,"einer":1988,"urg":1989,"auft":1990,"sprochen":1991,"ĠMoment":1992,"ĠVerb":1993,"Ġwarten":1994,"Ġschlie":1995,"Ġ7":1996,"olk":1997,"ĠTyp":1998,"leben":1999,"ienen":2000,"ĠKÃ¼":2001,"ĠSpr":2002,"iÃŁ":2003,"Ġwarst":2004,"Haben":2005,"Ã¶glich":2006,"halt":2007,"Ġbleibt":2008,"ĠRecht":2009,"Ġworden":2010,"ĠAll":2011,"tete":2012,"gang":2013,"Ġfal":2014,"Ġruh":2015,"iden":2016,"Ġtre":2017,"ain":2018,"min":2019,"ĠSchul":2020,"ielt":2021,"ĠnatÃ¼rlich":2022,"ĠNeu":2023,"atten":2024,"wohl":2025,"Be":2026,"mus":2027,"elbst":2028,"Ġalt":2029,"lassen":2030,"Ġvertr":2031,"kunft":2032,"annte":2033,"ĠRicht":2034,"Ã¼b":2035,"sinn":2036,"zer":2037,"Ġletzte":2038,"haft":2039,"Ġerwar":2040,"ĠHaupt":2041,"ager":2042,"Ġwichtig":2043,"Ġarbeiten":2044,"Ã¤ngt":2045,"ĠPrin":2046,"Ġfinde":2047,"ĠBrie":2048,"ive":2049,"ĠWahr":2050,"th":2051,"Ġzwar":2052,"ĠErde":2053,"nden":2054,"Ġeinige":2055,"Ġtoll":2056,"Ġ..":2057,"unst":2058,"falls":2059,"ĠWo":2060,"Unser":2061,"Ġex":2062,"ĠlÃ¤sst":2063,"lin":2064,"ĠStunden":2065,"rÃ¼ckt":2066,"ĠBar":2067,"lichkeit":2068,"uren":2069,"ĠGegen":2070,"liches":2071,"Ã¼gen":2072,"Dam":2073,"hung":2074,"red":2075,"Ġinteress":2076,"rieden":2077,"ont":2078,"ĠWer":2079,"Ġzeigen":2080,"Ġ10":2081,"ammt":2082,"bel":2083,"otz":2084,"ĠgrÃ¼":2085,"ĠmÃ¶glich":2086,"ĠGroÃŁ":2087,"agte":2088,"ieden":2089,"itze":2090,"mit":2091,"Ġwollten":2092,"Ġ8":2093,"Ã¤hrt":2094,"ĠPu":2095,"ĠwÃ¼n":2096,"Ġkaum":2097,"ĠdrauÃŁen":2098,"\",":2099,"Ġmei":2100,"egal":2101,"Ġbestimmt":2102,"ĠerklÃ¤r":2103,"itzt":2104,"ehme":2105,"ĠOrt":2106,"zeich":2107,"tem":2108,"WeiÃŁt":2109,"app":2110,"ĠEssen":2111,"ĠHe":2112,"ĠBlut":2113,"Ġlass":2114,"Ã¼hle":2115,"ĠFrei":2116,"Ġverlassen":2117,"fon":2118,"ĠSchn":2119,"genommen":2120,"umm":2121,"Ġsuchen":2122,"Ent":2123,"Ġanderes":2124,"Des":2125,"ĠSachen":2126,"ĠVers":2127,"Dieser":2128,"Ġ15":2129,"ĠFuÃŁ":2130,"Ġricht":2131,"vers":2132,"Soll":2133,"ĠFrage":2134,"isst":2135,"ĠWoche":2136,"ult":2137,"Ġsterben":2138,"form":2139,"Ġkeiner":2140,"orge":2141,"Ġjen":2142,"Ġerh":2143,"ĠMein":2144,"fahren":2145,"ĠerzÃ¤hlt":2146,"Ġstar":2147,"Ġziemlich":2148,"machen":2149,"ĠBaby":2150,"Ġleicht":2151,"ump":2152,"ĠSchr":2153,"ĠSchwester":2154,"ĠBet":2155,"ĠBed":2156,"ĠHaar":2157,"ĠWill":2158,"wÃ¼r":2159,"isches":2160,"Ã¤ndern":2161,"schlagen":2162,"Ġherum":2163,"ausen":2164,"ĠBeg":2165,"ĠMiss":2166,"ĠPolizei":2167,"kr":2168,"str":2169,"Kl":2170,"Aus":2171,"ix":2172,"ĠHund":2173,"ĠhÃ¤lt":2174,"Ġnahm":2175,"erin":2176,"Ġfand":2177,"recht":2178,"ĠBoden":2179,"ĠOrd":2180,"Ġneben":2181,"Ã¤uf":2182,"ĠVolk":2183,"ance":2184,"ĠSir":2185,"Ġkom":2186,"Fr":2187,"inde":2188,"weil":2189,"Ġrum":2190,"Ã¶tzlich":2191,"eigt":2192,"ĠPapa":2193,"ĠThe":2194,"ienst":2195,"offen":2196,"Ġbezahl":2197,"ĠglÃ¼cklich":2198,"fang":2199,"Dass":2200,"jetzt":2201,"bert":2202,"Ġlieben":2203,"Ġmachte":2204,"des":2205,"wegen":2206,"ym":2207,"ĠFen":2208,"Mir":2209,"gleich":2210,"ĠPlan":2211,"utt":2212,"hre":2213,"ĠSchiff":2214,"ĠLeo":2215,"pr":2216,"ĠRuhe":2217,"eile":2218,"ĠlÃ¤uft":2219,"ient":2220,"ST":2221,"Ġbesten":2222,"ĠBeispiel":2223,"Ġzer":2224,"Ġfragen":2225,"chter":2226,"Keine":2227,"HÃ¶r":2228,"aften":2229,"stehen":2230,"Ġkenne":2231,"Ġgebe":2232,"ĠPr":2233,"Musik":2234,"Ġschlecht":2235,"ilder":2236,"Ihre":2237,"wick":2238,"immen":2239,"Ã¼nst":2240,"ĠName":2241,"Ġverstehen":2242,"orf":2243,"inder":2244,"schn":2245,"Ġschwar":2246,"Gut":2247,"unk":2248,"Ã¤mlich":2249,"AN":2250,"ĠKÃ¶rper":2251,"Dein":2252,"ĠZug":2253,"Ġgegeben":2254,"ĠnÃ¤chsten":2255,"asche":2256,"onnen":2257,"Ã¤nge":2258,"Wieso":2259,"Ġempf":2260,"ormal":2261,"Heute":2262,"Ġsiehst":2263,"ĠFar":2264,"utzen":2265,"Ġdamals":2266,"Ġind":2267,"ĠWagen":2268,"Ġbringt":2269,"eren":2270,"roh":2271,"wÃ¤r":2272,"Ġehr":2273,"ante":2274,"Ġbekomm":2275,"ĠOrdnung":2276,"Ġschlafen":2277,"ĠAt":2278,"Ġvielen":2279,"ĠMil":2280,"Ġte":2281,"Willst":2282,"ĠBesch":2283,"Ãľber":2284,"ĠEi":2285,"Ste":2286,"ĠHilfe":2287,"stellung":2288,"pro":2289,"eutet":2290,"ĠbloÃŁ":2291,"ĠWenn":2292,"Ġerrei":2293,"laufen":2294,"Ã¼ll":2295,"scher":2296,"ĠPerson":2297,"teil":2298,"Ã¤ngen":2299,"ister":2300,"order":2301,"ĠAd":2302,"ationen":2303,"ition":2304,"ĠÃĸ":2305,"Ã¤re":2306,"Ã¼hrt":2307,"ue":2308,"ĠLi":2309,"co":2310,"Ġholen":2311,"Sind":2312,"ĠlieÃŁ":2313,"Seit":2314,"Ġguten":2315,"ĠIhren":2316,"kst":2317,"will":2318,"schland":2319,"Ġsolche":2320,"ĠFern":2321,"ĠvÃ¶":2322,"dann":2323,"ĠGefÃ¼hl":2324,"Ã¤ÃŁ":2325,"Geh":2326,"Ġeigenen":2327,"ath":2328,"Ġunseren":2329,"ĠChar":2330,"ches":2331,"Ã¼tzen":2332,"yst":2333,"ĠFrÃ¼":2334,"ĠJob":2335,"ĠPfl":2336,"Ġtrotz":2337,"ĠsÃ¼":2338,"Ġlangsam":2339,"Ġlau":2340,"ften":2341,"orten":2342,"Ġverlie":2343,"wand":2344,"Ã¶se":2345,"Ġverschieden":2346,"ĠÃ¼br":2347,"ĠInd":2348,"Ġanf":2349,"prÃ¤":2350,"Ġbesonders":2351,"ĠWahrheit":2352,"ĠLehr":2353,"Ġweniger":2354,"ka":2355,"ĠIdee":2356,"ĠkÃ¤m":2357,"Ġscheint":2358,"ĠdÃ¼rfen":2359,"Herr":2360,"IN":2361,"ĠnÃ¤mlich":2362,"det":2363,"ĠJungs":2364,"Ġgestern":2365,"rift":2366,"ĠMeer":2367,"Noch":2368,"schrei":2369,"elte":2370,"ĠWe":2371,"ĠHerzen":2372,"ichtet":2373,"Ġschm":2374,"ote":2375,"gn":2376,"ossen":2377,"Ġgl":2378,"ĠKampf":2379,"werk":2380,"ĠOber":2381,"ĠSpaÃŁ":2382,"ĠNatur":2383,"ĠFrank":2384,"gebracht":2385,"ĠStunde":2386,"Ġ9":2387,"Damit":2388,"uhr":2389,"Ġzehn":2390,"eind":2391,"gte":2392,"ĠHÃ¼":2393,"Ġmeines":2394,"ĠspÃ¤t":2395,"Ġbereits":2396,"Deine":2397,"ĠStraÃŁe":2398,"zus":2399,"ĠFot":2400,"Je":2401,"heim":2402,"ĠTages":2403,"zÃ¼":2404,"ĠTraum":2405,"Ġdahin":2406,"satz":2407,"Ã¤ss":2408,"Danke":2409,"orben":2410,"alien":2411,"Ġegal":2412,"ĠFenster":2413,"Ġtreffen":2414,"Mach":2415,"ĠNÃ¤":2416,"Ġbem":2417,"Ġkleiner":2418,"ĠgrÃ¶ÃŁ":2419,"ĠwÃ¤ren":2420,"Ġgedacht":2421,"Ġruhig":2422,"berg":2423,"etzte":2424,"Ġokay":2425,"Gen":2426,"sste":2427,"Ġliegen":2428,"afft":2429,"IE":2430,"ĠKap":2431,"Ġentsch":2432,"ĠHÃ¤nde":2433,"ufe":2434,"ahlen":2435,"ĠTisch":2436,"ĠArme":2437,"Bis":2438,"Ġkommst":2439,"ĠWald":2440,"ĠGeburt":2441,"Ġstark":2442,"Ġsechs":2443,"ĠRom":2444,"selben":2445,"Ġjemanden":2446,"ktor":2447,"ax":2448,"ĠStimme":2449,"Ġnehme":2450,"Ã¤gt":2451,"Ġkap":2452,"Zum":2453,"ĠIhrer":2454,"anten":2455,"ernt":2456,"Ġleg":2457,"Ġmer":2458,"ĠfrÃ¼h":2459,"ĠEngl":2460,"ĠZeu":2461,"ĠEm":2462,"ĠHerrn":2463,"Ġhm":2464,"usst":2465,"ek":2466,"bild":2467,"Ġru":2468,"ĠSal":2469,"unken":2470,"ĠWind":2471,"Ġstatt":2472,"ĠPrÃ¤":2473,"ipp":2474,"ĠNein":2475,"ĠFreundin":2476,"Ġlieb":2477,"ĠSonne":2478,"ĠAlter":2479,"Ġbedeutet":2480,"di":2481,"ĠArm":2482,"Ġerle":2483,"anach":2484,"hof":2485,"Ġung":2486,"ĠGeist":2487,"gie":2488,"ĠDeutschland":2489,"son":2490,"Ġhil":2491,"Nie":2492,"Ġant":2493,"ĠGold":2494,"ĠplÃ¶tzlich":2495,"ĠBlick":2496,"scheinlich":2497,"Ġhoffe":2498,"Mann":2499,"Ġblau":2500,"ierig":2501,"Ġeinzige":2502,"ĠMund":2503,"ĠCl":2504,"ĠAmer":2505,"ĠDing":2506,"ĠSh":2507,"ĠRest":2508,"ĠWeihn":2509,"Ġfindet":2510,"Ġniemals":2511,"ĠBu":2512,"Ġjede":2513,"Ãľ":2514,"Ġdarum":2515,"ĠZwei":2516,"ift":2517,"Ġspricht":2518,"ĠSchÃ¶n":2519,"gelt":2520,"Ġsitzen":2521,"Ã¼cht":2522,"ĠHel":2523,"Ġgemein":2524,"Ġmanchmal":2525,"musik":2526,"Ġmeisten":2527,"ĠStelle":2528,"Ġtrinken":2529,"Lie":2530,"ĠStu":2531,"ĠGedanken":2532,"allo":2533,"ĠDir":2534,"esser":2535,"ĠKraft":2536,"Ġeure":2537,"Ã¶ff":2538,"eufel":2539,"Ġkriegen":2540,"uchte":2541,"Ġ30":2542,"ĠHerren":2543,"ĠÃ¼berall":2544,"pfe":2545,"siden":2546,"ĠOh":2547,"ĠDad":2548,"Ġdessen":2549,"aff":2550,"Bist":2551,"asen":2552,"ĠTagen":2553,"Ġ12":2554,"ide":2555,"ĠFreu":2556,"schied":2557,"ĠerzÃ¤hlen":2558,"zess":2559,"zimmer":2560,"Ġstimmt":2561,"ĠMed":2562,"ĠMittel":2563,"hÃ¶ren":2564,"ĠChrist":2565,"ĠCar":2566,"ĠGener":2567,"Ġschn":2568,"Ġvorher":2569,"ĠBaum":2570,"hÃ¤lt":2571,"Ġaufs":2572,"Ġtief":2573,"ĠGrÃ¼":2574,"ande":2575,"AuÃŁer":2576,"ov":2577,"Br":2578,"ĠBef":2579,"Ġselber":2580,"burg":2581,"olog":2582,"ĠTeufel":2583,"Frau":2584,"ball":2585,"pft":2586,"unktion":2587,"Ġsolltest":2588,"Okay":2589,"ĠKerl":2590,"ĠschÃ¶ne":2591,"esp":2592,"ismus":2593,"ĠNachricht":2594,"Ġper":2595,"lch":2596,"Ġhinein":2597,"Ġzerst":2598,"mittel":2599,"ĠKranken":2600,"ittag":2601,"ong":2602,"ĠZukunft":2603,"Ġerinn":2604,"ĠTrÃ¤":2605,"heiten":2606,"ĠwÃ¼":2607,"ore":2608,"ersÃ¶n":2609,"fÃ¤":2610,"ĠBrief":2611,"ĠAugenblick":2612,"isk":2613,"ou":2614,"Ġgefr":2615,"reifen":2616,"lieb":2617,"leichen":2618,"Ġheim":2619,"ĠTre":2620,"ac":2621,"arf":2622,"urcht":2623,"inen":2624,"elefon":2625,"ĠKunst":2626,"yn":2627,"lex":2628,"Ã¤her":2629,"Ġch":2630,"Ob":2631,"ĠAber":2632,"Ġfreu":2633,"ĠhÃ¼b":2634,"ĠZw":2635,"gra":2636,"ĠtÃ¶ten":2637,"ĠNew":2638,"ite":2639,"ĠBen":2640,"Ġlernen":2641,"anc":2642,"zig":2643,"ĠGru":2644,"Ġkleines":2645,"onen":2646,"ystem":2647,"ĠÃĦr":2648,"endet":2649,"ĠPo":2650,"Ġziehen":2651,"ĠSchatz":2652,"irn":2653,"Ġnieder":2654,"ĠWorte":2655,"Ġsagst":2656,"echt":2657,"ĠGeschÃ¤ft":2658,"icherheit":2659,"nahme":2660,"meister":2661,"Ġguter":2662,"iser":2663,"Ġqu":2664,"ĠDon":2665,"ĠMacht":2666,"Ġwann":2667,"gung":2668,"ĠlÃ¤nger":2669,"Zwei":2670,"aschen":2671,"ĠvÃ¶llig":2672,"Ġse":2673,"Ġkamen":2674,"ial":2675,"ĠVerl":2676,"Ġtragen":2677,"ieÃŁ":2678,"ĠWohnung":2679,"lauben":2680,"itik":2681,"ĠHeim":2682,"alls":2683,"Ġlag":2684,"achts":2685,"Ġgefallen":2686,"ierten":2687,"ollar":2688,"Ġseines":2689,"ĠDa":2690,"ĠInter":2691,"Ġderen":2692,"indet":2693,"holen":2694,"auch":2695,"ĠSchrei":2696,"ÃŁlich":2697,"ĠSchm":2698,"Ġsowie":2699,"Ġgebracht":2700,"guck":2701,"rieb":2702,"ĠgrÃ¶ÃŁer":2703,"Ġnormal":2704,"ĠChe":2705,"nisse":2706,"Ġsprach":2707,"irr":2708,"Ġschreiben":2709,"Ġdeshalb":2710,"ons":2711,"ieÃŁen":2712,"Ġbetr":2713,"Ġversucht":2714,"Ã¤ngst":2715,"volle":2716,"ane":2717,"nete":2718,"schlag":2719,"weis":2720,"brochen":2721,"Ġunserem":2722,"bahn":2723,"Ġlaut":2724,"UN":2725,"ĠEis":2726,"unger":2727,"Ġspielt":2728,"ratet":2729,"ĠMenge":2730,"acken":2731,"Einen":2732,"ĠReise":2733,"ĠNot":2734,"atte":2735,"SCH":2736,"ĠBest":2737,"ĠDank":2738,"Mar":2739,"eller":2740,"treten":2741,"ĠRaum":2742,"icks":2743,"ĠFÃ¼":2744,"ĠhÃ¶rt":2745,"ĠgefÃ¤hr":2746,"urs":2747,"ĠSeele":2748,"Ġjedes":2749,"Dieses":2750,"Ġversuchen":2751,"ilde":2752,"Ã¶sen":2753,"Ab":2754,"Seine":2755,"ĠTon":2756,"ĠGesetz":2757,"Ġjunge":2758,"ĠBall":2759,"Ġkonnten":2760,"Ġhierher":2761,"ĠTier":2762,"Ġkaufen":2763,"ĠverrÃ¼ckt":2764,"hand":2765,"bung":2766,"Ġfolgen":2767,"schte":2768,"zte":2769,"Ġverste":2770,"zwei":2771,"Ġschau":2772,"ĠPferd":2773,"Ġnennen":2774,"ĠMillionen":2775,"dig":2776,"pen":2777,"Ġstellen":2778,"innt":2779,"Ġhinaus":2780,"Ġrede":2781,"olf":2782,"Ã¤tze":2783,"krie":2784,"Ġrief":2785,"ĠSam":2786,"alter":2787,"ĠSold":2788,"elbe":2789,"Ġacht":2790,"ĠOn":2791,"ĠHochzeit":2792,"gabe":2793,"tragen":2794,"ĠChance":2795,"Ge":2796,"ign":2797,"Ġhinten":2798,"ĠfÃ¤llt":2799,"Ġhalt":2800,"Ġjedem":2801,"gest":2802,"ĠgroÃŁer":2803,"ĠWissen":2804,"sy":2805,"geh":2806,"Ġirgendwie":2807,"Ġhervor":2808,"ĠSomm":2809,"Ġgehst":2810,"we":2811,"ĠGesell":2812,"sprechen":2813,"ĠGeheim":2814,"Ġ17":2815,"Ġstill":2816,"Ġgegangen":2817,"ĠSchne":2818,"Ġis":2819,"ĠGot":2820,"ĠkÃ¶nnt":2821,"ĠFÃ¼r":2822,"ehlt":2823,"Ġlaufen":2824,"eier":2825,"ĠhÃ¶rte":2826,"ĠWeise":2827,"unkel":2828,"Ġvern":2829,"annten":2830,"Tut":2831,"ĠAnfang":2832,"Ġheiraten":2833,"Ġeher":2834,"Ġgenommen":2835,").":2836,"ĠJungen":2837,"ĠBrÃ¼":2838,"ĠKirche":2839,"ĠNicht":2840,"Deshalb":2841,"ĠfÃ¤hrt":2842,"ĠRad":2843,"ork":2844,"schr":2845,"ĠgefÃ¤llt":2846,"ĠSchuld":2847,"ogel":2848,"ĠhÃ¤ttest":2849,"enk":2850,"ĠEurop":2851,"oder":2852,"Ġnett":2853,"zuf":2854,"affe":2855,"itel":2856,"inks":2857,"ĠLau":2858,"Ã¼ssel":2859,"ieten":2860,"ĠKu":2861,"Ġkrank":2862,"ĠFest":2863,"ringe":2864,"Ġunver":2865,"kam":2866,"ehler":2867,"piel":2868,"ĠProf":2869,"Ġgeschrieben":2870,"Ġzuerst":2871,"cker":2872,"loss":2873,"Ar":2874,"Ġ14":2875,"utzt":2876,"ĠStein":2877,"ON":2878,"ĠArsch":2879,"durch":2880,"Ã¶st":2881,"esch":2882,"Ġandern":2883,"ĠNummer":2884,"alle":2885,"schaften":2886,"ĠPat":2887,"ĠDollar":2888,"ling":2889,"Ġernst":2890,"nein":2891,"wend":2892,"Ġwollt":2893,"wig":2894,"Ġnennt":2895,"ĠForm":2896,"eichen":2897,"lieben":2898,"Sein":2899,"ried":2900,"opp":2901,"Ġschaffen":2902,"rech":2903,"stra":2904,"ĠScheiÃŁ":2905,"Unter":2906,"Ġalleine":2907,"ieht":2908,"uter":2909,"Ġwicht":2910,"ĠTelefon":2911,"ĠIst":2912,"Schon":2913,"Gib":2914,"Ġnochmal":2915,"Le":2916,"dy":2917,"Ġkennt":2918,"buch":2919,"Ġabs":2920,"lang":2921,"ĠJohn":2922,"mar":2923,"Ġwert":2924,"scheid":2925,"Ġverstehe":2926,"ĠIhrem":2927,"Ġgehabt":2928,"Ġbeste":2929,"ĠMad":2930,"ĠEinz":2931,"ĠMag":2932,"Ġ16":2933,"ĠSicherheit":2934,"ĠBÃ¼rger":2935,"Ġnimmt":2936,"ĠKaffe":2937,"itu":2938,"ĠSinn":2939,"ĠKan":2940,"rÃ¼cken":2941,"ĠHeil":2942,"ogra":2943,"ĠWein":2944,"Ġlebt":2945,"Ġwenigstens":2946,"zent":2947,"Wel":2948,"walt":2949,"ieben":2950,"ĠMet":2951,"Ġhielt":2952,"ĠDorf":2953,"Dort":2954,"ensch":2955,"ĠJack":2956,"ĠSelbst":2957,"hnung":2958,"EL":2959,"leisch":2960,"ĠSter":2961,"stein":2962,"Ã¤ndert":2963,"ĠArzt":2964,"ve":2965,"ktion":2966,"Kein":2967,"Ã¤ren":2968,"ĠMeister":2969,"ĠHa":2970,"Ġherr":2971,"ĠSorgen":2972,"Ġschlimm":2973,".\"":2974,"ct":2975,"ĠBel":2976,"Ġfalsch":2977,"kommt":2978,"Ġhand":2979,"ĠNa":2980,"Ġbrauchst":2981,"ĠGesellschaft":2982,"Ã¤nden":2983,"Al":2984,"ino":2985,"mme":2986,"tschaft":2987,"olut":2988,"ins":2989,"Ġir":2990,"ĠSzen":2991,"Ġtraur":2992,"Ġsollst":2993,"indung":2994,"\".":2995,"Jeder":2996,"Ġfahr":2997,"rÃ¼cke":2998,"ĠAuge":2999,"ator":3000,"ĠnÃ¤chste":3001,"grund":3002,"ĠTro":3003,"Ã¤ger":3004,"Ã¤tz":3005,"weisen":3006,"ause":3007,"Ġfunktion":3008,"ius":3009,"ĠZiel":3010,"iegen":3011,"Ġlust":3012,"ose":3013,"Ã¶rder":3014,"ieb":3015,"ĠSchlaf":3016,"Ã¼sse":3017,"ĠÃ¶ff":3018,"Ġsitzt":3019,"Ġretten":3020,"Ġtrotzdem":3021,"Ġstell":3022,"Ġkn":3023,"nern":3024,"ĠSee":3025,"ĠLeuten":3026,"hnt":3027,"ĠÃ¤hn":3028,"ĠfÃ¼hren":3029,"Ġfliegen":3030,"ĠAls":3031,"ĠUS":3032,"ĠTiere":3033,"Ġjungen":3034,"wann":3035,"Ġirgendwo":3036,"ule":3037,"ĠHin":3038,"ĠSchmer":3039,"Ġdanke":3040,"bare":3041,"ĠKaiser":3042,"geht":3043,"lage":3044,"ĠMus":3045,"ĠAhnung":3046,"ĠLust":3047,"ĠFranz":3048,"bald":3049,"Ġdirekt":3050,"opf":3051,"Ġzeig":3052,"zial":3053,"hier":3054,"jekt":3055,"FFFF":3056,"enz":3057,"ĠBerg":3058,"ĠIr":3059,"geg":3060,"arte":3061,"talien":3062,"Ġans":3063,"ĠGottes":3064,"Entschuld":3065,"Kannst":3066,"ausend":3067,"Ã¤ndig":3068,"Ġverlieren":3069,"Mr":3070,"Ã¤chlich":3071,"hundert":3072,"Ġdenkt":3073,"ĠwÃ¼rdest":3074,"ĠFor":3075,"hel":3076,"punkt":3077,"Ġwider":3078,"ĠSex":3079,"ĠKom":3080,"ĠnÃ¤her":3081,"ĠWahl":3082,"ĠTra":3083,"Ġverp":3084,"Ġreg":3085,"Ġerfahren":3086,"Ġnimm":3087,"edet":3088,"ffiz":3089,"ĠScheiÃŁe":3090,"ĠlÃ¤ch":3091,"Dr":3092,"ĠUni":3093,"mmern":3094,"ĠBeweg":3095,"ĠEhe":3096,"eilt":3097,"riv":3098,"wohn":3099,"ĠFreude":3100,"ament":3101,"Ġsieben":3102,"Ġsetzen":3103,"mo":3104,"ĠmuÃŁte":3105,"Erst":3106,"ĠSchwei":3107,"Ġdarin":3108,"),":3109,"Ġbegann":3110,"ĠMaj":3111,"Ġfragte":3112,"Ġreich":3113,"druck":3114,"ĠKleid":3115,"Ġhe":3116,"Ġfroh":3117,"Ġlesen":3118,"iesen":3119,"Ġglaub":3120,"Ġreicht":3121,"ool":3122,"Ġheut":3123,"ĠFinger":3124,"Ohne":3125,"par":3126,"ĠschÃ¶nen":3127,"ĠBank":3128,"ĠRegen":3129,"ĠSommer":3130,"Ã¼nd":3131,"wÃ¤rts":3132,"gekommen":3133,"antwort":3134,"dings":3135,"Ġerg":3136,"ĠNÃ¤he":3137,"haf":3138,"emand":3139,"ĠblÃ¶":3140,"frau":3141,"ĠMot":3142,"eiratet":3143,"ĠFrieden":3144,"Ġmeinst":3145,"ĠHoff":3146,"Ġbekannt":3147,"ĠSand":3148,"Ġat":3149,"Ġtotal":3150,"Ġ100":3151,"Niemand":3152,"Immer":3153,"Ã¼hm":3154,"abel":3155,"Ġwarte":3156,"Ã¤ume":3157,"eiter":3158,"Ġleider":3159,"ĠMond":3160,"ĠDoktor":3161,"ĠKamer":3162,"Ãĸ":3163,"ĠSk":3164,"ĠÃ¤l":3165,"ĠVertr":3166,"achtet":3167,"Ġpol":3168,"ĠgegenÃ¼ber":3169,"Schl":3170,"bau":3171,"stadt":3172,"Ġ50":3173,"ĠIs":3174,"Ġindem":3175,"Unsere":3176,"elig":3177,"ĠBrau":3178,"wegs":3179,"Ġschr":3180,"ICH":3181,"ĠFol":3182,"Ġhart":3183,"Ġverdamm":3184,"Ġhalb":3185,"fÃ¼":3186,"ĠGlas":3187,"Ġgemeinsam":3188,"Sonst":3189,"ĠHotel":3190,"ĠGarten":3191,"ĠJul":3192,"ĠProbleme":3193,"ĠBeh":3194,"eltsam":3195,"Ġpasst":3196,"baren":3197,"Ã¶tet":3198,"Ġwelcher":3199,"ziehung":3200,"ĠHolz":3201,"ĠNie":3202,"ĠOnkel":3203,"ĠWaffen":3204,"ĠSek":3205,"KÃ¶nnen":3206,"Ġguck":3207,"ĠLiebl":3208,"ĠDame":3209,"sw":3210,"ley":3211,"ĠKont":3212,"schieden":3213,"ĠPrÃ¤siden":3214,"Ġgesprochen":3215,"ĠParis":3216,"Ġsa":3217,"alte":3218,"Ġzeigt":3219,"ecke":3220,"ĠMax":3221,"Ġkaputt":3222,"ĠBund":3223,"AR":3224,"fin":3225,"Ġfiel":3226,"ara":3227,"ĠFehler":3228,"ĠWunder":3229,"sichtig":3230,"Irgend":3231,"Ġantw":3232,"yr":3233,"ĠZus":3234,"AuÃŁerdem":3235,"ischt":3236,"Ġfallen":3237,"ĠReich":3238,"igens":3239,"mÃ¤ÃŁ":3240,"stÃ¼ck":3241,"ĠKaffee":3242,"ĠLin":3243,"ĠFragen":3244,"NatÃ¼rlich":3245,"gestellt":3246,"ume":3247,"Ġschien":3248,"Ġdanach":3249,"Ġjedoch":3250,"stes":3251,"!\"":3252,"ĠRegierung":3253,"ĠFir":3254,"liegen":3255,"ĠEd":3256,"laubt":3257,"Ġweh":3258,"Ã¤ge":3259,"Ġvorstellen":3260,"oo":3261,"Wollen":3262,"Ġbring":3263,"Durch":3264,"ĠSonnen":3265,"ackt":3266,"Ġerinner":3267,"Ġdagegen":3268,"ĠBerlin":3269,"anze":3270,"Ġwolltest":3271,"Ġerhalten":3272,"alitÃ¤t":3273,"ĠBus":3274,"ĠFel":3275,"Ġrau":3276,"mut":3277,"ĠErd":3278,"Los":3279,"unsch":3280,"eien":3281,"elten":3282,"Wann":3283,"li":3284,"ĠKÃ¤":3285,"ĠKindern":3286,"orgt":3287,"Ġeur":3288,"afe":3289,"ftig":3290,"Ġth":3291,"Ġwor":3292,"ĠPer":3293,"ĠGu":3294,"ĠWerk":3295,"anis":3296,"ĠheiÃŁ":3297,"ĠTeam":3298,"Ġrechts":3299,"eits":3300,"ĠNe":3301,"stern":3302,"oph":3303,"eiben":3304,"ĠIm":3305,"ĠWieder":3306,"Ã¤hlt":3307,"ĠDi":3308,"Ġlasse":3309,"Ġaufzu":3310,"auso":3311,"folg":3312,"Ġsingen":3313,"ĠHinter":3314,"ĠJugend":3315,"Ġgeg":3316,"ĠSa":3317,"eige":3318,"Ġlinks":3319,"ĠkÃ¤mpfen":3320,"len":3321,"schÃ¶n":3322,"Nimm":3323,"pfel":3324,"ĠpersÃ¶n":3325,"Ch":3326,"uper":3327,"ES":3328,"reise":3329,"ĠBand":3330,"ĠGeschen":3331,"ĠMich":3332,"Ġblieb":3333,"ĠBro":3334,"Ġbauen":3335,"ĠDien":3336,"auern":3337,"Ġgrau":3338,"Ġheil":3339,"urn":3340,"denken":3341,"WÃ¼r":3342,"ĠnÃ¶t":3343,"pel":3344,"ohlen":3345,"Ġgeboren":3346,"Sieh":3347,"standen":3348,"eitung":3349,"Ġsolchen":3350,"rÃ¼ben":3351,"ĠRat":3352,"ĠErn":3353,"ĠEle":3354,"ilden":3355,"ĠBlumen":3356,"ĠMeinung":3357,"ĠLeid":3358,"la":3359,"Ã¤ul":3360,"ĠTal":3361,"ĠTor":3362,"ry":3363,"ĠFisch":3364,"Et":3365,"mÃ¶":3366,"Hab":3367,"Ġverdammt":3368,"ĠBesuch":3369,"Ġliebt":3370,"ĠDurch":3371,"ĠBahn":3372,"ĠErinner":3373,"Ġvoller":3374,"ĠRichtung":3375,"ĠWinter":3376,"Ġtau":3377,"Ã¶hnt":3378,"ĠDamen":3379,"up":3380,"Ġentfern":3381,"andelt":3382,"erne":3383,"ĠAuss":3384,"auspiel":3385,"ĠgetÃ¶tet":3386,"ĠAntwort":3387,"schlie":3388,"Ã¤ngnis":3389,"zentr":3390,"ĠMonate":3391,"ĠAk":3392,"Ġ11":3393,"ĠfÃ¼hrt":3394,"Ġinner":3395,"Ġgefragt":3396,"mÃ¶glich":3397,"Ġgewinnen":3398,"spielt":3399,"Ġgetroffen":3400,"Ã¤hrend":3401,"Manchmal":3402,"Ġneues":3403,"ĠPhil":3404,"Ã¶re":3405,"glie":3406,"wagen":3407,"Ġunbed":3408,"ĠGast":3409,"Ġkalt":3410,"get":3411,"Ġschreck":3412,"aschine":3413,"Ġwahrscheinlich":3414,"Sagen":3415,"auert":3416,"licht":3417,"Ã¼tzt":3418,"ĠLied":3419,"Ġkriegt":3420,"Ġel":3421,"emen":3422,"ĠNase":3423,"ĠArbei":3424,"ĠAng":3425,"inne":3426,"ĠBoot":3427,"Ġfehlt":3428,"Ġuner":3429,"ĠGericht":3430,"ĠerklÃ¤ren":3431,"ĠFamilien":3432,"iker":3433,"reche":3434,"AL":3435,"Ganz":3436,"ĠPal":3437,"tend":3438,"Ġperfe":3439,"Viele":3440,"les":3441,"ĠKlo":3442,"ffer":3443,"Wissen":3444,"ĠPferde":3445,"Ã¼ge":3446,"Ã¤che":3447,"ĠTem":3448,"Ġeigene":3449,"xt":3450,"ĠZauber":3451,"Ġei":3452,"ĠGeburtstag":3453,"ettet":3454,"zwischen":3455,"platz":3456,"ĠRa":3457,"SchÃ¶n":3458,"ĠStraÃŁen":3459,"ktr":3460,"ĠLa":3461,"viel":3462,"ĠHof":3463,"iegel":3464,"ĠMark":3465,"ĠGesprÃ¤":3466,"oh":3467,"ĠZeiten":3468,"Ġalter":3469,"ĠGemein":3470,"ĠWand":3471,"Ġihres":3472,"sych":3473,"ĠKrÃ¤":3474,"ĠgehÃ¶ren":3475,"Darf":3476,"gesetzt":3477,"by":3478,"ĠGren":3479,"Ġlachen":3480,"Ġ13":3481,"ĠPark":3482,"ĠGest":3483,"rik":3484,"ĠmÃ¼sste":3485,"hÃ¶r":3486,"ĠInsel":3487,"Ġ200":3488,"Ġgesp":3489,"how":3490,"deckt":3491,"ĠZeug":3492,"ieg":3493,"Ġschick":3494,"Kommt":3495,"ĠPaul":3496,"inkt":3497,"ise":3498,"ĠHal":3499,"blik":3500,"ĠYork":3501,"ĠRÃ¼cken":3502,"euz":3503,"deck":3504,"Ã¼tz":3505,"ĠVerd":3506,"wen":3507,"ĠEisen":3508,"ĠJe":3509,"aren":3510,"ĠVogel":3511,"Ġerwartet":3512,"samkeit":3513,"seh":3514,"ĠAnd":3515,"Ah":3516,"anne":3517,"estÃ¤t":3518,",\"":3519,"zept":3520,"Ġbestimm":3521,"afÃ¼r":3522,"ĠEntscheid":3523,"schlafen":3524,"Ġbekommt":3525,"ĠRolle":3526,"Ġbrachte":3527,"Ġstolz":3528,"indest":3529,"Ġdumm":3530,"estern":3531,"ĠHier":3532,"napp":3533,"Ġverstanden":3534,"Mama":3535,"Ã¼llt":3536,"lebt":3537,"dent":3538,"Ġfreund":3539,"Ġmerk":3540,"Ġdaher":3541,"ĠHals":3542,"ĠIdi":3543,"usch":3544,"igkeiten":3545,"ĠBilder":3546,"ĠdrÃ¼ben":3547,"orfen":3548,"ĠmÃ¶gen":3549,"ĠHar":3550,"ĠSchicks":3551,"ĠkÃ¼mmer":3552,"Gott":3553,"setzen":3554,"MÃ¶":3555,"Ã¼te":3556,"uchs":3557,"ĠWÃ¼r":3558,"Ġanger":3559,"Ġgelie":3560,"Ġseltsam":3561,"Ġerinnern":3562,"ĠÃ¤ndern":3563,"ven":3564,"jen":3565,"Ġverkaufen":3566,"macht":3567,"ĠGar":3568,"Ġklingt":3569,"ĠDach":3570,"ĠSeiten":3571,"Ġbitten":3572,"recher":3573,"ĠParty":3574,"wenn":3575,"Ã¤rm":3576,"Ġanderer":3577,"Viel":3578,"Ġbringe":3579,"chem":3580,"Ã¤umen":3581,"OR":3582,"ĠSzene":3583,"ĠSprache":3584,"ativ":3585,"ĠNachbar":3586,"Ġfurcht":3587,"Ġnachdem":3588,"Ġschuld":3589,"Nichts":3590,"tre":3591,"ilt":3592,"ffentlich":3593,"ĠBÃ¼ro":3594,"ĠGefahr":3595,"ĠfÃ¼hle":3596,"Ġselten":3597,"weit":3598,"ĠSil":3599,"arbeitet":3600,"ĠLÃ¶":3601,"Ġ25":3602,"Ġdenkst":3603,"Ġsagten":3604,"jÃ¤hr":3605,"Ġzweiten":3606,"leiche":3607,"Ġbeweg":3608,"Ġanzu":3609,"ĠTrau":3610,"ĠFreiheit":3611,"Ã¼nstler":3612,"ahnsinn":3613,"vater":3614,"Ġvert":3615,"ektor":3616,"ĠEier":3617,"Ġfrem":3618,"ĠDen":3619,"Ã¤user":3620,"igte":3621,"kann":3622,"ĠspÃ¼r":3623,"ĠMÃ¶glich":3624,"Ġtie":3625,"Blei":3626,"ĠMist":3627,"ehren":3628,"Ġehrlich":3629,"ĠApp":3630,"Ġgestorben":3631,"Ġentgegen":3632,"ĠSchluss":3633,"ĠDem":3634,"ĠFÃ¼hr":3635,"ĠSoldaten":3636,"ĠLage":3637,"ĠNord":3638,"Ġpf":3639,"Ġleise":3640,"ĠDro":3641,"ĠKor":3642,"ĠEigen":3643,"ĠMart":3644,"pu":3645,"Ġdarfst":3646,"ĠMel":3647,"ĠSchauspiel":3648,"ĠLaden":3649,"Ġfuhr":3650,"Ġglaubt":3651,"ĠMitte":3652,"ehrt":3653,"ĠMut":3654,"Ġgenauso":3655,"enne":3656,"Ġrie":3657,"Ġentwick":3658,"ĠTom":3659,"ĠhÃ¶ch":3660,"ĠgroÃŁes":3661,"ĠBill":3662,"ĠbÃ¶se":3663,"ĠWesen":3664,"Ġvorne":3665,"Ã¼gel":3666,"mittag":3667,"setz":3668,"Ġseien":3669,"AT":3670,"Ã¼ler":3671,"zeichnet":3672,"ĠZeichen":3673,"Ġeinst":3674,"ĠHaare":3675,"ĠFrankreich":3676,"merk":3677,"Ġerled":3678,"Ġentschuld":3679,"artig":3680,"ĠSchwar":3681,"Ã¼ster":3682,"ĠBur":3683,"ĠPreis":3684,"Ġbezahlen":3685,"Ġmeinte":3686,"ĠGeneral":3687,"zeitig":3688,"Ġnahe":3689,"rufen":3690,"espekt":3691,"ĠChef":3692,"Ġgucken":3693,"ged":3694,"ĠFig":3695,"ĠFeld":3696,"ĠBier":3697,"ĠMor":3698,"aub":3699,"Ġlangen":3700,"Ġwartet":3701,"Ġmel":3702,"unt":3703,"Re":3704,"ĠAnge":3705,"fft":3706,"ĠZust":3707,"DafÃ¼r":3708,"ĠEhre":3709,"Ġfehl":3710,"ĠÃ¤h":3711,"ehst":3712,"HÃ¤t":3713,"riffen":3714,"ĠZusammen":3715,"Selbst":3716,"aust":3717,"Ġfern":3718,"Ã¼m":3719,"haben":3720,"Ġinteressiert":3721,"ĠSen":3722,"Ok":3723,"essor":3724,"Ġrichtige":3725,"AU":3726,"ĠberÃ¼hm":3727,"Ġweder":3728,"bern":3729,"ĠSchlÃ¼ssel":3730,"tritt":3731,"ĠhÃ¶her":3732,"Ġkennst":3733,"Ġand":3734,"aufe":3735,"ĠÃ¼berr":3736,"ire":3737,"gefÃ¤hr":3738,"je":3739,"Ġverbr":3740,"hÃ¶":3741,"ultur":3742,"sto":3743,"Ġok":3744,"kon":3745,"elen":3746,"ole":3747,"ierst":3748,"ĠComp":3749,"logen":3750,"Ġlief":3751,"ĠGÃ¶t":3752,"Ġzog":3753,"Ã¤glich":3754,"Ġwelches":3755,"ĠHu":3756,"Ġversp":3757,"ĠSuper":3758,"ĠErw":3759,"ĠDar":3760,"Pro":3761,"zessin":3762,"ana":3763,"ĠFrem":3764,"ĠSorge":3765,"eide":3766,"ĠkÃ¶nntest":3767,"met":3768,"Tja":3769,"Ġlustig":3770,"Ġzieht":3771,"yl":3772,"Ġzweite":3773,"are":3774,"ĠsaÃŁ":3775,"abei":3776,"Geht":3777,"ieh":3778,"tert":3779,"ktiv":3780,"Ġverdient":3781,"ĠstÃ¤r":3782,"ĠHoffnung":3783,"ĠMonat":3784,"angt":3785,"ĠbeschÃ¤ft":3786,"ĠKÃ¶nigin":3787,"Ġverf":3788,"Ġwerdet":3789,"schluss":3790,"Ġebenso":3791,"ĠSan":3792,"Ġerreichen":3793,"mach":3794,"echsel":3795,"Ġgelernt":3796,"Ġentscheiden":3797,"Genau":3798,"ĠFleisch":3799,"ĠheiÃŁen":3800,"kn":3801,"rich":3802,"ĠstÃ¼r":3803,"Mich":3804,"ollt":3805,"ĠPass":3806,"ational":3807,"ĠDienst":3808,"ĠstÃ¤ndig":3809,"nahmen":3810,"Ġgewonnen":3811,"verstÃ¤nd":3812,"Ã¤usch":3813,"Ġlegen":3814,"ĠJung":3815,"ĠkÃ¼mmern":3816,"ĠGefÃ¤ngnis":3817,"wesen":3818,"arren":3819,"Ġtat":3820,"Ġgenannt":3821,"sh":3822,"Ġhilft":3823,"ĠHey":3824,"Ġjung":3825,"ĠStud":3826,"ice":3827,"ĠSÃ¼d":3828,"irk":3829,"ĠKal":3830,"eilung":3831,"ĠDav":3832,"Ġmensch":3833,"Ġnerv":3834,"ĠRev":3835,"aup":3836,"Ġkompl":3837,"Ġtraurig":3838,"ĠCap":3839,"Ġunbedingt":3840,"AS":3841,"ĠDann":3842,"Lei":3843,"Ġgeschafft":3844,"tag":3845,"ĠHÃ¤nden":3846,"ĠWal":3847,"Ġletzter":3848,"ĠhÃ¶re":3849,"Ġirgendwas":3850,"ĠTypen":3851,"Ã¤umt":3852,"ĠKapit":3853,"Ġbisher":3854,"ĠUnivers":3855,"ĠTante":3856,"ĠProdu":3857,"Ġums":3858,"ĠBÃ¼cher":3859,"Ġzahl":3860,"Ġeinzel":3861,"iten":3862,"ĠMonaten":3863,"Ġgeschickt":3864,"indern":3865,"Ã¼st":3866,"ĠSc":3867,"Darum":3868,".?":3869,"Ġ40":3870,"Morgen":3871,"ĠhÃ¼bsch":3872,"Ġbezahlt":3873,"ĠMÃ¼":3874,"hem":3875,"ĠrÃ¼ber":3876,"Schau":3877,"lock":3878,"nicht":3879,"ĠwuÃŁ":3880,"arbeit":3881,"akter":3882,"ĠAlles":3883,"ĠgehÃ¶r":3884,"Ġabzu":3885,"lauf":3886,".)":3887,"ias":3888,"ĠKlein":3889,"ĠStimmen":3890,"Ġsuper":3891,"Ber":3892,"Ġstarb":3893,"ostet":3894,"Sol":3895,"ĠPost":3896,"ĠÃ¼berzeu":3897,"ĠKrank":3898,"Ã¶sung":3899,"Ġverz":3900,"ĠErfahr":3901,"atsÃ¤chlich":3902,"ĠÃ¼bern":3903,"pa":3904,"ĠKrankenhaus":3905,"iter":3906,"Ġfunktioniert":3907,"ĠTru":3908,"ĠEuropa":3909,"Gehen":3910,"ĠStand":3911,"ĠErfolg":3912,"ĠfÃ¼hlen":3913,"ĠSer":3914,"ĠTer":3915,"reg":3916,"ĠmÃ¼sst":3917,"Ġdank":3918,"ĠSport":3919,"ĠgefÃ¤hrlich":3920,"Ã¤ude":3921,"Ġarbeite":3922,"Ġarbeitet":3923,"schau":3924,"ĠKÃ¶":3925,"ĠTheater":3926,"entr":3927,"ĠFlugzeug":3928,"ĠOl":3929,"Ã¶hnen":3930,"ĠBas":3931,"ĠBeste":3932,"ĠFluss":3933,"igten":3934,"ennst":3935,"ĠRiesen":3936,"ĠProzent":3937,"Hol":3938,"ĠÃ¤lter":3939,"Ġnen":3940,"ĠTat":3941,"arry":3942,"ĠGut":3943,"Ġbesteht":3944,"gegangen":3945,"ĠMÃ¤r":3946,"Ġmiteinander":3947,"ĠArmee":3948,"ĠOb":3949,"ĠOpfer":3950,"feld":3951,"ĠGÃ¤":3952,"ĠFin":3953,"assung":3954,"mutter":3955,"etr":3956,"Ġschneller":3957,"ĠVerein":3958,"ĠBewegung":3959,"por":3960,"ĠFarbe":3961,"nungen":3962,"Ġbeob":3963,"Ġdick":3964,"gesehen":3965,"Ã¤chst":3966,"Lassen":3967,"ĠBrust":3968,"ĠOma":3969,"stelle":3970,"UNG":3971,"Ġhattest":3972,"Fl":3973,"Ġsowieso":3974,"WÃ¤hrend":3975,"Ġschicken":3976,"brechen":3977,"ĠFort":3978,"Ġgutes":3979,"Ġteil":3980,"rakt":3981,"Ã¼hren":3982,"blich":3983,"eucht":3984,"ĠPeter":3985,"Dabei":3986,"Ġbehalten":3987,"Ġweitere":3988,"ĠGewalt":3989,"Ġtanzen":3990,"erikan":3991,"ĠMilch":3992,"ĠBundes":3993,"Ġtust":3994,"ĠVaters":3995,"reichen":3996,"anzÃ¶s":3997,"anen":3998,"ĠKil":3999,"eue":4000,"ĠDruck":4001,"Ġrufen":4002,"ntag":4003,"Ġgebrau":4004,"gern":4005,"ĠEure":4006,"ĠHaut":4007,"Pl":4008,"Gibt":4009,"ilf":4010,"Ġneun":4011,"Ġerfol":4012,"ĠMeter":4013,"Ġwohnen":4014,"ndon":4015,"Ġweiss":4016,"Ã¼tze":4017,"Ġsetzt":4018,"Ġverliebt":4019,"holt":4020,"iete":4021,"Ġgeschehen":4022,"ĠGo":4023,"agd":4024,"Ġhalte":4025,"hstÃ¼ck":4026,"Sehen":4027,"anch":4028,"ĠmÃ¼de":4029,"eifen":4030,"fÃ¼hrer":4031,"Ġewig":4032,"Ġanfangen":4033,"ull":4034,"Ġtue":4035,"Ġgebaut":4036,"kung":4037,"Ġfrage":4038,"Pap":4039,"schrift":4040,"ĠLehrer":4041,"ĠSchicksal":4042,"mel":4043,"onn":4044,"ĠgrÃ¶ÃŁte":4045,"osten":4046,"ĠStaat":4047,"Ġeuer":4048,"Ġfei":4049,"Ġgingen":4050,"ĠSitu":4051,"ĠfÃ¼rchte":4052,"ĠMajestÃ¤t":4053,"Ġunterwegs":4054,"ĠKÃ¼che":4055,"gramm":4056,"anger":4057,"Ġerkennen":4058,"ĠFoto":4059,"Sei":4060,"ĠMik":4061,"tliche":4062,"Ġbekam":4063,"Ġgep":4064,"ĠprÃ¤":4065,"erkt":4066,"Ã¼gt":4067,"eitet":4068,"ĠWeile":4069,"He":4070,"otte":4071,"ĠGegend":4072,"ĠFrÃ¤ul":4073,"ĠHÃ¶lle":4074,"ruf":4075,"ĠEngland":4076,"welt":4077,"....":4078,"Ã¶lker":4079,"eth":4080,"Ġpassieren":4081,"TE":4082,"ĠEner":4083,"rink":4084,"ĠBrot":4085,"ĠSim":4086,"ĠItalien":4087,"Ã¤tzen":4088,"ĠKarte":4089,"ĠFrÃ¤ulein":4090,"fahrt":4091,"oss":4092,"Ġbeginnt":4093,"ĠEuro":4094,"itÃ¤r":4095,"ĠFein":4096,"ugen":4097,"ĠKur":4098,"Ġkur":4099,"losen":4100,"Ġbedeuten":4101,"Ġpolit":4102,"Ġschlagen":4103,"ĠPolitik":4104,"ĠHÃ¶he":4105,"Ã¤lfte":4106,"avier":4107,"Ã¤ne":4108,"wel":4109,"stÃ¤ndig":4110,"Ġdadurch":4111,"izin":4112,"ÃŁte":4113,"beh":4114,"altet":4115,"ĠDich":4116,"vin":4117,"ÃĦh":4118,"Ġgilt":4119,"ĠKontr":4120,"Ġmussten":4121,"ĠUN":4122,"Ġglaubst":4123,"Ġgehol":4124,"ĠStrom":4125,"ĠGrÃ¶":4126,"ĠBeziehung":4127,"ĠInform":4128,"ĠAmerika":4129,"ĠCol":4130,"ĠBeine":4131,"ĠLad":4132,"ĠschlieÃŁlich":4133,"ĠMÃ¼ll":4134,"ĠBew":4135,"ĠheiÃŁe":4136,"osen":4137,"ĠfÃ¼hlte":4138,"ĠGelegen":4139,"Ġgekauft":4140,"ĠBeruf":4141,"ndlich":4142,"ile":4143,"ĠAch":4144,"Ġverkauft":4145,"our":4146,"rt":4147,"ĠHunde":4148,"Ġschlechte":4149,"wohner":4150,"Ġnachher":4151,"ĠFer":4152,"Ġrot":4153,"ĠSchlag":4154,"recken":4155,"ĠPrinzessin":4156,"nach":4157,"ĠOrg":4158,"ĠDam":4159,"Ġgib":4160,"lose":4161,"ĠRuss":4162,"unn":4163,"IT":4164,"ĠRede":4165,"ĠAp":4166,"Ġverfol":4167,"kten":4168,"Ġentfernt":4169,"lein":4170,"zul":4171,"Ġauszu":4172,"ĠWarum":4173,"ilm":4174,"ĠwÃ¤rst":4175,"wiesen":4176,"ĠSpe":4177,"Dem":4178,"ĠLandes":4179,"Ġ0":4180,"Ġzuf":4181,"Zur":4182,"ity":4183,"Ġlacht":4184,"Vers":4185,"Ġdasselbe":4186,"aster":4187,"ĠnÃ¶tig":4188,"ocken":4189,"fangen":4190,"Ġsetz":4191,"ĠSchutz":4192,"ĠtrÃ¤gt":4193,"Lasst":4194,"Ġwem":4195,"Ġkriegst":4196,"ĠSchritt":4197,"ĠRÃ¶":4198,"wÃ¼rd":4199,"?\"":4200,"Ġgespielt":4201,"amt":4202,"ee":4203,"ĠWider":4204,"ĠMat":4205,"Ġbeglei":4206,"Ġ201":4207,"ĠerwÃ¤":4208,"ĠWeihnachten":4209,"ĠWol":4210,"ĠFeind":4211,"itsch":4212,"rÃ¼n":4213,"ĠmÃ¤cht":4214,"Ġabgesch":4215,"ĠWaffe":4216,"ĠSchrift":4217,"Etwas":4218,"ĠEmpf":4219,"ĠLeiden":4220,"glÃ¼ck":4221,"Ġgelesen":4222,"Ġlhr":4223,"bs":4224,"Ġeinigen":4225,"Ġries":4226,"amat":4227,"wasser":4228,"Ġsucht":4229,"ĠWert":4230,"Ġbegeg":4231,"Ġhole":4232,"Ġeinander":4233,"Ġgr":4234,"Ã¤chter":4235,"gemacht":4236,"Ã¶gel":4237,"ĠHallo":4238,"ĠRob":4239,"Kommen":4240,"ĠLondon":4241,"Ġdeutschen":4242,"spann":4243,"ĠunmÃ¶glich":4244,"Ġherein":4245,"rotz":4246,"geld":4247,"bruch":4248,"ĠAlex":4249,"iko":4250,"ĠWien":4251,"weder":4252,"Ã¤ten":4253,"Ġwohin":4254,"bten":4255,"blei":4256,"ĠFa":4257,"Ġwieso":4258,"Ġgegessen":4259,"fÃ¼hren":4260,"Ġstet":4261,"ĠHen":4262,"Ġbesuchen":4263,"ĠGeschenk":4264,"andeln":4265,"ĠVier":4266,",,":4267,"tlichen":4268,"laubst":4269,"Ġschen":4270,"ĠPunkt":4271,"ima":4272,"ĠStaats":4273,"ema":4274,"ĠJetzt":4275,"Ġschme":4276,"ikt":4277,"Ġstir":4278,"Sehr":4279,"yt":4280,"Ġnet":4281,"ĠÃľ":4282,"Ġleiden":4283,"ĠWunsch":4284,"ampe":4285,"echn":4286,"hast":4287,"ĠschÃ¶ner":4288,"Ġfrag":4289,"Ġseh":4290,"Ġwunderbar":4291,"Ġschreit":4292,"ĠEind":4293,"ĠWissenschaft":4294,"ĠTanz":4295,"Ġanst":4296,"Ġgesund":4297,"Verd":4298,"zur":4299,"passen":4300,"lungen":4301,"laden":4302,"II":4303,"sent":4304,"eum":4305,"ami":4306,"ĠHei":4307,"ĠHÃ¤lfte":4308,"ĠgewÃ¶hn":4309,"Ġsahen":4310,"ora":4311,"20":4312,"Habt":4313,"olden":4314,"brau":4315,"Einer":4316,"ĠWetter":4317,"rab":4318,"schm":4319,"ohnt":4320,"ĠKlei":4321,"Ġmehrere":4322,"ĠrÃ¼ck":4323,"ĠwunderschÃ¶n":4324,"Ġwelchem":4325,"iffe":4326,"Ġschwarz":4327,"Jemand":4328,"sterreich":4329,"Ġganzes":4330,"geladen":4331,"ĠRock":4332,"ene":4333,"ĠkÃ¶nne":4334,"schreiben":4335,"ĠZÃ¤":4336,"ĠOhren":4337,"ĠAufgabe":4338,"ĠVoll":4339,"ĠSpan":4340,"ael":4341,"ĠfÃ¼rs":4342,"Ger":4343,"Ġtrat":4344,"ĠKreuz":4345,"hÃ¤ng":4346,"tau":4347,"Ġdur":4348,"ansp":4349,"ĠKoll":4350,"ĠEine":4351,"ACH":4352,"Ġverletzt":4353,"ĠBesitz":4354,"ines":4355,"Ġstud":4356,"Ã¼tte":4357,"ichter":4358,"Ġerl":4359,"sf":4360,"ĠSchÃ¼ler":4361,"abrik":4362,"ĠSchmerz":4363,"ĠMitt":4364,"ĠEntscheidung":4365,"Hallo":4366,"finden":4367,"unkte":4368,"ĠStell":4369,"ĠTasche":4370,"ĠLachen":4371,"Ġtu":4372,"tra":4373,"ochte":4374,"Ġverschiedene":4375,"ĠUntern":4376,"Ã¤sst":4377,"ĠPaar":4378,"ĠBad":4379,"ĠHÃ¶r":4380,"Ġbehaup":4381,"TER":4382,"Ġversprochen":4383,"ĠFirma":4384,"ĠMÃ¶":4385,"sucht":4386,"euf":4387,"Ġsteckt":4388,"Ġunglaub":4389,"ĠÃĦrger":4390,"othe":4391,"aler":4392,"ĠEv":4393,"Ġgehalten":4394,"Ġangerufen":4395,"ĠwuÃŁte":4396,"ĠHut":4397,"aÃŁt":4398,"ĠcH":4399,"ĠGelegenheit":4400,"Ġobwohl":4401,"Ġstellt":4402,"richten":4403,"Ġsuche":4404,"sl":4405,"ĠfranzÃ¶s":4406,"ĠGesprÃ¤ch":4407,"Ġerreicht":4408,"ĠSchatten":4409,"ĠReihe":4410,"ĠX":4411,"ĠBitte":4412,"Ġsauber":4413,"ument":4414,"ĠBauern":4415,"ikaner":4416,"gelassen":4417,"gezogen":4418,"wind":4419,"ĠBauch":4420,"ĠSchnee":4421,"ucken":4422,"Leo":4423,"ifft":4424,"ĠHunger":4425,"Ġschwierig":4426,"sein":4427,"erz":4428,"ĠSchwein":4429,"ĠComputer":4430,"ĠverÃ¤ndert":4431,"Ġdauer":4432,"ĠEntschuld":4433,"ĠPapier":4434,"Bes":4435,"Ġgleichen":4436,"Ġnot":4437,"zeigt":4438,"Beim":4439,"Ġengl":4440,"Ã¤uschen":4441,"ĠHeimat":4442,"ĠShow":4443,"ĠWeib":4444,"Ġzahlen":4445,"manden":4446,"umpel":4447,"ĠEnergie":4448,"ĠBein":4449,"ĠOhr":4450,"hat":4451,"ĠSchuhe":4452,"Ġvorn":4453,"jahr":4454,"Ġmeint":4455,"ĠProfessor":4456,"sb":4457,"ĠSau":4458,"ĠPriv":4459,"ĠMÃ¼n":4460,"mord":4461,"Ġaussehen":4462,"Woher":4463,"Ã¤ufig":4464,"Ġallgem":4465,"Ġberuh":4466,"Gro":4467,"ĠWohl":4468,"osition":4469,"ĠhieÃŁ":4470,"uk":4471,"Ġunterst":4472,"ĠJahrhundert":4473,"ĠSituation":4474,"ĠTee":4475,"ucker":4476,"anst":4477,"ĠLager":4478,"ĠGruppe":4479,"ĠWege":4480,"ĠLiebes":4481,"Ã¶h":4482,"such":4483,"gert":4484,"ĠfÃ¼hlt":4485,"Macht":4486,"Wegen":4487,"ĠVerhÃ¤lt":4488,"ĠhÃ¤ngen":4489,"Ġverab":4490,"Ġgerettet":4491,"fst":4492,"ĠgrÃ¶ÃŁten":4493,"Ġverheiratet":4494,"uth":4495,"ĠPil":4496,"Ġwarm":4497,"Ġschauen":4498,"ildet":4499,"Ander":4500,"Ġdaraus":4501,"ĠÃ¼brig":4502,"ĠStock":4503,"ĠKlasse":4504,"ĠlÃ¤ngst":4505,"Ã¶pf":4506,"dest":4507,"aun":4508,"Ġechte":4509,"Ġcool":4510,"ĠKer":4511,"ĠWeihnachts":4512,"Ġzufrieden":4513,"EIN":4514,"zieh":4515,"ĠSchÃ¶nheit":4516,"ĠUSA":4517,"ĠMotor":4518,"Ġjemals":4519,"Ġdauert":4520,"50":4521,"ez":4522,"atsch":4523,"ĠRot":4524,"ĠwÃ¼nschte":4525,"Ġstets":4526,"Ã¼lt":4527,"ĠHandy":4528,"gaben":4529,"iste":4530,"Ġerwarten":4531,"Ã¤ck":4532,"ĠBrÃ¼der":4533,"ibst":4534,"ĠHam":4535,"Ġthe":4536,"Bin":4537,"reisen":4538,"ĠSonntag":4539,"Ġwach":4540,"Ġallerdings":4541,"Ã¼ch":4542,"ĠaufhÃ¶ren":4543,"Ġdeutlich":4544,"ĠIntern":4545,"ĠPrÃ¤sident":4546,"Ġsetzte":4547,"Ġrichtigen":4548,"Guten":4549,"ĠBescheid":4550,"Ġeinzu":4551,"Ġkannte":4552,"ĠSchloss":4553,"werfen":4554,"olution":4555,"Ġdunkel":4556,"Ġtrug":4557,"ĠRing":4558,"Ġfalls":4559,"ĠKatze":4560,"ĠGang":4561,"ĠZuf":4562,"ĠMitglie":4563,"zin":4564,"Ġgeblieben":4565,"ĠBi":4566,"Ġpassen":4567,"iebt":4568,"ĠLiebling":4569,"Ġleer":4570,"Schw":4571,"ĠSchwert":4572,"ĠTest":4573,"Ġsingt":4574,"iment":4575,"Ġversuche":4576,"tain":4577,"Ġmitten":4578,"uckt":4579,"glichen":4580,"Ġof":4581,"Ġamerikan":4582,"ĠZahl":4583,"Ġunseres":4584,"ĠJahres":4585,"Ġjener":4586,"fÃ¤llig":4587,"eutung":4588,"Ġrund":4589,"ĠEcke":4590,"Ġschlimmer":4591,"ĠBot":4592,"ppel":4593,"ĠVide":4594,"Ġniemanden":4595,"ĠhÃ¤ngt":4596,"zeichen":4597,"ĠStÃ¤d":4598,"Jeden":4599,"lagen":4600,"ehle":4601,"aupt":4602,"ĠKÃ¼nstler":4603,"Dad":4604,"ĠWild":4605,"Eines":4606,"ĠÃ¤hnlich":4607,"ĠGebÃ¤ude":4608,"neten":4609,"ologie":4610,"Ã¼ste":4611,"Ġantworte":4612,"Ġderselben":4613,"Manche":4614,"Ġneuer":4615,"UR":4616,"ca":4617,"irt":4618,"Eigen":4619,"19":4620,"Ġfangen":4621,"sichtlich":4622,"Ġwohnt":4623,"Ġschrieb":4624,"ĠAlso":4625,"ĠKre":4626,"ĠFÃ¤":4627,"for":4628,"ĠTodes":4629,"ĠSekunden":4630,"US":4631,"Ġsorgen":4632,"ĠtatsÃ¤chlich":4633,"Bl":4634,"Ġgefahren":4635,"Ġlauter":4636,"fter":4637,"ĠKleine":4638,"Ã¤tzchen":4639,"ĠTerr":4640,"Ġeinsam":4641,"Ġfahre":4642,"sieur":4643,"Ġruft":4644,"Ġsieh":4645,"Ġstanden":4646,"rid":4647,"Ġanrufen":4648,"Ġmeist":4649,"ĠfÃ¼hrte":4650,"Wen":4651,"ĠLoch":4652,"ymp":4653,"ĠBrÃ¼cke":4654,"arl":4655,"dete":4656,"reiten":4657,"Ġ24":4658,"ĠMÃ¤nnern":4659,"Ã¼hen":4660,"Ġdrehen":4661,"Ġkomisch":4662,"ĠDrei":4663,"Ġdeines":4664,"ses":4665,"zz":4666,"Ġvorsichtig":4667,"ĠmÃ¶chten":4668,"ĠsÃ¼ÃŁ":4669,"Papa":4670,"schnitt":4671,".,":4672,"ĠKlavier":4673,"Ġerz":4674,"amer":4675,"ĠKol":4676,"iziert":4677,"Ġebenfalls":4678,"ĠjÃ¼n":4679,"ĠVerbindung":4680,"Ġgra":4681,"illen":4682,"band":4683,"Ġvollkommen":4684,"ĠJan":4685,"Halt":4686,"Glaubst":4687,"steht":4688,"Ġwand":4689,"Ġverschwinden":4690,"zun":4691,"ĠÃ¼berw":4692,"klav":4693,"ĠGÃ¤ste":4694,"ita":4695,"Ġirgendwann":4696,"ĠZuh":4697,"uchst":4698,"Ġverschiedenen":4699,"antw":4700,"ĠBord":4701,"ĠungefÃ¤hr":4702,"ĠMannes":4703,"ĠÃ¼brigens":4704,"Ġstren":4705,"erweise":4706,"gefÃ¼hrt":4707,"heil":4708,"Ġur":4709,"wehr":4710,"ĠNieder":4711,"Ġtraf":4712,"ĠTour":4713,"far":4714,"ums":4715,"Ġfin":4716,"ĠArmen":4717,"Ġsolange":4718,"ruh":4719,"ĠKarten":4720,"Ġbewegen":4721,"ĠVergn":4722,"anzig":4723,"han":4724,"Ġtolle":4725,"ese":4726,"ĠAug":4727,"ĠWest":4728,"hi":4729,"eisen":4730,"ĠRau":4731,"ĠSCH":4732,"Ġleich":4733,"ĠHex":4734,"uchten":4735,"hafte":4736,"Ġgeschlossen":4737,"Ġbeginnen":4738,"Ġzuvor":4739,"ĠBraut":4740,"ĠJes":4741,"Ã¤hrst":4742,"ĠRegeln":4743,"urst":4744,"ĠBefehl":4745,"Ġhinzu":4746,"ĠMc":4747,"noch":4748,"ĠArschl":4749,"Ġversteht":4750,"Ġhohen":4751,"kopf":4752,"Mehr":4753,"ĠSchwanz":4754,"Ġerinnere":4755,"ĠbegrÃ¼":4756,"zehn":4757,"Ġak":4758,"Drei":4759,"ĠGuten":4760,"euert":4761,"ĠVergangen":4762,"ĠLippen":4763,"ĠschÃ¶nes":4764,"ison":4765,"Ġfindest":4766,"Ġherab":4767,"ĠGefÃ¼hle":4768,"ĠBom":4769,"urf":4770,"mack":4771,"Ġgearbeitet":4772,"Ġgewar":4773,"deut":4774,"Ġhinauf":4775,"kauf":4776,"rom":4777,"fÃ¼hrung":4778,"arbeiten":4779,"umpf":4780,"iner":4781,"ĠGlauben":4782,"stimm":4783,"Ġober":4784,"irgend":4785,"GE":4786,"Machen":4787,"Siehst":4788,"Ġversteckt":4789,"sache":4790,"oÃŁ":4791,"prÃ¼":4792,"ober":4793,"hang":4794,"Ġerster":4795,"ĠMrs":4796,"ĠThema":4797,"aschinen":4798,"Ġprob":4799,"gewÃ¶hn":4800,"Ġwerd":4801,"ĠEuer":4802,"ĠZeitung":4803,"anzt":4804,"ĠLos":4805,"Ġverschwunden":4806,"ĠIdiot":4807,"Ġfurchtbar":4808,"ĠHalt":4809,"iller":4810,"ĠHÃ¤user":4811,"mehr":4812,"sell":4813,"ĠDreck":4814,"LL":4815,"Ã¼ten":4816,"ĠStern":4817,"ĠTri":4818,"Ã¤tter":4819,"ĠMÃ¤d":4820,"Falls":4821,"rig":4822,"rasch":4823,"Warte":4824,"ĠSturm":4825,"hÃ¶rt":4826,"Ġhasse":4827,"Ġbefr":4828,"ars":4829,"ĠTechn":4830,"iene":4831,"ĠUrlaub":4832,"ĠWh":4833,"ehrte":4834,"ĠGeheimnis":4835,"haltung":4836,"Ġbrauch":4837,"wart":4838,"locken":4839,"Ġbenutzt":4840,"ienten":4841,"ĠNachrichten":4842,"nchen":4843,"Ġgeliebt":4844,"Ġlebe":4845,"ĠPartner":4846,"ĠFotos":4847,"ĠEhren":4848,"reiben":4849,"HÃ¶ren":4850,"arbeiter":4851,"Ġleisten":4852,"Ġgewalt":4853,"ĠBob":4854,"folge":4855,"oben":4856,"ĠzerstÃ¶rt":4857,"ĠMord":4858,"Dir":4859,"ĠerzÃ¤hlte":4860,"Ġabend":4861,"pfl":4862,"Trotz":4863,"egt":4864,"Ġ21":4865,"ĠToten":4866,"ĠweiÃŁen":4867,"Ġansehen":4868,"eils":4869,"ĠWolf":4870,"ĠSystem":4871,"dlich":4872,"Ġroten":4873,"Ã¼nft":4874,"ĠDanke":4875,"inke":4876,"ĠNerv":4877,"ĠFle":4878,"helm":4879,"Ġang":4880,"ickte":4881,"ĠBal":4882,"ocht":4883,"ĠKna":4884,"ames":4885,"FrÃ¼":4886,"ĠÃ¤r":4887,"illa":4888,"ĠEngel":4889,"ĠArbeiter":4890,"ĠJun":4891,"flug":4892,"ĠFÃ¼ÃŁe":4893,"Ġentschieden":4894,"Ġmachten":4895,"ĠMesser":4896,"Ġstehe":4897,"gal":4898,"gelegt":4899,"Ã¶d":4900,"isiert":4901,"bildung":4902,"ĠKri":4903,"ĠKomp":4904,"Ã¼h":4905,"ĠFreunden":4906,"ĠLieb":4907,"Ġfeiern":4908,"ĠMÃ¶glichkeit":4909,"ĠStreit":4910,"ĠWel":4911,"Ġvorber":4912,"enny":4913,"atter":4914,"endung":4915,"Eigentlich":4916,"laut":4917,"Ġwes":4918,"Ġdeswegen":4919,"Ã¼llen":4920,"euen":4921,"Ġaussieht":4922,"lecht":4923,"Ġgeist":4924,"Ġhundert":4925,"appt":4926,"Gleich":4927,"Ġschreibt":4928,"ĠSar":4929,"apan":4930,"Sieht":4931,"ianer":4932,"ĠVergangenheit":4933,"ĠOper":4934,"Ġverdienen":4935,"zum":4936,"Ġgefangen":4937,"ammlung":4938,"ĠDeck":4939,"Ġeng":4940,"eber":4941,"gewirr":4942,"DE":4943,"ĠRh":4944,"dam":4945,"Ġrauf":4946,"Ġsan":4947,"ĠerklÃ¤rt":4948,"ĠUnfall":4949,"RE":4950,"ĠKriegs":4951,"ĠKamera":4952,"ĠKart":4953,"ĠErnst":4954,"steigen":4955,"ĠEntwick":4956,"Dazu":4957,"ĠKrankheit":4958,"ĠpersÃ¶nlich":4959,"ĠKreis":4960,"Ġwelchen":4961,"Mom":4962,"stÃ¤nde":4963,"Ġfreuen":4964,"wÃ¼rdig":4965,"Ġblauen":4966,"Ġhell":4967,"ĠMeine":4968,"ena":4969,"okrat":4970,"frei":4971,"schauen":4972,"Ã¶m":4973,"tens":4974,"Ġgesam":4975,"Ġjemandem":4976,"ĠMaria":4977,"olly":4978,"Einige":4979,"Verzei":4980,"kehren":4981,"ĠKumpel":4982,"ĠWil":4983,"yd":4984,"Ã¤nner":4985,"edes":4986,"mÃ¤ÃŁig":4987,"Ã¼tter":4988,"Ġredet":4989,"hoben":4990,"setzt":4991,"Ġlangweil":4992,"ĠInteresse":4993,"Ġverstehst":4994,"ordentlich":4995,"Ġgestohlen":4996,"ĠErfahrung":4997,"ĠKontakt":4998,"ĠAuftrag":4999,"ĠSong":5000,"pol":5001,"ĠkrÃ¤":5002,"besch":5003,"ĠUnglÃ¼ck":5004,"onie":5005,"ĠPort":5006,"ĠVern":5007,"antas":5008,"ĠPrinz":5009,"teten":5010,"ĠPflanzen":5011,"ĠMas":5012,"Ġunge":5013,"Ġfragt":5014,"denn":5015,"Ġausger":5016,"prechen":5017,"ehnt":5018,"Ã¼chtig":5019,"Ġgezeigt":5020,"Ġnah":5021,"ollege":5022,"Ġreichen":5023,"ubel":5024,"Ġgelassen":5025,"ĠDonner":5026,"andt":5027,"errt":5028,"kret":5029,"gten":5030,"ĠGleich":5031,"gru":5032,"rÃ¼ckte":5033,"ĠHor":5034,"Wird":5035,"ĠbeschÃ¤ftigt":5036,"zunehmen":5037,"ietet":5038,"ĠDreh":5039,"dienst":5040,"wn":5041,"ĠErinnerung":5042,"Ġbenutzen":5043,"vo":5044,"Ġkriege":5045,"ĠRos":5046,"Ġarme":5047,"ĠVÃ¶gel":5048,"kraft":5049,"klÃ¤rung":5050,"hann":5051,"ckte":5052,"Ġschlug":5053,"nÃ¤chst":5054,"ĠTau":5055,"gebung":5056,"ĠwÃ¼tend":5057,"ini":5058,"ĠGeschichten":5059,"freund":5060,"ham":5061,"Ġstecken":5062,"ehmt":5063,"ĠSchlacht":5064,"ielten":5065,"Pass":5066,"Mal":5067,"Ġfanden":5068,"Ã¶ffnet":5069,"ĠBedeutung":5070,"Ġkeinem":5071,"ĠGute":5072,"ĠHem":5073,"ĠEt":5074,"ĠFrÃ¼hstÃ¼ck":5075,"seite":5076,"Ġdicht":5077,"ĠThr":5078,"otten":5079,"ssten":5080,"omas":5081,"erei":5082,"Ã¶lf":5083,"ĠAnder":5084,"ĠDan":5085,"Ġentf":5086,"ĠArbeits":5087,"aurant":5088,"Ġlegte":5089,"eiÃŁen":5090,"Ġschwei":5091,"iam":5092,"ĠVerkehr":5093,"Ġisst":5094,"Ã¼hlt":5095,"ĠTa":5096,"Ġrufe":5097,"Ġschwarzen":5098,"Nehmen":5099,"Ġwerfen":5100,"Bring":5101,"Ġaufger":5102,"ĠZig":5103,"ĠZahn":5104,"bauen":5105,"ĠVertrauen":5106,"fert":5107,"ĠKuh":5108,"iven":5109,"ĠMarkt":5110,"Ġnix":5111,"ona":5112,"ĠSieg":5113,"Ġtausend":5114,"riften":5115,"Ġstellte":5116,"Ġumbringen":5117,"ĠKleider":5118,"ĠKuchen":5119,"ĠAutos":5120,"ĠVersuch":5121,"18":5122,"Ã¤hlen":5123,"ĠMode":5124,"ox":5125,"annen":5126,"ĠSchritte":5127,"ndet":5128,"ikel":5129,"ĠPublik":5130,"ĠStuhl":5131,"ĠFernsehen":5132,"Welche":5133,"ĠlÃ¤ÃŁt":5134,"ĠRes":5135,"Ġgestellt":5136,"Ġperfekt":5137,"ĠGrie":5138,"arre":5139,"ĠstÃ¤rker":5140,"ĠBÃ¼hne":5141,"ĠMittag":5142,"cy":5143,"Ã¤chen":5144,"ordert":5145,"Ġgleiche":5146,"Ġkostet":5147,"ment":5148,"za":5149,"ĠPe":5150,"ĠGefangen":5151,"schlieÃŁen":5152,"Ġeigenes":5153,"ĠPflicht":5154,"ĠEinzige":5155,"ĠAbst":5156,"Ġstirbt":5157,"gesetz":5158,"ograf":5159,"ErzÃ¤hl":5160,"ĠMinute":5161,"Keiner":5162,"chn":5163,"ĠFlasche":5164,"ĠGras":5165,"Ġtrifft":5166,"ail":5167,"ĠAusdruck":5168,"Ġdavor":5169,"ĠWirklich":5170,"herr":5171,"riester":5172,"30":5173,"ember":5174,"ĠVerantwort":5175,"ĠWillen":5176,"Ġsobald":5177,"Ġverraten":5178,"schule":5179,"10":5180,"Ġgesucht":5181,"go":5182,"unkl":5183,"gent":5184,"ĠVerstand":5185,"urren":5186,"abl":5187,"Ġzugleich":5188,"Ġtreten":5189,"Ġmanche":5190,"ĠWorten":5191,"ĠPersonen":5192,"Habe":5193,"ĠZustand":5194,"Ġnachts":5195,"ĠSign":5196,"EIT":5197,"Ġwachsen":5198,"fung":5199,"ĠRadio":5200,"ĠAs":5201,"ĠKoffer":5202,"ĠdÃ¼n":5203,"igh":5204,"ĠNorden":5205,"bed":5206,"ĠSteuer":5207,"ĠVergnÃ¼gen":5208,"iels":5209,"zut":5210,"ĠVertrag":5211,"organis":5212,"ĠvorÃ¼ber":5213,"pe":5214,"Ġruf":5215,"Geben":5216,"ĠCor":5217,"ĠschlÃ¤ft":5218,"ĠAbsicht":5219,"Ġzeigte":5220,"Ġjunger":5221,"ĠGrenze":5222,"Ġham":5223,"ĠKultur":5224,"ĠUnternehmen":5225,"Wieder":5226,"ĠMu":5227,"Ġzul":5228,"ĠÃľberrasch":5229,"ĠDeutschen":5230,"Ġlern":5231,"vertr":5232,"Ġglaubte":5233,"ĠOffiz":5234,"ĠHose":5235,"baum":5236,"anders":5237,"Str":5238,"ĠOst":5239,"ĠhÃ¤ltst":5240,"tt":5241,"Ġjene":5242,"Tr":5243,"Ġbleibe":5244,"ĠAben":5245,"ĠDes":5246,"troll":5247,"aktion":5248,"ĠWochenende":5249,"Ġarmen":5250,"Ġmitnehmen":5251,"Ġruss":5252,"hmen":5253,"san":5254,"Ġbein":5255,"minister":5256,"ĠDrogen":5257,"ĠFro":5258,"Ġerinnert":5259,"Ġsex":5260,"stÃ¼r":5261,"lege":5262,"Ġschaff":5263,"Ã¤cheln":5264,"allt":5265,"schu":5266,"ĠCon":5267,"ĠPlaneten":5268,"ĠAlb":5269,"echnet":5270,"schiff":5271,"Ã¶rung":5272,"ĠÃ¶ffnen":5273,"ĠNachmittag":5274,"ĠMission":5275,"verl":5276,"Ġgepl":5277,"ĠAnwalt":5278,"Spiel":5279,"ĠStaaten":5280,"cH":5281,"ĠschlÃ¤gt":5282,"ĠFarben":5283,"undheit":5284,"ĠMÃ¼he":5285,"vent":5286,"ĠHerzog":5287,"mÃ¶gen":5288,"Ġto":5289,"Ġgeschlagen":5290,"mt":5291,"ĠErf":5292,"Ã¤usche":5293,"ari":5294,"ets":5295,"ĠJohann":5296,"ĠCharakter":5297,"ĠEindruck":5298,"sph":5299,"Ġla":5300,"eitag":5301,"ĠAngeb":5302,"iver":5303,"Ã¼d":5304,"KÃ¶nnte":5305,"ĠSklav":5306,"chtung":5307,"lehr":5308,"lligen":5309,"ĠPsych":5310,"zusehen":5311,"Ġph":5312,"ĠEinzel":5313,"ĠLass":5314,"ight":5315,"ĠhÃ¶rst":5316,"Ġed":5317,"bleiben":5318,"Ġfing":5319,"lad":5320,"anischen":5321,"Ġverboten":5322,"ĠHÃ¼hn":5323,"seln":5324,"ied":5325,"ĠStrand":5326,"Ġrasch":5327,"Ã¤ufer":5328,"ĠRitter":5329,"ĠGal":5330,"Ġmitt":5331,"Ã¤st":5332,"ĠPrÃ¼":5333,"ĠMos":5334,"Ġprakt":5335,"Ġgebrochen":5336,"ĠGrab":5337,"werden":5338,"ĠRichter":5339,"gefallen":5340,"Ã¼s":5341,"ĠSitz":5342,"UF":5343,"bew":5344,"ĠAnna":5345,"Ġjedenfalls":5346,"bÃ¼r":5347,"of":5348,"Ġherunter":5349,"fluss":5350,"seit":5351,"air":5352,"ĠFal":5353,"ĠAngriff":5354,"ĠRed":5355,"ĠDavid":5356,"Ã¼ssen":5357,"ĠTÃ¶":5358,"Ġward":5359,"Ġsamm":5360,"Ġpr":5361,"ĠWitz":5362,"Ġuntersch":5363,"garten":5364,"hÃ¤ngen":5365,"Ġ60":5366,"ometer":5367,"ĠGrÃ¤":5368,"Ġeil":5369,"lass":5370,"Ġeinzigen":5371,"ĠJuden":5372,"zeuge":5373,"ĠGehirn":5374,"Klar":5375,"Ġfe":5376,"Ġbeweisen":5377,"ĠschÃ¼tzen":5378,"ĠDel":5379,"ĠTrÃ¤ume":5380,"ĠChamp":5381,"hauen":5382,"Ġrepar":5383,"Ġteilen":5384,"Ġdiesmal":5385,"Schlie":5386,"ĠGraf":5387,"ĠEich":5388,"teilt":5389,"oÃŁen":5390,"ĠJapan":5391,"ĠZucker":5392,"Ġschrecklich":5393,"Ġsuchte":5394,"Ġdeutsche":5395,"ĠschlieÃŁen":5396,"linge":5397,"ĠBrand":5398,"Ã¤te":5399,"WÃ¤re":5400,"antast":5401,"vest":5402,"Ġvoraus":5403,"ĠGestalt":5404,"ĠAfr":5405,"ative":5406,"ĠTher":5407,"ola":5408,"Willkommen":5409,"ĠLÃ¶sung":5410,"ĠweiÃŁe":5411,"ĠPartei":5412,"ĠJagd":5413,"Ġerfr":5414,"Ġexist":5415,"ĠMadame":5416,"Ġta":5417,"Ġran":5418,"ĠArch":5419,"Ġerfolg":5420,"ĠHast":5421,"Ġantwortete":5422,"teln":5423,"ĠTreppe":5424,"Ġhalbe":5425,"ĠfÃ¤ngt":5426,"ĠStar":5427,"ecken":5428,"Ġwisst":5429,"Ġnamen":5430,"ĠHans":5431,"Ġgezogen":5432,"Ġertr":5433,"isa":5434,"Ġmitgebracht":5435,"ĠKauf":5436,"ĠSalz":5437,"Ġmagst":5438,"Ġentschuldigen":5439,"ilien":5440,"osit":5441,"ĠBÃ¤ume":5442,"ement":5443,"Ġwarf":5444,"spruch":5445,"Ã¤hle":5446,"Gesch":5447,"Ġfreundlich":5448,"oy":5449,"ĠTaschen":5450,"Ġ202":5451,"Endlich":5452,"bur":5453,"ano":5454,"Ġmalen":5455,"ivil":5456,"ĠZÃ¤hne":5457,"abend":5458,"Ġdest":5459,"aute":5460,"kohol":5461,"Ġbleib":5462,"Ġoffenbar":5463,"ĠFranc":5464,"aue":5465,"ba":5466,"Ġ22":5467,"ĠKas":5468,"Ġehe":5469,"Ġgeschlafen":5470,"Deswegen":5471,"ĠArschloch":5472,"Ġbestehen":5473,"Ġbat":5474,"ĠMaschine":5475,"AM":5476,"ĠSpiegel":5477,"ĠTrÃ¤nen":5478,"Ġschwach":5479,"Ġgolden":5480,"ĠAlt":5481,"ÃŁig":5482,"ome":5483,"ĠGroÃŁvater":5484,"stu":5485,"igin":5486,"Ġsauer":5487,"ĠKontrolle":5488,"ĠZweifel":5489,"anchol":5490,"ĠFrie":5491,"ĠSchwer":5492,"ĠSÃ¼den":5493,"Ġbewegt":5494,"ahrscheinlich":5495,"Ġangefangen":5496,"ennung":5497,"olo":5498,"ĠMater":5499,"Ġfliegt":5500,"ps":5501,"acke":5502,"Ġfein":5503,"ĠKÃ¶nigs":5504,"ieÃŁt":5505,"ĠLok":5506,"ĠLou":5507,"Ã¼l":5508,"Obwohl":5509,"Ã¼mmer":5510,"ĠOpa":5511,"nitten":5512,"ĠDor":5513,"ĠFuÃŁball":5514,"IS":5515,"ET":5516,"gliche":5517,"ĠBek":5518,"Seht":5519,"ĠTitel":5520,"ĠKapitÃ¤n":5521,"ĠStamm":5522,"ĠgrÃ¼n":5523,"ustrie":5524,"ĠPet":5525,"Ġeuren":5526,"ron":5527,"Ġnimmst":5528,"Ġwirkt":5529,"ĠDingen":5530,"ĠÃ¤nder":5531,"ffff":5532,"ĠGrunde":5533,"ĠFernseh":5534,"eise":5535,"ebel":5536,"ĠzufÃ¤llig":5537,"Ã¤nzen":5538,"ĠRestaurant":5539,"Ã¤lte":5540,"ĠCaptain":5541,"Ġgeheim":5542,"log":5543,"ĠIdeen":5544,"ĠAngel":5545,"ward":5546,"Ġwohn":5547,"ĠunglÃ¼ck":5548,"ĠwÃ¼nschen":5549,"ĠInformationen":5550,"amatische":5551,"ĠKlÃ¤nge":5552,"gegeben":5553,"ĠWesten":5554,"fÃ¼hrt":5555,"Ġbill":5556,"auss":5557,"ĠPublikum":5558,"ĠRech":5559,"Ġbleibst":5560,"flÃ¤che":5561,"Ġeingeladen":5562,"Ġvorhin":5563,"igem":5564,"ĠRobert":5565,"ĠUnterschied":5566,"wendig":5567,"Ġscharf":5568,"ĠmÃ¶chtest":5569,"ĠRelig":5570,"steller":5571,"Ġdorthin":5572,"ĠPfarr":5573,"etzung":5574,"ĠBerge":5575,"Ġdieselbe":5576,"ĠAlten":5577,"Ġverge":5578,"ĠAnn":5579,"indestens":5580,"Ġteuer":5581,"Vater":5582,"Ġgeschieht":5583,"ĠFÃ¼hrer":5584,"wert":5585,"ĠPa":5586,"ĠRuf":5587,"ĠKommun":5588,"Ġunglaublich":5589,"ĠEinsatz":5590,"Ã¤hig":5591,"ahe":5592,"leist":5593,"ĠBriefe":5594,"uell":5595,"ĠFabrik":5596,"Ġlasst":5597,"ĠGeg":5598,"ago":5599,"ĠGesundheit":5600,"ĠzurÃ¼ckzu":5601,"Ġseht":5602,"euchten":5603,"ĠVorstellung":5604,"Ġentt":5605,"Ġgesetzt":5606,"ibel":5607,"ond":5608,"ĠMer":5609,"teuer":5610,"ĠDis":5611,"Ġrechten":5612,"Ġdachten":5613,"ĠHaufen":5614,"ĠKnochen":5615,"Ġweinen":5616,"ĠNational":5617,"Ġwenige":5618,"Kon":5619,"ĠFre":5620,"ĠKÃ¤m":5621,"Schrei":5622,"ĠKnie":5623,"Ġletztes":5624,"Sir":5625,"ĠFlÃ¼gel":5626,"Ġdreh":5627,"kehrt":5628,"laus":5629,"ĠSchei":5630,"Ġblo":5631,"Ġverantwort":5632,"Ġlebte":5633,"Ã¼g":5634,"rÃ¤n":5635,"ĠMÃ¶rder":5636,"ĠVerwand":5637,"Zuerst":5638,"ĠMir":5639,"Verg":5640,"Ġfreue":5641,"ĠTie":5642,"achtung":5643,"vie":5644,"also":5645,"vollen":5646,"straÃŁe":5647,"DER":5648,"bin":5649,"ĠKra":5650,"ĠLÃ¤cheln":5651,"Ġspielte":5652,"ĠÃ¼bel":5653,"ĠInst":5654,"ĠdrÃ¼ber":5655,"Ġerwischt":5656,"vis":5657,"ĠAlte":5658,"Ġbefindet":5659,"ĠGei":5660,"ĠFahrt":5661,"ĠgÃ¤":5662,"ĠRespekt":5663,"Ġliebst":5664,"12":5665,"ĠÃ¼bertr":5666,"ĠGefallen":5667,"ĠTode":5668,"HÃ¤tte":5669,"Ġdunkl":5670,"mmen":5671,"ĠLes":5672,"Ġerlebt":5673,"reiche":5674,"axi":5675,"ĠText":5676,"ĠGeorge":5677,"FrÃ¼her":5678,"ĠBesonder":5679,"alist":5680,"Ġfor":5681,"erd":5682,"Mutter":5683,"Ġdenk":5684,"Bevor":5685,"dass":5686,"Ġeinf":5687,"ĠÃ¼berlegen":5688,"Nachdem":5689,"Ġmochte":5690,"phe":5691,"ations":5692,"Ġauseinander":5693,"ĠTermin":5694,"klin":5695,"Ã¼hlen":5696,"itÃ¤ten":5697,"Ġvergangen":5698,"ĠDER":5699,"ĠGebiet":5700,"ĠHeld":5701,"Ġdritten":5702,"ĠErk":5703,"ĠRosen":5704,"irm":5705,"krÃ¤":5706,"ĠEing":5707,"Ġwillkommen":5708,"Ġentdeckt":5709,"orie":5710,"ĠJon":5711,"Ġverzei":5712,"ĠschieÃŁen":5713,"Ġbrauchte":5714,"Ġanziehen":5715,"ĠSchild":5716,"ĠÃ¤uÃŁ":5717,"ĠWach":5718,"ĠRich":5719,"ĠGrÃ¶ÃŁe":5720,"Ġverein":5721,"ĠbestÃ¤t":5722,"Ġerlaubt":5723,"ĠTeile":5724,"Ġangen":5725,"Ġleichter":5726,"drÃ¼cken":5727,"gÃ¼lt":5728,"ĠMichael":5729,"Ġrote":5730,"ĠSchauspieler":5731,"ĠNetz":5732,"ĠBoss":5733,"ĠMilitÃ¤r":5734,"ĠKunden":5735,"ehmer":5736,"vÃ¶lker":5737,"eldet":5738,"ĠSchwe":5739,"Ġerstmal":5740,"ington":5741,"ĠMinister":5742,"ĠJesus":5743,"15":5744,"ĠmÃ¼sse":5745,"traum":5746,"schenkt":5747,"Ã¼cken":5748,"ĠAh":5749,"ĠSinne":5750,"ĠFeder":5751,"ĠPan":5752,"Sobald":5753,"FFFFFF":5754,"ĠPrivat":5755,"ĠStÃ¤r":5756,"rate":5757,"ĠLeib":5758,"fig":5759,"Ġwahre":5760,"tor":5761,"Ġhandelt":5762,"ascht":5763,"ĠSatz":5764,"ĠKann":5765,"Ã¤nn":5766,"Ġdurfte":5767,"ĠAss":5768,"Ġgeredet":5769,"Lu":5770,"ĠHelden":5771,"Gute":5772,"Ġtiefer":5773,"ĠGas":5774,"ĠBrun":5775,"Ã¤ub":5776,"Bald":5777,"nÃ¤d":5778,"ĠÃ¼bernehmen":5779,"krieg":5780,"ieber":5781,"ĠErgeb":5782,"endes":5783,"ica":5784,"ĠRen":5785,"port":5786,"Ġnamens":5787,"ĠwÃ¼sste":5788,"Ġzuletzt":5789,"Ġwichtiger":5790,"jenigen":5791,"Ã¤me":5792,"ĠFische":5793,"elektr":5794,"Ġlegt":5795,"ĠKommand":5796,"ichst":5797,"ĠMonsieur":5798,"schung":5799,"ĠDein":5800,"geschichte":5801,"Ġy":5802,"eidigen":5803,"Ã¤sche":5804,"ĠFreundschaft":5805,"ĠzwÃ¶lf":5806,"ĠAlle":5807,"see":5808,"utig":5809,"Ġdesto":5810,"Ġsinn":5811,"Ġschwarze":5812,"reif":5813,"ĠfrÃ¶h":5814,"ĠKugel":5815,"raben":5816,"Ã¤uscht":5817,"Ġverfl":5818,"Ġgleichzeitig":5819,"Ġerb":5820,"Ġbehandelt":5821,"Eins":5822,"ĠbiÃŁ":5823,"Ġaufgew":5824,"Gew":5825,"HR":5826,"Ġ23":5827,"ierigkeiten":5828,"Stell":5829,"ĠST":5830,"ĠBericht":5831,"ĠwÃ¼nsche":5832,"ĠBetr":5833,"Ġakzept":5834,"Seid":5835,"ĠVerantwortung":5836,"ĠtÃ¤glich":5837,"ĠZuhause":5838,"Ġwelt":5839,"Ġumgebracht":5840,"ĠNik":5841,"Danach":5842,"ĠWett":5843,"gefahren":5844,"ĠHintergrund":5845,"Hoffen":5846,"Ġor":5847,"Ġtritt":5848,"Ġhilf":5849,"ĠBud":5850,"osoph":5851,"ĠWirtschaft":5852,"ĠWiedersehen":5853,"Ġeinzelnen":5854,"ĠFlie":5855,"ĠSchok":5856,"ĠSterne":5857,"ney":5858,"ĠzunÃ¤chst":5859,"ĠBahnhof":5860,"ĠCous":5861,"ĠWirklichkeit":5862,"ĠMenschheit":5863,"ĠwÃ¼rd":5864,"ada":5865,"dreht":5866,"ĠPriester":5867,"ny":5868,"Ġwild":5869,"Ġaufw":5870,"Ġfressen":5871,"ĠChina":5872,"ĠZentr":5873,"ĠSP":5874,"essel":5875,"Ġsteigen":5876,"Ġentlang":5877,"ĠHir":5878,"ya":5879,"Ã¤llig":5880,"ĠfÃ¤hrst":5881,"inz":5882,"Ges":5883,"ĠProjekt":5884,"ĠÃĸsterreich":5885,"ĠhÃ¤ufig":5886,"Ġnirgend":5887,"Ġverbunden":5888,"ĠVert":5889,"ĠSher":5890,"Ġabsolut":5891,"hafen":5892,"Ġschmeckt":5893,"ĠStat":5894,"ĠAmerikaner":5895,"ĠKÃ¶r":5896,"ĠKlin":5897,"Ġverdammte":5898,"ĠPause":5899,"ĠFlucht":5900,"Ġgemeint":5901,"iar":5902,"Ġgeholfen":5903,"ĠMaul":5904,"ĠAutor":5905,"Ġwussten":5906,"kampf":5907,"ĠEntschuldigung":5908,"ĠVort":5909,"ĠRegel":5910,"Ġholt":5911,"ĠDirektor":5912,"Ġerledigt":5913,"Ġarm":5914,"Muss":5915,"Se":5916,"lÃ¶":5917,"Ġ;":5918,"Ġsolcher":5919,"ĠDunkel":5920,"Ġhinunter":5921,"Leute":5922,"haften":5923,"Ã¤fte":5924,"leiter":5925,"ĠDumm":5926,"ĠGroÃŁmutter":5927,"Verdammt":5928,"Ġsogen":5929,"ĠÃ¶fter":5930,"ĠPop":5931,"ĠRett":5932,"reckt":5933,"Ben":5934,"gut":5935,"artige":5936,"reift":5937,"ĠNichts":5938,"ĠAngebot":5939,"Ġgewiss":5940,"Ġdopp":5941,"ĠMarie":5942,"Ġro":5943,"hlt":5944,"mitt":5945,"ĠMaÃŁ":5946,"etwas":5947,"ĠNÃ¤ch":5948,"Ġew":5949,"Ġgewartet":5950,"gesp":5951,"ĠEhem":5952,"Ġfalsche":5953,"Ġfrisch":5954,"Ġmoder":5955,"ĠUntersuch":5956,"Ġzeige":5957,"zip":5958,"soll":5959,"eidet":5960,"ĠJoe":5961,"ĠViertel":5962,"AG":5963,"Ġliebte":5964,"ĠKrÃ¤fte":5965,"Ġdankbar":5966,"sm":5967,"rief":5968,"ÃĦhm":5969,"Ġversuchte":5970,"Ġgebeten":5971,"ĠLauf":5972,"ĠNahr":5973,"gro":5974,"ĠListe":5975,"ĠblÃ¶d":5976,"eife":5977,"Ġwoher":5978,"ĠgefÃ¼hrt":5979,"int":5980,"use":5981,"nee":5982,"ala":5983,"kan":5984,"ĠRoll":5985,"ĠSchiffe":5986,"ĠHon":5987,"ĠDaten":5988,"ĠAtem":5989,"Sh":5990,"Ġverstecken":5991,"ĠstÃ¶hnt":5992,"CK":5993,"Fahr":5994,"Ġgewusst":5995,"do":5996,"ash":5997,"ĠgeÃ¤ndert":5998,"Ġhohe":5999,"ĠFrÃ¼hl":6000,"ĠGÃ¶tter":6001,"ory":6002,"ĠBÃ¤r":6003,"ĠFeinde":6004,"ĠOsten":6005,"res":6006,"ĠCom":6007,"ĠBÃ¼rgermeister":6008,"ĠStich":6009,"bet":6010,"Ġdro":6011,"ĠVi":6012,"markt":6013,"ĠStellung":6014,"Ġniemandem":6015,"fest":6016,"inkel":6017,"ĠSchmerzen":6018,"sa":6019,"ĠMedizin":6020,"unnel":6021,"Ġstelle":6022,"ĠSchwierigkeiten":6023,"Ġwichtige":6024,"zustellen":6025,"ĠBeweis":6026,"sser":6027,"iken":6028,"Ġdurchaus":6029,"Ġdrinnen":6030,"blichen":6031,"ĠzerstÃ¶ren":6032,"Ġnich":6033,"Ġbilden":6034,"doch":6035,"Ġgelegen":6036,"Ġdritte":6037,"Ġgetrunken":6038,"Mag":6039,"sta":6040,"Ã¤mmer":6041,"Ġklin":6042,"Ġlanger":6043,"wurf":6044,"Ġbetro":6045,"Wei":6046,"Ġbrechen":6047,"spl":6048,"Ġtrocken":6049,"Ġgibst":6050,"ĠFelsen":6051,"ĠGegner":6052,"ĠVerbrechen":6053,"pert":6054,"Ġerwachsen":6055,"ĠVideo":6056,"ĠBern":6057,"brigens":6058,"ĠFigur":6059,"ĠFilme":6060,"ĠFei":6061,"Pol":6062,"Zw":6063,"ĠJÃ¼n":6064,"ĠFÃ¼ÃŁen":6065,"reiÃŁen":6066,"ĠMauer":6067,"ĠSpann":6068,"Egal":6069,"ĠLab":6070,"ĠKarr":6071,"ĠKonz":6072,"appe":6073,"ĠMartin":6074,"ike":6075,"Ġunterhalten":6076,"ĠTu":6077,"Bleib":6078,"etwegen":6079,"Ġerschien":6080,"haber":6081,"ĠStief":6082,"ĠAdr":6083,"ĠKeller":6084,"ĠVis":6085,"ĠAugust":6086,"ĠMeilen":6087,"Ġschwimmen":6088,"Ġschmer":6089,"ĠWahnsinn":6090,"ĠWolken":6091,"Kr":6092,"ordnung":6093,"arzt":6094,"ĠMaus":6095,"ging":6096,"Sicher":6097,"Ġfalschen":6098,"gress":6099,"steckt":6100,"ĠAlkohol":6101,"legenheit":6102,"ĠJuni":6103,"Ġkontroll":6104,"ĠFolge":6105,"Don":6106,"ĠDecke":6107,"steh":6108,"eins":6109,"Ġtrei":6110,"ĠMonster":6111,"RO":6112,"Ġkauf":6113,"Ġzweimal":6114,"ĠElef":6115,"Ġbra":6116,"sver":6117,"pern":6118,"ĠExper":6119,"ĠHafen":6120,"ĠFreitag":6121,"Ġanderem":6122,"ĠAufmerk":6123,"chtet":6124,"ĠEisenbahn":6125,"ĠLÃ¤nder":6126,"Ġaufre":6127,"ĠSchuss":6128,"entl":6129,"Ġbekomme":6130,"Her":6131,"sprÃ¼n":6132,"itzer":6133,"quem":6134,"ĠAbschied":6135,"ski":6136,"WeiÃŁ":6137,"ĠEhr":6138,"Ġaufpassen":6139,"ĠSeelen":6140,"ĠFalle":6141,"Ġdreht":6142,"ĠÃ¼berleben":6143,"Ġschuldig":6144,"Ã¼cher":6145,"ĠMaschinen":6146,"TÃ¼r":6147,"ĠGeschmack":6148,"ĠAnruf":6149,"decken":6150,"ĠnervÃ¶s":6151,"ĠBurg":6152,"HÃ¶rt":6153,"ĠHann":6154,"ĠDrachen":6155,"IG":6156,"aj":6157,"ĠBeding":6158,"Ġkosten":6159,"ĠLÃ¤ndern":6160,"Ġspreche":6161,"Ġgelegt":6162,"Ġdanken":6163,"ĠGewissen":6164,"richtung":6165,"kaufen":6166,"ĠlieÃŁen":6167,"ĠGedanke":6168,"Ġscheinen":6169,"riegt":6170,"Ġfreut":6171,"Ġmorgens":6172,"Ġtele":6173,"ĠTim":6174,"Ġbesondere":6175,"ĠÃ¼berzeugt":6176,"reden":6177,"ĠSilber":6178,"ĠMach":6179,"ĠBesser":6180,"ĠDiener":6181,"Ġerscheint":6182,"ĠÃľberraschung":6183,"zukommen":6184,"ĠHein":6185,"Ġschlechter":6186,"euern":6187,"stellungen":6188,"Ġwenigen":6189,"mÃ¼t":6190,"ĠKino":6191,"Ġrisk":6192,"ĠSpur":6193,"Ġfehlen":6194,"Ġreag":6195,"alis":6196,"ata":6197,"Eure":6198,"ĠHol":6199,"zeiten":6200,"kor":6201,"ahle":6202,"Ġmindestens":6203,"Ġelektr":6204,"istor":6205,"ĠMars":6206,"ĠGre":6207,"ingst":6208,"ĠerfÃ¼llt":6209,"HN":6210,"ĠTex":6211,"ĠJose":6212,"emal":6213,"ĠTurm":6214,"Ġkochen":6215,"ith":6216,"Ġschafft":6217,"ĠprÃ¼":6218,"ĠGemeinde":6219,"ĠBegriff":6220,"schutz":6221,"Ġverlangt":6222,"abhÃ¤ng":6223,"bliche":6224,"ony":6225,"Ġkrieg":6226,"ĠGi":6227,"ffiziell":6228,"ĠLast":6229,"ĠNerven":6230,"ĠAkt":6231,"laube":6232,"echseln":6233,"zweif":6234,"ĠBart":6235,"anische":6236,"ulen":6237,"ĠAufmerksamkeit":6238,"14":6239,"adel":6240,"Ġgelang":6241,"Ġbieten":6242,"Ġlhre":6243,"ĠPunkte":6244,"Ġbetrunken":6245,"ĠWilhelm":6246,"Ġbekommst":6247,"Ġlock":6248,"selbe":6249,"ĠReisen":6250,"ĠGit":6251,"rew":6252,"ĠRunde":6253,"Ġhoff":6254,"chtest":6255,"Ġgewisse":6256,"ĠGewehr":6257,"Ġdringend":6258,"trem":6259,"ĠVerw":6260,"Schnell":6261,"ĠZweck":6262,"ĠSuche":6263,"wood":6264,"Ġbeinahe":6265,"beg":6266,"ĠbiÃŁchen":6267,"ĠBade":6268,"Ġpri":6269,"Ã¤nglich":6270,"hause":6271,"Ġinteressant":6272,"ĠThomas":6273,"ehnte":6274,"ĠStreich":6275,"ĠLinie":6276,"karte":6277,"ĠGanze":6278,"ĠElektr":6279,"ĠUfer":6280,"ĠLord":6281,"Ġwart":6282,"ĠEnd":6283,"Ġbemerkt":6284,"ĠRand":6285,"Hoffentlich":6286,"Bo":6287,"ĠNov":6288,"ĠProgramm":6289,"Ġerscheinen":6290,"ĠPresse":6291,"Ġdienen":6292,"ĠNeues":6293,"ĠÃ¤uÃŁer":6294,"ĠkÃ¼r":6295,"Denk":6296,"ĠErei":6297,"ĠBlatt":6298,"een":6299,"ĠStaub":6300,"Ġwitz":6301,"bewer":6302,"ippen":6303,"nur":6304,"Ġvertrauen":6305,"sitzen":6306,"Ġgeschenkt":6307,"Sogar":6308,"ĠRevolution":6309,"ĠauÃŁerdem":6310,"rug":6311,"Gegen":6312,"immung":6313,"ichert":6314,"ĠLieblings":6315,"mir":6316,"Ġbefrei":6317,"ĠStoff":6318,"ĠÃĸl":6319,"ĠkÃ¼mmert":6320,"legte":6321,"Ġbesorgt":6322,"ĠSchau":6323,"ĠHit":6324,"Ġpein":6325,"weilen":6326,"ĠhÃ¤ss":6327,"erseits":6328,"itut":6329,"ĠPir":6330,"Ġ500":6331,"ĠCr":6332,"bach":6333,"Ġnem":6334,"ĠReligion":6335,"Ġnannte":6336,"Ġdan":6337,"Ġweiteren":6338,"reten":6339,"Einmal":6340,"stÃ¼tz":6341,"ommy":6342,"zwungen":6343,"Ġredest":6344,"ĠGÃ¼te":6345,"Kinder":6346,"ĠVerf":6347,"Ġgebraucht":6348,"ĠCharlie":6349,"kÃ¶n":6350,"ela":6351,"agner":6352,"ĠKost":6353,"ĠRechte":6354,"testen":6355,"ĠSamstag":6356,"ĠDet":6357,"Ġumher":6358,"ĠTreffen":6359,"ĠgewiÃŁ":6360,"Ġgeschm":6361,"Ġverantwortlich":6362,"Ġbeeind":6363,"ancholische":6364,"andet":6365,"ĠLeiche":6366,"ĠMillion":6367,"ĠKirchen":6368,"Ġeinzig":6369,"icherung":6370,"Ġfolgt":6371,"Ã¼nde":6372,"Ã¶rter":6373,"Damals":6374,"Ġsorg":6375,"ehlen":6376,"Ã¤use":6377,"ĠClub":6378,"El":6379,"ĠSchweiz":6380,"ĠGesang":6381,"Ġschreien":6382,"ĠkÃ¼ssen":6383,"ĠFÃ¼rst":6384,"Tu":6385,"ĠPosition":6386,"press":6387,"Ġaufgenommen":6388,"Ġwahnsinn":6389,"ĠSÃ¤":6390,"Ġeingesch":6391,"ĠEIN":6392,"Liebe":6393,"ĠGeorg":6394,"Ġdurchs":6395,"Mel":6396,"bis":6397,"afel":6398,"bie":6399,"ĠToil":6400,"ĠKatzen":6401,"ĠSym":6402,"stoff":6403,"ĠÃ¼berrascht":6404,"ĠGeister":6405,"gebaut":6406,"Ġsolle":6407,"Ġgewissen":6408,"17":6409,"Ġmelden":6410,"ĠSol":6411,"ĠSpitze":6412,"ĠGrad":6413,"Sollen":6414,"hu":6415,"enntnis":6416,"herz":6417,"ĠLady":6418,"aunen":6419,"Ġerkl":6420,"Ġwolle":6421,"ĠArten":6422,"fÃ¤llt":6423,"Ġdennoch":6424,"ĠRussland":6425,"forder":6426,"hard":6427,"ĠAfrika":6428,"ĠLande":6429,"ĠAnsicht":6430,"Ġtrain":6431,"jenige":6432,"ĠInternet":6433,"ĠNur":6434,"Ġmerken":6435,"Ġsatt":6436,"fÃ¤lle":6437,"mÃ¤cht":6438,"ĠHÃ¤":6439,"omant":6440,"odie":6441,"ico":6442,"ĠRis":6443,"own":6444,"schlÃ¤ge":6445,"ĠAbt":6446,"ielen":6447,"Ind":6448,"SE":6449,"appen":6450,"Ġsagtest":6451,"Ġumsonst":6452,"gefunden":6453,"spielen":6454,"ĠGE":6455,"omit":6456,"edig":6457,"Ġentwickelt":6458,"ĠZigar":6459,"statt":6460,"Ġmiss":6461,"ĠLiter":6462,"Ġbewusst":6463,"ĠGeschÃ¤fts":6464,"ĠzÃ¤hlt":6465,"ĠKuss":6466,"ĠFÃ¤h":6467,"ĠIndianer":6468,"LE":6469,"Ġgeschw":6470,"Ġhind":6471,"iniert":6472,"ĠBon":6473,"ĠSat":6474,"Ġbez":6475,"iens":6476,"ĠgroÃŁartig":6477,"Jedenfalls":6478,"zirk":6479,"Ã¤usern":6480,"IR":6481,"umb":6482,"Darauf":6483,"ĠlÃ¤cher":6484,"Ġgeheiratet":6485,"las":6486,"ĠRein":6487,"ĠbeschÃ¼tzen":6488,"Ġschwanger":6489,"antasie":6490,"Ġvergeben":6491,"fa":6492,"arch":6493,"rifft":6494,"Stimmt":6495,"ĠSteine":6496,"ansport":6497,"ĠJim":6498,"boden":6499,"ĠMontag":6500,"leitung":6501,"astro":6502,"omat":6503,"Ġ80":6504,"ĠSoldat":6505,"Ã¶pfe":6506,"malt":6507,"Ġheran":6508,"Ġverbringen":6509,"frage":6510,"ĠDom":6511,"Ã¤rt":6512,"Trotzdem":6513,"ĠTalent":6514,"Ã¤mpft":6515,"Ġschreibe":6516,"ils":6517,"ĠDeine":6518,"ĠHintern":6519,"heben":6520,"ĠHigh":6521,"ichtete":6522,"ĠFlughafen":6523,"Ġrech":6524,"wÃ¤rt":6525,"Ġoh":6526,"ĠMagen":6527,"gefÃ¼hl":6528,"handen":6529,"elst":6530,"ĠdÃ¼rfte":6531,"ĠKarriere":6532,"Vom":6533,"uft":6534,"Ġabends":6535,"ĠErste":6536,"ammelt":6537,"Ġselben":6538,"ĠTur":6539,"Ġbeherr":6540,"ĠKop":6541,"sprach":6542,"Ġtreiben":6543,"barkeit":6544,"ĠmuÃŁt":6545,"Laut":6546,"ĠSchwestern":6547,"Leider":6548,"Ġregel":6549,"ĠZahlen":6550,"gendes":6551,"ĠÃ¶ffen":6552,"Chr":6553,"titel":6554,"zung":6555,"Ġgeschah":6556,"ĠSchaden":6557,"Ġgering":6558,"Ġschmutz":6559,"ĠMex":6560,"oral":6561,"ĠBay":6562,"ĠNeben":6563,"Ġhalben":6564,"Ġaufhalten":6565,"Weiter":6566,"ĠgrÃ¼nen":6567,"ĠApfel":6568,"Ġinzwischen":6569,"Ã¤ndler":6570,"Ġhinterher":6571,"Jedes":6572,"iren":6573,"ors":6574,"ĠjÃ¼nger":6575,"samt":6576,"maÃŁen":6577,"ĠAffen":6578,"Ġverschl":6579,"Ġstehst":6580,"Ġgekriegt":6581,"redit":6582,"ĠAbendessen":6583,"beln":6584,"Ġorganis":6585,"Ġzurecht":6586,"vÃ¶lkerung":6587,"setzung":6588,"ĠKartoff":6589,"ĠHall":6590,"ĠschÃ¼t":6591,"ĠRennen":6592,"ĠKarl":6593,"Ġzuge":6594,"ĠEben":6595,"----":6596,"eug":6597,"ĠZunge":6598,"atzen":6599,"ĠIN":6600,"zieht":6601,"ton":6602,"Ġert":6603,"ĠBlÃ¤tter":6604,"ĠEnglisch":6605,"Ġdurcheinander":6606,"ĠGet":6607,"Ġentweder":6608,"bol":6609,"ĠHauses":6610,"ĠSekunde":6611,"Ġziehe":6612,"Ã¼nftig":6613,"Max":6614,"ga":6615,"abil":6616,"gewalt":6617,"einst":6618,"Ġwirken":6619,"rael":6620,"ĠVermÃ¶gen":6621,"ĠFahrrad":6622,"ĠgehÃ¶rte":6623,"ĠEhemann":6624,"OM":6625,"Ġwirk":6626,"Ġkennenl":6627,"wald":6628,"Ġoffiziell":6629,"ios":6630,"ĠKÃ¤se":6631,"Ġspiele":6632,"ĠStimmung":6633,"Ġzieh":6634,"ĠArtikel":6635,"ausende":6636,"enschen":6637,"ĠZusch":6638,"OL":6639,"ĠGriechen":6640,"ĠPri":6641,"Ġunw":6642,"Ġgeglaubt":6643,"kÃ¼r":6644,"ĠSpieler":6645,"aner":6646,"spro":6647,"onders":6648,"verstÃ¤ndlich":6649,"ĠVerteid":6650,"ĠstÃ¶ren":6651,"geworfen":6652,"ettern":6653,"ĠlÃ¶sen":6654,"locke":6655,"Ġgetrennt":6656,"Ġsteh":6657,"ĠStart":6658,"stÃ¤nden":6659,"ĠzÃ¤hlen":6660,"ortet":6661,"weile":6662,"Andere":6663,"Mon":6664,"Ġsteigt":6665,"ĠErinnerungen":6666,"ĠGift":6667,"liebe":6668,"Jo":6669,"opÃ¤":6670,"Aller":6671,"Ġbestimmte":6672,"ks":6673,"Ġfassen":6674,"pfte":6675,"Ġangeb":6676,"bell":6677,"Ġschickt":6678,"ĠAnst":6679,"ĠSchlimm":6680,"ĠBeute":6681,"Zeit":6682,"Ġnutzen":6683,"Uns":6684,"Ġerledigen":6685,"eckt":6686,"ĠEins":6687,"ĠschwÃ¶re":6688,"ĠTunnel":6689,"riech":6690,"ĠBlei":6691,"ĠDichter":6692,"ĠKollegen":6693,"ĠwÃ¤hlen":6694,"ĠNo":6695,"Entschuldige":6696,"ĠNachbarn":6697,"Spann":6698,"Ġunschuld":6699,"Ã¤uber":6700,"omen":6701,"anda":6702,"ĠJÃ¤ger":6703,"Gr":6704,"grÃ¼":6705,"ĠTruppen":6706,"Ġerleben":6707,"ila":6708,"Ġpar":6709,"Ġerwider":6710,"ĠLeg":6711,"ĠWeiÃŁ":6712,"Ġkonzentr":6713,"ĠHalb":6714,"ĠJames":6715,"erry":6716,"ĠDick":6717,"ĠStift":6718,"Ġknapp":6719,"lob":6720,"Ġlebend":6721,"ktur":6722,"ĠGeschlecht":6723,"uhige":6724,"po":6725,"Ġbringst":6726,"auten":6727,"ĠLeiter":6728,"Ġkeines":6729,"IL":6730,"uhren":6731,"gekehrt":6732,"ehnen":6733,"Ġhinab":6734,"Ġgewinnt":6735,"Ġinte":6736,"laubnis":6737,"ISCH":6738,"ĠTrain":6739,"ĠGutes":6740,"maschine":6741,"ĠBor":6742,"ĠHarry":6743,"Ġabsch":6744,"ĠCha":6745,"SpÃ¤ter":6746,"Kn":6747,"dessen":6748,"OK":6749,"steck":6750,"Ġschwere":6751,"Ġfried":6752,"zeugen":6753,"Ġverdammten":6754,"part":6755,"ĠKell":6756,"ĠKloster":6757,"ĠbrÃ¼":6758,"ĠLang":6759,"Ġangesehen":6760,"ĠEntwicklung":6761,"ĠSack":6762,"ichts":6763,"ĠPlÃ¤ne":6764,"ĠGrenzen":6765,"ungslos":6766,"Wor":6767,"ĠIhres":6768,"Ã¶ffel":6769,"Ã¤s":6770,"ĠJer":6771,"drehen":6772,"Ã¤gst":6773,"arsch":6774,"Ġeiniger":6775,"azieren":6776,"Ġvorbereitet":6777,"Ġsey":6778,"ĠKut":6779,"ĠTats":6780,"Ġbesorgen":6781,"ĠFunk":6782,"Ġunters":6783,"Ġunbek":6784,"Ġunterschied":6785,"ĠFo":6786,"zubringen":6787,"stellte":6788,"ĠÃ¤hm":6789,"leidet":6790,"ĠGrau":6791,"Entschuldigung":6792,"ĠStrafe":6793,"Glauben":6794,"Ġner":6795,"Ro":6796,"Ġverhindern":6797,"Ġmeistens":6798,"ird":6799,"ĠNick":6800,"ĠAuÃŁen":6801,"BER":6802,"riffe":6803,"ĠPrÃ¤sidenten":6804,"oth":6805,"ungsvolle":6806,"ĠKe":6807,"Ġinform":6808,"Ġbessere":6809,"Ġhoffen":6810,"ĠTsch":6811,"ĠDenn":6812,"ĠUnterricht":6813,"Ġbemerk":6814,"Ġbestimmten":6815,"ĠgeÃ¶ffnet":6816,"ĠhÃ¶chst":6817,"ĠAdresse":6818,"ĠUniversitÃ¤t":6819,"komme":6820,"irrt":6821,"ĠFurcht":6822,"Ã¼ckt":6823,"echtigkeit":6824,"Ġschwier":6825,"Ġreiten":6826,"Ġverlor":6827,"Ġheutigen":6828,"Ġordentlich":6829,"ĠKurs":6830,"ĠgÃ¤be":6831,"ĠSchweine":6832,"geboren":6833,"welche":6834,"ĠSchlange":6835,"Ã¶hne":6836,"Meinst":6837,"underte":6838,"ĠMai":6839,"leg":6840,"ĠErzÃ¤hl":6841,"Ġentsp":6842,"Ġbeschlossen":6843,"ĠVielleicht":6844,"ĠHoheit":6845,"Ãľbrigens":6846,"ring":6847,"ĠVerst":6848,"Ġsowas":6849,"Ġverurt":6850,"Ġliebsten":6851,"Ġ27":6852,"uelle":6853,"ĠverÃ¤ndern":6854,"ĠEnkel":6855,"Ġempor":6856,"schriften":6857,"ĠMehr":6858,"alent":6859,"Ġverliert":6860,"ICHT":6861,"ĠKilometer":6862,"Ã¼rf":6863,"Daher":6864,"vier":6865,"ĠSus":6866,"Ã¤tigkeit":6867,"ĠWirkung":6868,"Ġgelaufen":6869,"ĠDampf":6870,"othek":6871,"tin":6872,"Wahrscheinlich":6873,"Ġsoweit":6874,"ĠSchulter":6875,"ĠBotschaft":6876,"ĠVerhalten":6877,"ischem":6878,"ĠHerbst":6879,"Ġlangweilig":6880,"ĠHÃ¼tte":6881,"schuss":6882,"Ġrechte":6883,"Ġfreilich":6884,"sellschaft":6885,"John":6886,"zellen":6887,"schrau":6888,"ĠGentl":6889,"ĠWÃ¤r":6890,"andid":6891,"Ġrespekt":6892,"Jede":6893,"ku":6894,"iti":6895,"euchte":6896,"Ġdemselben":6897,"ĠSchlei":6898,"rinken":6899,"Ã¤hren":6900,"stÃ¼tzung":6901,"Gel":6902,"kra":6903,"ĠscheiÃŁ":6904,"stete":6905,"Ġinnerhalb":6906,"ettel":6907,"Ġreisen":6908,"Ġannehmen":6909,"ĠErst":6910,"Ġ199":6911,"ĠLeist":6912,"warum":6913,"Ġkm":6914,"ĠKleidung":6915,"Ġkurze":6916,"ĠBis":6917,"keln":6918,"regung":6919,"Ġkor":6920,"ĠPist":6921,"Ġpriv":6922,"ĠErwachsen":6923,"teste":6924,"Ġangekommen":6925,"Ġschlau":6926,"ĠRauch":6927,"ĠBast":6928,"ions":6929,"Vergiss":6930,"ĠUeber":6931,"geber":6932,"Ġtrennen":6933,"Ġ300":6934,"Ġweht":6935,"ĠKosten":6936,"tan":6937,"ĠDrink":6938,"schneiden":6939,"Miss":6940,"bek":6941,"ĠmÃ¼ssten":6942,"del":6943,"Ġbefinden":6944,"Ġjagen":6945,"gemein":6946,"ĠgnÃ¤d":6947,"ĠRichard":6948,"emie":6949,"Ġentsprechen":6950,"ĠAnton":6951,"ĠFerien":6952,"ĠKohle":6953,"irren":6954,"ĠReden":6955,"Ġerhielt":6956,"Ġgrossen":6957,"Ġheu":6958,"ĠBÃ¤":6959,"ĠFranzÃ¶s":6960,"onne":6961,"ĠKoch":6962,"atze":6963,"anter":6964,"ĠGeschw":6965,"Ġeurer":6966,"Ġstreng":6967,"ĠSicht":6968,"ĠBlau":6969,"Ġdis":6970,"ĠFeier":6971,"ĠKleinen":6972,"umor":6973,"Ġspann":6974,"aka":6975,"waff":6976,"willig":6977,"agten":6978,"ĠPfund":6979,"ĠLeidenschaft":6980,"mÃ¤dchen":6981,"Ġbetrifft":6982,"16":6983,"enner":6984,"ĠÃ¼brigen":6985,"ÃľR":6986,"Ġschaut":6987,"ĠKleiner":6988,"ĠPfarrer":6989,"ĠZwischen":6990,"ĠMÃ¤rchen":6991,"ĠAbenteuer":6992,"iffen":6993,"ĠStellen":6994,"ĠBesonderes":6995,"Euer":6996,"ĠStirn":6997,"ĠErschein":6998,"Ġ26":6999,"ĠMarc":7000,"Krie":7001,"ĠRake":7002,"ĠEp":7003,"ĠErklÃ¤rung":7004,"ĠRepu":7005,"Ġgegenseit":7006,"Ġbrei":7007,"ĠTaxi":7008,"Ġklug":7009,"ags":7010,"ĠNr":7011,"uÃŁt":7012,"plan":7013,"Solange":7014,"Lieber":7015,"Ġtreu":7016,"ĠProzess":7017,"Ġfantast":7018,"Ġherbei":7019,"Ġvieles":7020,"ĠVon":7021,"plos":7022,"nissen":7023,"istischen":7024,"wirtschaft":7025,"ierter":7026,"Ġverwendet":7027,"Ġneulich":7028,"zten":7029,"Ġschul":7030,"ĠTed":7031,"ythm":7032,"ĠDaddy":7033,"ĠMikro":7034,"Paul":7035,"Ġwahnsinnig":7036,"Ġaltes":7037,"verstanden":7038,"Ġweiterhin":7039,"Denkst":7040,"Ġnahmen":7041,"drich":7042,"Ġstarke":7043,"Ġaufgeben":7044,"ĠJourn":7045,"Ġdarunter":7046,"Ġblaue":7047,"ĠFach":7048,"ĠNation":7049,"ĠbetrÃ¼":7050,"Ġhelfe":7051,"ĠOrganis":7052,"ital":7053,"Ġschief":7054,"ĠVER":7055,"Ġstieg":7056,"ĠHemd":7057,"ganz":7058,"ĠGn":7059,"Ġerm":7060,"ĠTiger":7061,"ppich":7062,"ĠMantel":7063,"Ho":7064,"ichtbar":7065,"Ġniedr":7066,"ĠgewÃ¤hlt":7067,"ĠWellen":7068,"Ġspringen":7069,"akte":7070,"denten":7071,"llo":7072,"ĠMÃ¶n":7073,"ĠAufnahme":7074,"tember":7075,"Ġgelebt":7076,"ĠGesetze":7077,"ĠMÃ¤dels":7078,"ĠCollege":7079,"ĠJungfrau":7080,"Ġunf":7081,"Ġleb":7082,"Ġeiniges":7083,"ĠWÃ¼ste":7084,"ĠKrieger":7085,"Ġgell":7086,"ĠnÃ¤chstes":7087,"ĠDÃ¤m":7088,"ĠZur":7089,"ĠChristian":7090,"Ġschweren":7091,"ĠUND":7092,"Ã¼chtern":7093,"Ġzumindest":7094,"wan":7095,"ĠBauer":7096,"Ġwoanders":7097,"ĠAg":7098,"ĠVerÃ¤nder":7099,"Besonders":7100,"ahrt":7101,"ĠRoman":7102,"ĠPalast":7103,"Ã¤del":7104,"Ġ28":7105,"Ġbrach":7106,"rufe":7107,"Ã¤men":7108,"ĠschÃ¤tze":7109,"ĠZeitpunkt":7110,"ĠAmt":7111,"ĠGegenteil":7112,"Ant":7113,"Ġfreien":7114,"zeichnen":7115,"ĠAuff":7116,"Ex":7117,"Ġbegleiten":7118,"ĠPersÃ¶n":7119,"Ã¶nt":7120,"zÃ¼glich":7121,"windigkeit":7122,"ĠamÃ¼s":7123,"ĠGeschÃ¤fte":7124,"ĠZufall":7125,"Ġverfolgt":7126,"ĠLeichen":7127,"ĠDok":7128,"40":7129,"ĠMeeres":7130,"uern":7131,"bereit":7132,"ĠVieh":7133,"Sagt":7134,"ĠWasch":7135,"Ġausged":7136,"ĠVolks":7137,"ĠPatienten":7138,"ĠAnblick":7139,"ĠWÃ¼n":7140,"chester":7141,"kind":7142,"Ġertragen":7143,"ĠPor":7144,"istisch":7145,"spir":7146,"Ġverpasst":7147,"Ġheiligen":7148,"Ã¤nen":7149,"ĠVerschw":7150,"ĠOkt":7151,"ĠmÃ¤nn":7152,"ĠBem":7153,"Ġendet":7154,"ĠnatÃ¼r":7155,"Lau":7156,"etzten":7157,"ĠStil":7158,"ĠFremden":7159,"kretÃ¤r":7160,"ĠNeg":7161,"osa":7162,"gyp":7163,"Ġfinanz":7164,"ĠSchokol":7165,"ĠMand":7166,"ĠWut":7167,"Ġeinfacher":7168,"oper":7169,"Ġlebendig":7170,"ĠerwÃ¤hnt":7171,"ĠDoch":7172,"Ġbrennt":7173,"lichkeiten":7174,"kriegen":7175,"gier":7176,"ĠSag":7177,"irg":7178,"Ġvermut":7179,"ĠlÃ¶":7180,"ĠEll":7181,"ĠKÃ¼ste":7182,"ĠÃ¼berlegt":7183,"Ġangeg":7184,"ĠSimon":7185,"atein":7186,"ĠFrÃ¼h":7187,"gelernt":7188,"ips":7189,"ĠrÃ¶m":7190,"ograph":7191,"Woll":7192,"ĠWiderstand":7193,"ziehungen":7194,"ĠButter":7195,"ĠgewÃ¶hnlich":7196,"ida":7197,"iegt":7198,"Ġvorhanden":7199,"oter":7200,"Einfach":7201,"Ġhinweg":7202,"Ġirgendein":7203,"ĠHeiligen":7204,"way":7205,"Ġstammt":7206,"izieren":7207,"ĠDass":7208,"ĠBabys":7209,"ĠNun":7210,"ĠMone":7211,"Ġerschossen":7212,"ĠRache":7213,"ruckt":7214,"bieten":7215,"ĠVen":7216,"ĠOkay":7217,"Ġ35":7218,"ĠBÃ¼ch":7219,"ĠOK":7220,"indungen":7221,"peratur":7222,"Ġwahren":7223,"Ġirre":7224,"Ġgrade":7225,"Ġerkannt":7226,"drÃ¼ck":7227,"ĠInte":7228,"ime":7229,"Ġempfangen":7230,"sphÃ¤re":7231,"Ã¶ne":7232,"Ġdauern":7233,"eider":7234,"ĠZeugen":7235,"ĠVan":7236,"Ġgeraten":7237,"hrt":7238,"ĠBeam":7239,"Ġehemal":7240,"Ġerhe":7241,"bart":7242,"ki":7243,"Ġblind":7244,"WÃ¼rden":7245,"Ġohn":7246,"ĠStÃ¼cke":7247,"Ġwitzig":7248,"ĠMay":7249,"zend":7250,"zÃ¼ge":7251,"ĠChin":7252,"ĠGriff":7253,"amb":7254,"eignet":7255,"werke":7256,"gleichen":7257,"Ġliest":7258,"ĠLaut":7259,"undern":7260,"Brau":7261,"Lang":7262,"Ġlagen":7263,"Ġpsych":7264,"gedacht":7265,"ĠTerror":7266,"Sollte":7267,"kommst":7268,"Ġausgeb":7269,"ĠTempel":7270,"Ġverhaf":7271,"Te":7272,"Ġergeben":7273,"ji":7274,"Gerade":7275,"adies":7276,"IK":7277,"Ġerfunden":7278,"fahrer":7279,"Ġeinger":7280,"ĠMuseum":7281,"ĠEinheit":7282,"ĠBaron":7283,"ĠStÃ¤dte":7284,"Ġabholen":7285,"ĠInner":7286,"ĠHimmels":7287,"Ã¼ter":7288,"lieÃŁ":7289,"Ġerfolgreich":7290,"Ġwette":7291,"Ġunend":7292,"mÃ¤h":7293,"ĠUnterstÃ¼tzung":7294,"ĠThÃ¼r":7295,"ĠFahrer":7296,"ĠGep":7297,"ĠwÃ¤chst":7298,"ĠglÃ¤nzen":7299,"treffen":7300,"Ġarbeitete":7301,"ĠDIE":7302,"Ġausgesch":7303,"uar":7304,"Ġnehm":7305,"ĠDenk":7306,"ĠFranzosen":7307,"ĠZivil":7308,"ĠdrÃ¼cken":7309,"ĠHosen":7310,"Stimmen":7311,"ĠRichtige":7312,"DEN":7313,"abeth":7314,"ĠAbschluss":7315,"REI":7316,"pril":7317,"Ġgetragen":7318,"Ġ70":7319,"din":7320,"ĠStolz":7321,"ĠAnzug":7322,"eman":7323,"Ġverkl":7324,"Ġthun":7325,"Ġriecht":7326,"Ġdaneben":7327,"Pf":7328,"Ġschrie":7329,"opfen":7330,"ĠRose":7331,"Ġbeantw":7332,"Ġklappt":7333,"ĠStad":7334,"Ġvermisst":7335,"anstalt":7336,"nie":7337,"ĠJean":7338,"igungen":7339,"kerl":7340,"ĠLÃ¶wen":7341,"ĠSpanien":7342,"eigung":7343,"Gestern":7344,"Ġsonder":7345,"spart":7346,"Ġmittler":7347,"En":7348,"Wollt":7349,"Cl":7350,"ĠTel":7351,"ĠÃ¼bers":7352,"bli":7353,"willst":7354,"ĠIndien":7355,"gers":7356,"umente":7357,"bad":7358,"passt":7359,"Ã¶rm":7360,"ĠKlassen":7361,"Ã¼stere":7362,"aby":7363,"ĠgenieÃŁen":7364,"Ġechter":7365,"Ġgeplant":7366,"Allerdings":7367,"Ġaktiv":7368,"ĠSklaven":7369,"ĠHab":7370,"ĠverlieÃŁ":7371,"UM":7372,"Ġsozi":7373,"ĠTeller":7374,"niÃŁ":7375,"wissen":7376,"ĠLÃ¤rm":7377,"Ġbegraben":7378,"ĠIdioten":7379,"view":7380,"ĠKeine":7381,"ĠEw":7382,"oc":7383,"wechsel":7384,"Ġgewohnt":7385,"ĠMary":7386,"ĠLuc":7387,"Jul":7388,"ĠLohn":7389,"Ġbesucht":7390,"DaÃŁ":7391,"fiel":7392,"ĠUnsinn":7393,"Eben":7394,"Ġirgendetwas":7395,"rist":7396,"Vielen":7397,"flich":7398,"Ġseuf":7399,"Ġehren":7400,"Ġtelefon":7401,"wj":7402,"ĠKro":7403,"urr":7404,"Ġhandeln":7405,"IER":7406,"ĠSchwie":7407,"Ġzeit":7408,"ĠBÃ¤ren":7409,"Ġdenselben":7410,"Ġspez":7411,"Ġchines":7412,"ĠgrÃ¶ÃŁere":7413,"GroÃŁ":7414,"Ġgesamte":7415,"ĠWichtig":7416,"Ġ198":7417,"eidigt":7418,"Ġbricht":7419,"OT":7420,"Ġdunk":7421,"Ġbrennen":7422,"Ġbegegnet":7423,"ĠKiste":7424,"scheinend":7425,"Moment":7426,"Ġaufnehmen":7427,"ĠHauptstadt":7428,"ĠWurz":7429,"beweg":7430,"ierungs":7431,"ĠEsel":7432,"ĠBevÃ¶lkerung":7433,"Ġbeenden":7434,"ĠTÃ¼ren":7435,"fers":7436,"iebte":7437,"Ġwillen":7438,"ScheiÃŁe":7439,"ouv":7440,"Ġtrage":7441,"halte":7442,"ĠDsch":7443,"rÃ¤umen":7444,"vielleicht":7445,"Ġlachte":7446,"leiden":7447,"ĠOffizier":7448,"iqu":7449,"ender":7450,"ĠWeil":7451,"ĠUmgebung":7452,"13":7453,"ndung":7454,"ildern":7455,"ĠauÃŁerhalb":7456,"ĠBetrieb":7457,"ĠHÃ¼gel":7458,"Ġsowohl":7459,"Ġausgel":7460,"ĠVerzei":7461,"ĠHeraus":7462,"ĠHandel":7463,"Ġsprang":7464,"ĠFeuerwehr":7465,"inc":7466,"Ġextra":7467,"ĠSchein":7468,"artigen":7469,"schrank":7470,"holz":7471,"Junge":7472,"Ġdauernd":7473,"loser":7474,"ĠauÃŁen":7475,"ĠGerÃ¤usch":7476,"Beide":7477,"kreis":7478,"Ġintern":7479,"indert":7480,"ĠkÃ¶nig":7481,"Ġdahinter":7482,"ippe":7483,"Ġkennengelernt":7484,"ĠArbeiten":7485,"ĠTrauer":7486,"ĠSchwarz":7487,"Zeig":7488,"Ġgehor":7489,"ĠStÃ¤rke":7490,"Ġvorl":7491,"rer":7492,"elnd":7493,"andlung":7494,"Ġ45":7495,"ĠKab":7496,"ĠKritik":7497,"Ġbreit":7498,"Geb":7499,"Ġlas":7500,"Zieh":7501,"Ġko":7502,"ĠEntfern":7503,"bogen":7504,"Ġstarken":7505,"Entschuldigen":7506,"Ġjenem":7507,"Is":7508,"ĠFrÃ¼hling":7509,"ierend":7510,"Ġangenommen":7511,"mond":7512,"Ġgeworfen":7513,"Ġzwanzig":7514,"ĠFried":7515,"leb":7516,"ĠRechnung":7517,"lied":7518,"attet":7519,"ĠOtt":7520,"ĠGewicht":7521,"Ã¼se":7522,"ĠMaxe":7523,"Mad":7524,"achtete":7525,"Guck":7526,"ĠBox":7527,"ektion":7528,"kannst":7529,"Ġschmal":7530,"Ġauftau":7531,"ĠFerne":7532,"ĠStall":7533,"ura":7534,"ahre":7535,"FÃ¼nf":7536,"Ġfolgte":7537,"merksam":7538,"ĠFiguren":7539,"ĠMath":7540,"ĠKonzert":7541,"lÃ¤nder":7542,"ĠerklÃ¤rte":7543,"wollen":7544,"ivid":7545,"ĠGegenwart":7546,"Ġdreck":7547,"Ġentstanden":7548,"ĠDiese":7549,"Ġausgest":7550,"Ph":7551,"Ġras":7552,"ĠBeweise":7553,"ĠSozial":7554,"voller":7555,"ĠgegrÃ¼":7556,"Ġgezwungen":7557,"lepp":7558,"Wirklich":7559,"Ġbesprechen":7560,"fisch":7561,"erken":7562,"Ġspazieren":7563,"ĠBeginn":7564,"Lachen":7565,"iat":7566,"ĠMatt":7567,"une":7568,"Ġgriech":7569,"ĠJust":7570,"ĠGrÃ¼n":7571,"stuhl":7572,"ĠHass":7573,"ĠverÃ¶":7574,"Ġverspreche":7575,"ĠMusch":7576,"spiele":7577,"ĠerfÃ¼llen":7578,"Ġerkennt":7579,"Ġabsol":7580,"ĠMitglied":7581,"ĠVergleich":7582,"rumm":7583,"Ġerstes":7584,"ĠGruppen":7585,"sd":7586,"ĠgÃ¼nst":7587,"Ġvorgestellt":7588,"ĠMedik":7589,"Ġgaben":7590,"Frauen":7591,"ĠCamp":7592,"ĠHeer":7593,"ĠJuli":7594,"ĠStimmengewirr":7595,"leitet":7596,"KÃ¶nnten":7597,"Ġverpf":7598,"istische":7599,"zugehen":7600,"Ġverbrei":7601,"ĠgetrÃ¤umt":7602,"Dich":7603,"gott":7604,"Ġschenken":7605,"ĠursprÃ¼n":7606,"Ġzitter":7607,"olgt":7608,"Ġbeobachten":7609,"Solche":7610,"ĠSpezial":7611,"Ġnackt":7612,"ĠBra":7613,"Ġesse":7614,"ĠSpiele":7615,"sack":7616,"Ġgrosse":7617,"Ġbesonderen":7618,"Ġerr":7619,"ĠER":7620,"Ġumgehen":7621,"aktiv":7622,"Ġmenschlichen":7623,"Ġlinken":7624,"stoÃŁen":7625,"Ġvermutlich":7626,"sal":7627,"ĠHirn":7628,"ĠPiz":7629,"ĠSchulden":7630,"Ġlautet":7631,"emann":7632,"Ġerre":7633,"Ġbesitzen":7634,"Ġbegonnen":7635,"ĠKlappe":7636,"serv":7637,"stÃ¤ndnis":7638,"Ġbefreien":7639,"EU":7640,"Ġeinziges":7641,"ĠEingang":7642,"ptember":7643,"Ã¤ll":7644,"Ã¤mpfen":7645,"ĠÃ¼berzeugen":7646,"ĠMilliar":7647,"ĠmÃ¤chtig":7648,"fle":7649,"Ġbietet":7650,"ĠeuropÃ¤":7651,"fent":7652,"ĠvorwÃ¤rts":7653,"Ġstarr":7654,"ĠFlÃ¼cht":7655,"jÃ¤hrigen":7656,"merzen":7657,"Ġgrausam":7658,"Ġhindurch":7659,"Ã¶pft":7660,"ĠAN":7661,"weiÃŁt":7662,"ĠThron":7663,"gibt":7664,"plo":7665,"ĠOs":7666,"Ġbesitzt":7667,"opft":7668,"ĠFÃ¼rsten":7669,"ĠWall":7670,"ĠEnglÃ¤nder":7671,"ĠBezirk":7672,"ĠÃĦgyp":7673,"wendung":7674,"Bringen":7675,"ĠZwer":7676,"Allein":7677,"ĠGrÃ¼nde":7678,"ĠNahrung":7679,"Ġweint":7680,"ĠFred":7681,"ĠVerfÃ¼":7682,"ĠKindheit":7683,"MÃ¤nner":7684,"Ġsitze":7685,"ĠAnzahl":7686,"Ġunn":7687,"Ġpeinlich":7688,"Ġgrad":7689,"Ġunmittel":7690,"Vier":7691,"Ġfremden":7692,"Ġhung":7693,"Ġhing":7694,"ĠBÃ¶se":7695,"ĠMac":7696,"ehnsucht":7697,"ĠZer":7698,"ĠPrinzip":7699,"Ġprodu":7700,"Freund":7701,"emat":7702,"Ġbestellt":7703,"eistert":7704,"ĠZeich":7705,"ĠScheid":7706,"rak":7707,"Ã¤tsel":7708,"istenz":7709,"Ġromant":7710,"Ġgebrauchen":7711,"waschen":7712,"Ã¤cher":7713,"Ġunheim":7714,"ĠCent":7715,"Ġwobei":7716,"ĠhinÃ¼ber":7717,"igungs":7718,"Ġnachgedacht":7719,"ĠHy":7720,"Ġsollt":7721,"uellen":7722,"Ġwaschen":7723,"ĠStille":7724,"ĠUrteil":7725,"ĠBach":7726,"Ġkomplett":7727,"lÃ¤nd":7728,"nant":7729,"ĠFlor":7730,"Ġbeobachtet":7731,"Ġmanchen":7732,"ĠKammer":7733,"Ġheftig":7734,"Ġwesent":7735,"Ġverurs":7736,"Ġtrinkt":7737,"ĠWilliam":7738,"ĠerzÃ¤hle":7739,"bank":7740,"Ġmitgenommen":7741,"Ġkurzen":7742,"elben":7743,"jÃ¤hrige":7744,"gÃ¼ltig":7745,"Th":7746,"ĠBuchst":7747,"Ġgeholt":7748,"De":7749,"immy":7750,"Ġpfl":7751,"Ġlanden":7752,"ĠEmm":7753,"ĠHÃ¼hner":7754,"trei":7755,".--":7756,"Kurz":7757,"Ġnass":7758,"Schn":7759,"Ġmed":7760,"ĠErb":7761,"ĠPie":7762,"Ġdazwischen":7763,"obil":7764,"sprache":7765,"gling":7766,"schritt":7767,"ace":7768,"van":7769,"Erinner":7770,"ates":7771,"Ã¤fer":7772,"arb":7773,"Haupt":7774,"ĠJacke":7775,"ĠÃ¼berprÃ¼":7776,"ĠProbe":7777,"Ġverlangen":7778,"gnor":7779,"echselt":7780,"ĠTieren":7781,"Ã¼nscht":7782,"ĠHenry":7783,"ĠOperation":7784,"ĠMaterial":7785,"Ġentkommen":7786,"PlÃ¶tzlich":7787,"wahl":7788,"ĠPen":7789,"ĠNor":7790,"ĠLandschaft":7791,"sprung":7792,"ĠGeistes":7793,"gy":7794,"Ġitalien":7795,"Ġechten":7796,"Ġkrit":7797,"ĠVorschlag":7798,"Ġ196":7799,"Ġrichtiger":7800,"Hand":7801,"hington":7802,"Ġausgehen":7803,"ĠDoppel":7804,"ĠhÃ¼bsche":7805,"ĠMÃ¼nchen":7806,"lungs":7807,"tum":7808,"ĠSchnell":7809,"Ġdieselben":7810,"ĠBeziehungen":7811,"ĠReiter":7812,"ĠDeutsch":7813,"ladung":7814,"Ã¼ht":7815,"rÃ¼che":7816,"ĠFolgen":7817,"schuhe":7818,"gewicht":7819,"ĠSing":7820,"ĠBergen":7821,"Ġaufmerksam":7822,"ĠBrille":7823,"Ġenden":7824,"imen":7825,"ĠAgent":7826,"astian":7827,"ĠGerechtigkeit":7828,"Ġbehandeln":7829,"Ġschlechten":7830,"ĠParl":7831,"ĠStudenten":7832,"Davon":7833,"ĠSem":7834,"Ġbequem":7835,"Ġvertraut":7836,"Ġwein":7837,"ĠSchuh":7838,"Ġbeten":7839,"ĠSheriff":7840,"ston":7841,"ĠZit":7842,"Ġantworten":7843,"Ġwest":7844,"emo":7845,"Ġstreiten":7846,"ynam":7847,"gelaufen":7848,"ĠBan":7849,"stecken":7850,"Ġworauf":7851,"ĠKurz":7852,"ams":7853,"Ġ197":7854,"Char":7855,"ĠBogen":7856,"ĠvollstÃ¤ndig":7857,"ĠMedien":7858,"ĠHexe":7859,"ĠZuschauer":7860,"rauch":7861,"lopfen":7862,"eutnant":7863,"Ġsprachen":7864,"ĠÃ¼berraschen":7865,"ĠWit":7866,"Ã¤tzt":7867,"Ġspielst":7868,"ĠBullen":7869,"Ã¤ssig":7870,"cc":7871,"leiten":7872,"ĠFrucht":7873,"lant":7874,"ĠHeu":7875,"ĠAusland":7876,"Leg":7877,"Ġhielten":7878,"ĠNebel":7879,"ĠKlima":7880,"Ġdunklen":7881,"uel":7882,"Ġbitter":7883,"ĠEinfluss":7884,"aw":7885,"Ġbeendet":7886,"Fast":7887,"ĠKÃ¼hl":7888,"ĠTar":7889,"Ġred":7890,"imon":7891,"Ġheimlich":7892,"Ġschicke":7893,"Ġprobieren":7894,"gebiet":7895,"ĠKompl":7896,"......":7897,"Car":7898,"Ġversteh":7899,"ĠHÃ¶hle":7900,"ĠPrinzen":7901,"uz":7902,"ĠDisk":7903,"ĠErlaubnis":7904,"ĠlÃ¤cherlich":7905,"hilfe":7906,"Ġentlassen":7907,"ĠKredit":7908,"ubschrau":7909,"ĠHan":7910,"Ġgross":7911,"ĠBlÃ¶d":7912,"ĠErdbe":7913,"Ġzeich":7914,"rÃ¤ter":7915,"rang":7916,"Ġabgel":7917,"ĠQuelle":7918,"Ġkomp":7919,"ĠSchaf":7920,"ish":7921,"Ã¼nkt":7922,"ĠGeduld":7923,"Hinter":7924,"ĠVernunft":7925,"ĠWich":7926,"ĠGedÃ¤cht":7927,"ĠSchrank":7928,"Ġfliehen":7929,"ĠerhÃ¤lt":7930,"Ġeinzelne":7931,"Ġschade":7932,"Ġweich":7933,"jo":7934,"sage":7935,"tere":7936,"eis":7937,"Ã¼chte":7938,"ĠAufent":7939,"ĠunterstÃ¼tzen":7940,"ĠChaos":7941,"utze":7942,"Ġbeein":7943,"ĠBereich":7944,"ĠReis":7945,"ACHT":7946,"ĠKons":7947,"mÃ¤hlich":7948,"eift":7949,"Ġbezeichnet":7950,"ĠCity":7951,"ĠhÃ¶chsten":7952,"ĠTrot":7953,"aps":7954,"ĠTeppich":7955,"Frei":7956,"ĠHoll":7957,"ĠOberst":7958,"Kennst":7959,"ĠAussicht":7960,"ĠSind":7961,"Ġbeschissen":7962,"usstsein":7963,"getan":7964,"Wozu":7965,"Ġverhaftet":7966,"Gem":7967,"ĠMannschaft":7968,"ĠMetho":7969,"ĠErden":7970,"handlung":7971,"IM":7972,"Ġwagen":7973,"ielle":7974,"ĠInstr":7975,"Zie":7976,"ĠtrÃ¤um":7977,"ails":7978,"Ġatmet":7979,"ĠMÃ¶glichkeiten":7980,"Ġunangen":7981,"ĠschÃ¶nste":7982,"ĠMetall":7983,"ĠVerfÃ¼gung":7984,"ĠPhilosoph":7985,"Ġdisk":7986,"Ġned":7987,"ĠPra":7988,"ĠLeon":7989,"SchlieÃŁlich":7990,"Ruf":7991,"schaf":7992,"ĠFe":7993,"irge":7994,"Ġsech":7995,"ĠHat":7996,"ilber":7997,"ella":7998,"ration":7999,"adet":8000,"Ã¼hrung":8001,"ĠKern":8002,"Ġschwerer":8003,"swert":8004,"burger":8005,"ĠÃ¤ndert":8006,"kul":8007,"Ġgehei":8008,"ĠSpuren":8009,"aku":8010,"Ġmerkt":8011,"gesicht":8012,"ĠFinanz":8013,"ĠHom":8014,"ĠOze":8015,"zusagen":8016,"Bringt":8017,"AB":8018,"fan":8019,"ĠMau":8020,"low":8021,"chtes":8022,"verb":8023,"Ġgeschaffen":8024,"Denken":8025,"ĠToilette":8026,"Beg":8027,"raut":8028,"ĠMitleid":8029,"ĠDeutsche":8030,"ĠGegenstand":8031,"ĠÃĦrzte":8032,"mordet":8033,"JÃ¤hr":8034,"Diesen":8035,"ĠMami":8036,"inos":8037,"amme":8038,"Ġgerufen":8039,"Ġakt":8040,"ĠSchande":8041,"ĠblÃ¶de":8042,"nimmt":8043,"ode":8044,"Ġblieben":8045,"ĠApril":8046,"ĠInnen":8047,"Ġlege":8048,"bi":8049,"morgen":8050,"upp":8051,"ĠFieber":8052,"igend":8053,"ĠÃ¼berlassen":8054,"ĠVersprechen":8055,"ĠMÃ¤rz":8056,"Menschen":8057,"tuch":8058,"gab":8059,"gels":8060,"Ã¼rzt":8061,"Ã¤lter":8062,"Ġklingelt":8063,"SP":8064,"ĠstÃ¶rt":8065,"ĠschÃ¤tzen":8066,"ĠZorn":8067,"icke":8068,"Ġfolgenden":8069,"ubschrauber":8070,"va":8071,"ĠbrÃ¤":8072,"ĠAusgang":8073,"ancen":8074,"Ġinnen":8075,"ĠComm":8076,"stellten":8077,"Ġangeht":8078,"Ġtreibt":8079,"ĠPrem":8080,"Ġ90":8081,"atschen":8082,"Ġlebten":8083,"sag":8084,"stru":8085,"lieÃŁen":8086,"Ġtapfer":8087,"zahlen":8088,"ĠVic":8089,"otter":8090,"ĠOk":8091,"ĠungewÃ¶hn":8092,"Ġhasst":8093,"Ġzogen":8094,"Ġposit":8095,"ĠMy":8096,"Ġerlauben":8097,"ĠVol":8098,"leger":8099,"ĠII":8100,"ĠgewÃ¶hnt":8101,"ĠMike":8102,"ĠSant":8103,"ĠverstÃ¤nd":8104,"Ġsolch":8105,"ZT":8106,"ĠBienen":8107,"ĠFliegen":8108,"Ġlernt":8109,"Ġstehlen":8110,"ĠmÃ¶glichst":8111,"ĠHerzens":8112,"ĠSaal":8113,"WÃ¼rde":8114,"ĠMajor":8115,"Irgendwann":8116,"ĠspÃ¼ren":8117,"ĠRud":8118,"usste":8119,"Ã¤nzer":8120,"Ġsprichst":8121,"zutage":8122,"Ġdi":8123,"Schatz":8124,"ĠverlÃ¤sst":8125,"ĠhÃ¶chste":8126,"ĠGepÃ¤ck":8127,"Ġermordet":8128,"stÃ¼cke":8129,"ĠfranzÃ¶sischen":8130,"haar":8131,"eiger":8132,"ĠBir":8133,"ĠHitze":8134,"ternacht":8135,"ĠfÃ¼rchten":8136,"Ġhinterlassen":8137,"ula":8138,"utet":8139,"ody":8140,"Ġverstand":8141,"ĠBibel":8142,"ĠMale":8143,"And":8144,"Setz":8145,"ĠDol":8146,"ietschen":8147,"nappt":8148,"sind":8149,"Ġfeier":8150,"ĠBist":8151,"rucht":8152,"ĠProvin":8153,"falt":8154,"richtig":8155,"ĠLog":8156,"line":8157,"Ġlhnen":8158,"ĠVerlust":8159,"Ġpraktisch":8160,"Ġmitkommen":8161,"otion":8162,"onel":8163,"ehnten":8164,"ischof":8165,"ĠBildung":8166,"ĠTut":8167,"ĠCal":8168,"Ġentsteht":8169,"ffel":8170,"ruder":8171,"Ġeurem":8172,"Ġhassen":8173,"Jack":8174,"ĠGnade":8175,"Offen":8176,"Ã¤tte":8177,"ĠCarol":8178,"ĠBlock":8179,"Ġwirft":8180,"ĠLÃ¼gen":8181,"denk":8182,"ĠRay":8183,"ĠBeob":8184,"ĠWor":8185,"Beh":8186,"uppe":8187,"ente":8188,"ĠkÃ¶rper":8189,"ĠWÃ¤l":8190,"ĠTurn":8191,"ĠAnwesen":8192,"sident":8193,"SS":8194,"ĠCas":8195,"ĠWerke":8196,"ANN":8197,"Or":8198,"ĠDeb":8199,"ĠberÃ¼hrt":8200,"Ġerschienen":8201,"Ġbetrachten":8202,"ĠTV":8203,"Ġkonntest":8204,"Ġschneiden":8205,"ĠunglÃ¼cklich":8206,"Ġgemalt":8207,"ĠÃ¼berlebt":8208,"ĠVerk":8209,"Ġwechseln":8210,"Ġwiedersehen":8211,"ĠVorsicht":8212,"bungen":8213,"hrlich":8214,"ĠSÃ¼ÃŁ":8215,"ĠRÃ¼ckkehr":8216,"ĠBehÃ¶r":8217,"Ġverteidigen":8218,"Ġenglischen":8219,"woch":8220,"ĠVÃ¶lker":8221,"iforn":8222,"ĠSm":8223,"ĠMess":8224,"Ġaufstehen":8225,"astik":8226,"fÃ¤lt":8227,"kuchen":8228,"ampf":8229,"Ã¤den":8230,"Ã¶ÃŁt":8231,"ĠWicht":8232,"Ã¤gen":8233,"sper":8234,"Ġgeschossen":8235,"ĠTheil":8236,"Ġlocker":8237,"bein":8238,"ĠIll":8239,"ĠTÃ¶chter":8240,"ĠenttÃ¤uscht":8241,"wenden":8242,"Ġstimm":8243,"ĠFriedrich":8244,"Ġsterbe":8245,"ĠChristus":8246,"gruppe":8247,"Ġrauchen":8248,"ĠMosk":8249,"Ġwozu":8250,"Ã¼cke":8251,"Ġatmen":8252,"ĠSendung":8253,"ĠKid":8254,"bares":8255,"Entweder":8256,"ĠDunkelheit":8257,"Ġerwiderte":8258,"GrÃ¼":8259,"rede":8260,"Ġabger":8261,"gehÃ¶r":8262,"mon":8263,"ĠNar":8264,"rey":8265,"weist":8266,"ĠkÃ¼mmere":8267,"gÃ¤nger":8268,"ĠRÃ¤":8269,"Ġgelten":8270,"Ġextrem":8271,"Ġbege":8272,"ĠKindes":8273,"ĠMitarbeiter":8274,"eligi":8275,"ĠFrosch":8276,"rian":8277,"Ġbrit":8278,"Frank":8279,"ĠAnh":8280,"Ġhingehen":8281,"ĠUnterhaltung":8282,"ĠSÃ¼ÃŁe":8283,"San":8284,"asste":8285,"ĠFormen":8286,"spiels":8287,"Ġgegenseitig":8288,"ĠParlament":8289,"EM":8290,"ĠSÃ¶hne":8291,"ĠKrone":8292,"reicher":8293,"ĠGir":8294,"Ġsogleich":8295,"ĠLud":8296,"ĠCharles":8297,"UT":8298,"dert":8299,"ĠReicht":8300,"ĠSchmuck":8301,"ĠTechnik":8302,"system":8303,"ĠbefÃ¼r":8304,"ĠgrÃ¼ne":8305,"cHFFFFFF":8306,"ĠKonk":8307,"prob":8308,"eta":8309,"ĠTafel":8310,"Ġwovon":8311,"ĠOktober":8312,"ĠBlume":8313,"ĠLieber":8314,"bu":8315,"ĠSÃ¤nger":8316,"Ġschie":8317,"AND":8318,"Ġbemerkte":8319,"Ġgrat":8320,"ĠTab":8321,"ĠViel":8322,"Ġfrische":8323,"ĠJac":8324,"ĠBombe":8325,"iga":8326,"ehrten":8327,"anzer":8328,"ĠsaÃŁen":8329,"stimmen":8330,"ĠSeil":8331,"Ġaufmachen":8332,"Ġnenne":8333,"ĠSuppe":8334,"geschlagen":8335,"Werden":8336,"ĠPapiere":8337,"Ġeilig":8338,"Ġbester":8339,"ĠBedÃ¼rf":8340,"krank":8341,"Ġbehaupten":8342,"Ġamerikanischen":8343,"mein":8344,"ily":8345,"ĠwÃ¼nscht":8346,"ĠhÃ¤tt":8347,"Ġbekannte":8348,"zÃ¼g":8349,"Ġverfolgen":8350,"enken":8351,"rim":8352,"ĠKate":8353,"Ġpolitischen":8354,"ĠKette":8355,"Bed":8356,"ochten":8357,"ING":8358,"deckte":8359,"Mart":8360,"ĠSehnsucht":8361,"ĠMi":8362,"Ġtrink":8363,"maÃŁ":8364,"Ġkat":8365,"ĠSchrecken":8366,"ĠWashington":8367,"phen":8368,"ĠSab":8369,"ĠbÃ¶sen":8370,"ĠWÃ¶rter":8371,"ĠProt":8372,"gesucht":8373,"ĠKnaben":8374,"ichen":8375,"ĠMasse":8376,"Ġherz":8377,"Reg":8378,"ĠzurÃ¼ckkehren":8379,"ĠRuhm":8380,"ĠRÃ¶mer":8381,"ĠVerhÃ¤ltnis":8382,"ĠGrÃ¤fin":8383,"ĠRisiko":8384,"25":8385,"Ġentz":8386,"Ġfunktionieren":8387,"Ġelf":8388,"Ġkennenlernen":8389,"ĠTrad":8390,"ĠUmstÃ¤nden":8391,"Ġumf":8392,"ĠUrsache":8393,"ĠStrecke":8394,"Ġprof":8395,"Zwischen":8396,"Ed":8397,"Ġanstren":8398,"Besch":8399,"ahm":8400,"ĠFaust":8401,"apie":8402,"Tom":8403,"ĠFan":8404,"ĠVolkes":8405,"Ġangesch":8406,"iform":8407,"ĠFell":8408,"ĠNat":8409,"Ġon":8410,"ieter":8411,"ĠUnrecht":8412,"Ġschar":8413,"erstoff":8414,"ĠbenÃ¶t":8415,"Hu":8416,"Ġschlage":8417,"ĠSeptember":8418,"Ġzweit":8419,"ĠKnast":8420,"ĠprÃ¤cht":8421,"Ġlernte":8422,"Ã¼mmert":8423,"kungen":8424,"ĠGouv":8425,"isieren":8426,"lauen":8427,"ission":8428,"Ġeinziger":8429,"asi":8430,"ĠZirk":8431,"Ġdaheim":8432,"rocken":8433,"nes":8434,"ĠEmpfang":8435,"Ġ29":8436,"ĠOrte":8437,"gien":8438,"sollen":8439,"ĠSchloÃŁ":8440,"ĠMitglieder":8441,"ĠSonder":8442,"inchen":8443,"orry":8444,"ĠVerlo":8445,"Ġwissenschaft":8446,"utsch":8447,"ĠschÃ¶nsten":8448,"ĠAtom":8449,"Neben":8450,"sichts":8451,"ĠschlieÃŁt":8452,"ĠprÃ¤sent":8453,"ford":8454,"ĠKrebs":8455,"Ġwandte":8456,"Ġverzeihen":8457,"ĠHÃ¤u":8458,"erner":8459,"Ġsto":8460,"ĠwofÃ¼r":8461,"Ġbrachten":8462,"iana":8463,"Ġgrauen":8464,"The":8465,"ĠSl":8466,"ĠAchtung":8467,"Ġeinverstanden":8468,"ĠApplaus":8469,"ĠDra":8470,"ingern":8471,"ĠRealitÃ¤t":8472,"imer":8473,"amente":8474,"anlage":8475,"geschrieben":8476,"sÃ¤":8477,"ckst":8478,"losigkeit":8479,"ĠSignal":8480,"ĠErgebnis":8481,"ĠLieder":8482,"Ġeifers":8483,"Ġschaffst":8484,"Ġfeind":8485,"Ġmil":8486,"ĠHaben":8487,"ĠMitternacht":8488,"ĠStraf":8489,"Ġgelangen":8490,"Ġeinladen":8491,"Ġinteressieren":8492,"ĠHammer":8493,"ĠHasen":8494,"Ġentstehen":8495,"bewerb":8496,"Ġgez":8497,"Ġtoller":8498,"wein":8499,"okratie":8500,"ĠEU":8501,"Ã¤nke":8502,"Ġenthalten":8503,"Ġgemerkt":8504,"ĠBehandlung":8505,"bliothek":8506,"NÃ¤ch":8507,"achel":8508,"bef":8509,"ĠZoo":8510,"Ġheisst":8511,"ĠSchlafzimmer":8512,"Ġmerkte":8513,"Ġill":8514,"Waren":8515,"ĠnÃ¶r":8516,"Ã¤hm":8517,"ĠEinwohner":8518,"ĠWeiber":8519,"ampen":8520,"ĠBefehle":8521,"ĠSchlampe":8522,"ĠOlymp":8523,"ĠMass":8524,"ĠGau":8525,"treiben":8526,"dlichen":8527,"bekommen":8528,"ĠUl":8529,"wieder":8530,"umpen":8531,"ĠHeirat":8532,"Ġblickte":8533,"Ã¼stert":8534,"Ġreparieren":8535,"ĠerhÃ¶":8536,"kriegt":8537,"ĠSternen":8538,"ĠTiefe":8539,"ĠBedingungen":8540,"anna":8541,"Ġsolches":8542,"ĠmuÃŁten":8543,"ĠEwigkeit":8544,"ĠMahl":8545,"ĠBrÃ¤":8546,"ĠZÃ¼ge":8547,"ferenz":8548,"ĠGewinn":8549,"ĠAndre":8550,"ex":8551,"Ġnutz":8552,"-,":8553,"Besser":8554,"Ġrichten":8555,"ĠBlitz":8556,"ĠDiam":8557,"Ã¤rchen":8558,"Ã¤lde":8559,"Ġschickte":8560,"anwalt":8561,"ĠHÃ¤usern":8562,"ierer":8563,"Ġfreie":8564,"ativen":8565,"ĠBeinen":8566,"Ġhinge":8567,"Ġmenschliche":8568,"niss":8569,"ulver":8570,"ĠRÃ¤uber":8571,"ĠStÃ¤":8572,"Ġvoran":8573,"ĠAntrag":8574,"ĠÃľberleben":8575,"ĠDez":8576,"Ġerwarte":8577,"Ġjenen":8578,"LICH":8579,"Ġabl":8580,"aÃŁte":8581,"Ġbemerken":8582,"ĠberÃ¼hmt":8583,"Ġbehauptet":8584,"Ġsammeln":8585,"ĠUntersuchung":8586,"ĠElefanten":8587,"ĠBig":8588,"Ġpolitische":8589,"anie":8590,"ĠBa":8591,"Ġangezogen":8592,"euchtet":8593,"Ġangegriffen":8594,"Ġbegeistert":8595,"Ġseitdem":8596,"Ġjederzeit":8597,"ĠGeschenke":8598,"ĠDonnerstag":8599,"worten":8600,"schirm":8601,"ĠKant":8602,"Statt":8603,"ĠFernseher":8604,"nam":8605,"ĠStre":8606,"ĠUmwelt":8607,"marsch":8608,"fleisch":8609,"wunsch":8610,"Ġharm":8611,"ĠVerg":8612,"ordnet":8613,"Ġbescheiden":8614,"ĠSchreiben":8615,"ĠWander":8616,"Ġsoviel":8617,"ĠTommy":8618,"tels":8619,"ĠScherz":8620,"zusetzen":8621,"Ġbetrachtet":8622,"ĠFÃ¼nf":8623,"ĠRam":8624,"Ġsolltet":8625,"Ġdefin":8626,"vel":8627,"Ġflog":8628,"hafter":8629,"ĠModell":8630,"ĠÃ¤uÃŁerst":8631,"ĠTob":8632,"ulieren":8633,"Ġaufgeregt":8634,"sperrt":8635,"Ġentw":8636,"Ġdreimal":8637,"Ġstudiert":8638,"hes":8639,"mund":8640,"ĠOfen":8641,"Ġentschlossen":8642,"muss":8643,"sÃ¤chlich":8644,"ĠRepublik":8645,"gesamt":8646,"Frag":8647,"ĠsÃ¤":8648,"illy":8649,"ĠSpion":8650,"ĠGedÃ¤chtnis":8651,"jemand":8652,"ĠTrans":8653,"ĠMelodie":8654,"Halten":8655,"bergen":8656,"ĠFischer":8657,"ĠRum":8658,"Ġumgeben":8659,"Ġversuch":8660,"ĠAusbildung":8661,"plod":8662,"Sam":8663,"cl":8664,"ĠMassen":8665,"ĠJak":8666,"ĠFÃ¼hrung":8667,"Ġerblick":8668,"ĠRussen":8669,"ĠLÃ¼ge":8670,"ĠmÃ¶ge":8671,"ichern":8672,"lichem":8673,"Ġtanzt":8674,"iese":8675,"aller":8676,"ĠChor":8677,"ĠTrick":8678,"Ġabgeschlossen":8679,"kir":8680,"bringt":8681,"fangs":8682,"Ã¼llte":8683,"Do":8684,"Hilf":8685,"iege":8686,"Ġvernichten":8687,"Ġachten":8688,"ĠWeis":8689,"ĠMaler":8690,"ĠTrag":8691,"ĠQ":8692,"deten":8693,"reffen":8694,"acher":8695,"ĠWechsel":8696,"igstens":8697,"Ġvielmehr":8698,"Ġ36":8699,"ĠGemÃ¼se":8700,"zeichnung":8701,"CE":8702,"lern":8703,"augen":8704,"Ġkost":8705,"igste":8706,"ĠInf":8707,"ĠWeiÃŁen":8708,"ĠGesichter":8709,"gste":8710,"ĠTemperatur":8711,"jagt":8712,"oto":8713,"ĠJahrh":8714,"ĠWÃ¼rde":8715,"ĠMilliarden":8716,"Ã¶ch":8717,"ĠBack":8718,"Stimmengewirr":8719,"Ġhie":8720,"ĠClo":8721,"ĠLux":8722,"zweifelt":8723,"ĠWÃ¤rme":8724,"weiÃŁ":8725,"Ġwichtigen":8726,"ction":8727,"Ġentwickeln":8728,"stande":8729,"ĠJahrhunderts":8730,"ĠBesseres":8731,"Che":8732,"ĠHilf":8733,"ĠKindergarten":8734,"necht":8735,"aly":8736,"ĠIndustrie":8737,"App":8738,"Em":8739,"ake":8740,"ĠSchÃ¤tzchen":8741,"achtel":8742,"ĠfÃ¼hlst":8743,"fÃ¶rm":8744,"ww":8745,"Ġwohne":8746,"ĠLouis":8747,"Ġvergangenen":8748,"ION":8749,"ĠAustr":8750,"fluÃŁ":8751,"Diesmal":8752,"Mensch":8753,"leute":8754,"park":8755,"Ġhob":8756,"ankt":8757,"Ġangenehm":8758,"Ġverlang":8759,"ĠWissenschaftler":8760,"Ġach":8761,"Ã¼pfen":8762,"ĠjÃ¼d":8763,"Ġreligi":8764,"Ġgeklaut":8765,"iente":8766,"ĠFrancis":8767,"Ġproduz":8768,"Ġkompliziert":8769,"ĠverÃ¶ffen":8770,"ĠÃ¶ffnete":8771,"11":8772,"Ġschaffe":8773,"ĠAnfÃ¼hrer":8774,"same":8775,"ĠLaune":8776,"erdigung":8777,"karten":8778,"eral":8779,"ĠZerst":8780,"IA":8781,"Ġausziehen":8782,"Dank":8783,"eus":8784,"ikation":8785,"ĠFreundinnen":8786,"Wohin":8787,"ĠBesitzer":8788,"Ne":8789,"ĠGatt":8790,"Ġallzu":8791,"ped":8792,"ĠGab":8793,"obby":8794,"Meinen":8795,"ĠGeneration":8796,"WÃ¼rdest":8797,"ĠChampagner":8798,"ĠJur":8799,"Gebt":8800,"ĠProduktion":8801,"Ã¶ses":8802,"ummt":8803,"Ġschaute":8804,"MÃ¶chtest":8805,"ĠHonig":8806,"VER":8807,"ĠSamm":8808,"schten":8809,"Ġklass":8810,"gerÃ¤usche":8811,"ĠenthÃ¤lt":8812,"ĠMam":8813,"Ã¶ser":8814,"Oft":8815,"izei":8816,"Ġeinfache":8817,"Ġgelb":8818,"urer":8819,"roht":8820,"Versuch":8821,"unruh":8822,"ĠSche":8823,"utscht":8824,"Ġfremd":8825,"ĠSchokolade":8826,"Ġmoral":8827,"Ġ194":8828,"ĠfrÃ¼heren":8829,"Ġallgemeinen":8830,"ĠÃ¤ngst":8831,"ĠPier":8832,"Christ":8833,"FuÃŁ":8834,"ding":8835,"brach":8836,"folger":8837,"ĠSchweden":8838,"igsten":8839,"ĠSel":8840,"aubt":8841,"aunt":8842,"ĠRegisse":8843,"Best":8844,"gren":8845,"zo":8846,"Ġherauf":8847,"ots":8848,"ĠSpielen":8849,"zufÃ¼hren":8850,"Ã¶die":8851,"Ġ1000":8852,"ĠExplos":8853,"ĠIsrael":8854,"ĠTatsache":8855,"Ġsehn":8856,"ĠSoph":8857,"Ġoffensichtlich":8858,"ĠPuppe":8859,"ĠLabor":8860,"anche":8861,"Ġharte":8862,"ĠGÃ¤n":8863,"ĠSchreck":8864,"krÃ¤fte":8865,"ĠallmÃ¤hlich":8866,"immern":8867,"ĠStrasse":8868,"Ġhoffentlich":8869,"ĠPolen":8870,"Vorsicht":8871,"ĠAUF":8872,"ĠTÃ¼rk":8873,"ĠBrunnen":8874,"ĠSegen":8875,"indel":8876,"ĠSchÃ¤del":8877,"Ġbildet":8878,"ĠBeerdigung":8879,"amilie":8880,"ĠTromm":8881,"Ġverwenden":8882,"DarÃ¼ber":8883,"Ġerkannte":8884,"ĠEuropÃ¤":8885,"ĠKlinik":8886,"ĠBuchstaben":8887,"ĠWÃ¤sche":8888,"ĠLÃ¶ffel":8889,"ĠWarte":8890,"Ġnotwendig":8891,"ĠZirkus":8892,"ĠAnkunft":8893,"Ġverschwindet":8894,"ĠSieger":8895,"produ":8896,"ville":8897,"Ġvergisst":8898,"Wisst":8899,"uen":8900,"yle":8901,"ito":8902,"Ġstrahl":8903,"Hel":8904,"ĠSamen":8905,"Ã¶te":8906,"emm":8907,"ĠParadies":8908,"sieht":8909,"Ġtollen":8910,"ĠBlack":8911,"geschickt":8912,"ĠFuchs":8913,"Kennen":8914,"ĠKÃ¼r":8915,"enseits":8916,"ĠTank":8917,"Ġnette":8918,"ĠkÃ¤me":8919,"ationalen":8920,"Ġwunderbare":8921,"rucken":8922,"Ġ32":8923,"Ġschlief":8924,"namen":8925,"swer":8926,"immst":8927,"ĠSeb":8928,"Ġzwingen":8929,"ĠÃ¼ben":8930,"Ġexistiert":8931,"halter":8932,"ĠBlÃ¼ten":8933,"Ġschwul":8934,"Ġhalf":8935,"Ġgestanden":8936,"Aut":8937,"zumachen":8938,"Ġdunkle":8939,"Ġtrag":8940,"ĠlÃ¼gen":8941,"ĠIdent":8942,"Ġwenden":8943,"ĠPrÃ¼fung":8944,"ĠKÃ¤lte":8945,"ĠNest":8946,"Ġgreifen":8947,"ebru":8948,"ĠFÃ¤llen":8949,"ritten":8950,"uff":8951,"wing":8952,"Ġbestand":8953,"mosphÃ¤re":8954,"Ġsetze":8955,"ĠVorteil":8956,"fliegen":8957,"ĠPolizist":8958,"Ġtechn":8959,"Nee":8960,"ĠBlo":8961,"quenz":8962,"vert":8963,"pfern":8964,"Ġgarant":8965,"paar":8966,"Ġbilde":8967,"ĠFett":8968,"azier":8969,"ĠEreign":8970,"Ġdicken":8971,"ĠGlocken":8972,"Ġfragst":8973,"80":8974,"asser":8975,"Ġzug":8976,"ĠMittelalter":8977,"ĠVerzeihung":8978,"ete":8979,"zel":8980,"chs":8981,"ĠKanz":8982,"ĠKummer":8983,"Ġ000":8984,"Ġpacken":8985,"Ġexplod":8986,"enzen":8987,"leise":8988,"Verzeihung":8989,"ĠEnte":8990,"ĠLehrerin":8991,"Ġherrscht":8992,"ĠScheidung":8993,"ĠJubel":8994,"ĠWeiter":8995,"ĠEbene":8996,"ĠTraining":8997,"MÃ¤dchen":8998,"Ġgekl":8999,"Ġleiten":9000,"Ġjahr":9001,"ischung":9002,"Ġherzlich":9003,"Meister":9004,"ĠStory":9005,"Ġpack":9006,"ĠKÃ¶nigreich":9007,"ĠHeinrich":9008,"ask":9009,"Ġtrinke":9010,"Ġaufgegeben":9011,"ĠFranzÃ¶sisch":9012,"Ġkrei":9013,"Ġbestimmen":9014,"Nehmt":9015,"spieler":9016,"Hoch":9017,"asten":9018,"Ġnack":9019,"Ġzuhause":9020,"ĠAbl":9021,"ĠZelt":9022,"ĠKohlen":9023,"ĠSchultern":9024,"Ġerheben":9025,"ĠPlatten":9026,"ĠAuftritt":9027,"Ihm":9028,"Ã¤mt":9029,"ĠKatastro":9030,"ĠPassag":9031,"ĠSchweigen":9032,"gierig":9033,"Kommst":9034,"ĠRegion":9035,"ĠtÃ¶tet":9036,"Ġsanft":9037,"Ġident":9038,"Ġmehreren":9039,"ĠÃ¶ffentlich":9040,"ĠEurer":9041,"Hm":9042,"ierungen":9043,"Ġangel":9044,"otograf":9045,"ĠFÃ¤lle":9046,"lÃ¶sung":9047,"win":9048,"igst":9049,"Ġzusammenge":9050,"Lhr":9051,"Ġignor":9052,"ĠAst":9053,"gesagt":9054,"car":9055,"Ġtyp":9056,"ĠVerrÃ¤ter":9057,"ĠAlarm":9058,"Ġ189":9059,"stoÃŁ":9060,"ÃŁten":9061,"hÃ¤ngt":9062,"ĠUnschuld":9063,"dien":9064,"Ġtreffe":9065,"Ġdicke":9066,"Ġhistor":9067,"ĠWitze":9068,"leicht":9069,"Ġschlafe":9070,"ĠTrottel":9071,"feuer":9072,"ĠAusnahme":9073,"Ġwichtigsten":9074,"Ġheira":9075,"ichtung":9076,"ĠBÃ¤umen":9077,"ĠZeitungen":9078,"Ġbetrogen":9079,"ĠHolly":9080,"Ġbesseren":9081,"graben":9082,"aat":9083,"eif":9084,"ftigen":9085,"amerika":9086,"ebruar":9087,"ĠInhalt":9088,"stunde":9089,"Ġweisst":9090,"Ġdurchge":9091,"agessen":9092,"imeter":9093,"ĠSegel":9094,"Ġverwandelt":9095,"ĠSicherheits":9096,"Ġperfekte":9097,"Alex":9098,"sprungen":9099,"ĠVerkauf":9100,"ĠGenie":9101,"ble":9102,"Ġnachzu":9103,"warten":9104,"Ġeis":9105,"ĠmerkwÃ¼rdig":9106,"eme":9107,"afr":9108,"ĠGlanz":9109,"ĠgemÃ¼t":9110,"Ã¤hrung":9111,"ZurÃ¼ck":9112,"wjet":9113,"ĠTuch":9114,"Ġklang":9115,"ĠzurÃ¼ckkommen":9116,"AP":9117,"anisch":9118,"Ã¼rt":9119,"ĠUnser":9120,"ĠlÃ¤u":9121,"Ġanhalten":9122,"Ġwartete":9123,"Ġangetan":9124,"ĠGegensatz":9125,"ĠInterview":9126,"Ġbrav":9127,"DR":9128,"Ã¶ten":9129,"ĠLÃ¼":9130,"Ġstudieren":9131,"Gar":9132,"Ġgedreht":9133,"Ġverr":9134,"ĠNic":9135,"ĠOff":9136,"sprecher":9137,"ĠschlÃ¤":9138,"ĠSelbstmord":9139,"astor":9140,"ĠGefangenen":9141,"Ã¼ttern":9142,"ĠGumm":9143,"Ġamerikanische":9144,"ĠNiemand":9145,"Ġforder":9146,"Ã¼rtel":9147,"ĠAnteil":9148,"Ã¶ger":9149,"volles":9150,"lag":9151,"amin":9152,"ĠObst":9153,"ĠCarl":9154,"ĠPosten":9155,"Ġhaupt":9156,"ENT":9157,"ĠJohnny":9158,"ctor":9159,"ĠRoboter":9160,"fred":9161,"Ġverbl":9162,"ĠIns":9163,"ĠQuatsch":9164,"bchen":9165,"ĠWai":9166,"ĠSpielzeug":9167,"ĠFrÃ¼chte":9168,"ĠGrafen":9169,"ĠSchreibt":9170,"ĠHamburg":9171,"ĠWÃ¼nsche":9172,"insel":9173,"ĠAcht":9174,"ĠLeitung":9175,"ippt":9176,"spielsweise":9177,"onien":9178,"istan":9179,"Ġbefand":9180,"Ġwilden":9181,"ScheiÃŁ":9182,"geheuer":9183,"cr":9184,"har":9185,"agn":9186,"Warten":9187,"ĠStudium":9188,"Ġdiskut":9189,"ĠeifersÃ¼chtig":9190,"pass":9191,"aszin":9192,"etisch":9193,"ammte":9194,"acker":9195,"ĠKÃ¶pfe":9196,"Ġberuhigen":9197,"Deut":9198,"ĠFlaschen":9199,"ĠSerge":9200,"Dan":9201,"Ġsuchst":9202,"ĠMauern":9203,"ĠGleiche":9204,"ĠTrink":9205,"ĠVerm":9206,"ĠSÃ¼nde":9207,"ĠgrÃ¶ÃŁeren":9208,"Ã¼bt":9209,"ĠDat":9210,"ĠPolizisten":9211,"vi":9212,"Ġunternehmen":9213,"Ġheiratet":9214,"ĠAf":9215,"spekt":9216,"ĠhÃ¤sslich":9217,"offt":9218,"Ġbeteil":9219,"ĠUniversum":9220,"ĠPak":9221,"Ġnachdenken":9222,"ĠExistenz":9223,"sich":9224,"ĠLetzte":9225,"Ġentstand":9226,"Ġgefiel":9227,"ĠKÃ¶nige":9228,"ĠGroÃŁen":9229,"ĠFremde":9230,"artier":9231,"Ġirr":9232,"osse":9233,"ĠInse":9234,"ĠGeheimnisse":9235,"ammer":9236,"Wirst":9237,"ĠHerausforder":9238,"Schade":9239,"ĠInteressen":9240,"ĠSterben":9241,"ĠDaniel":9242,"Ġdoppelt":9243,"Kom":9244,"Ġide":9245,"ĠCam":9246,"ebe":9247,"Ġausgew":9248,"ĠAnne":9249,"Ã¤rtlich":9250,"ĠErz":9251,"Ġheilige":9252,"oni":9253,"ĠMod":9254,"etzungen":9255,"ption":9256,"ĠSauerstoff":9257,"Ġwilde":9258,"Letz":9259,"schmerzen":9260,"ĠLind":9261,"ĠDieb":9262,"ĠLee":9263,"ĠReihen":9264,"ĠMun":9265,"barer":9266,"Ġmut":9267,"ĠmerkwÃ¼rd":9268,"Ġunterscheiden":9269,"lieder":9270,"handlungen":9271,"Dadurch":9272,"ĠTeddy":9273,"alismus":9274,"Warst":9275,"geschÃ¤ft":9276,"ĠPizza":9277,"stchen":9278,"ĠUntertitel":9279,"ĠGeruch":9280,"licherweise":9281,"Ġverwirrt":9282,"ĠFreuden":9283,"ĠLiteratur":9284,"ĠMiÃŁ":9285,"Ġerhob":9286,"ĠÃ¶ffnet":9287,"sslich":9288,"ĠAnweis":9289,"rise":9290,"ffentlichkeit":9291,"ĠMexiko":9292,"eiche":9293,"row":9294,"ĠStahl":9295,"Ġdesselben":9296,"gerÃ¤t":9297,"Ġangem":9298,"ĠOrchester":9299,"ĠMister":9300,"boy":9301,"nehmer":9302,"Ġero":9303,"ĠFehl":9304,"Ġrette":9305,"ĠRatten":9306,"ĠBewohner":9307,"MÃ¶chten":9308,"ĠÃ¼bergeben":9309,"ĠAbsch":9310,"Ġarbeitest":9311,"ĠDenken":9312,"geist":9313,"Ġerhoben":9314,"osh":9315,"ĠOrigin":9316,"Ġgetrieben":9317,"Ġ150":9318,"ĠTropfen":9319,"hÃ¤user":9320,"Ġbun":9321,"ĠWinkel":9322,"ĠTasse":9323,"ĠHuhn":9324,"Ġprima":9325,"Ã¤ser":9326,"Ġkauft":9327,"Ġerneut":9328,"Ġbefreit":9329,"Ġkontrollieren":9330,"ĠSeine":9331,"Ã¶ck":9332,"Ġzahlt":9333,"Ġfuhren":9334,"ĠMont":9335,"ĠAlexander":9336,"brot":9337,"yan":9338,"ĠhÃ¶chstens":9339,"ĠNovember":9340,"ĠKle":9341,"Ġmitge":9342,"ĠgenÃ¼":9343,"Ġtiefen":9344,"hern":9345,"lager":9346,"ĠFingern":9347,"ĠHauptmann":9348,"ĠÃ¤rger":9349,"film":9350,"ĠGedicht":9351,"ĠsÃ¼ÃŁe":9352,"ĠEntfernung":9353,"xis":9354,"ĠHi":9355,"ua":9356,"ĠThor":9357,"ĠMuster":9358,"wach":9359,"Ã¼re":9360,"ĠPel":9361,"ĠDienstag":9362,"Ġweshalb":9363,"Ġdrehte":9364,"nummer":9365,"eiert":9366,"ruhe":9367,"ĠChristen":9368,"ĠkÃ¤mpft":9369,"Ġreine":9370,"ĠFlammen":9371,"ĠStudien":9372,"ĠMarsch":9373,"ĠgekÃ¤mpft":9374,"gehÃ¶rt":9375,"Ma":9376,"gÃ¤nge":9377,"nungs":9378,"emmt":9379,"Ġform":9380,"Ã¼ren":9381,"Ġgelungen":9382,"ĠBrown":9383,"Ġanerk":9384,"pflicht":9385,"ĠLieben":9386,"Ġherausfinden":9387,"ĠOrganisation":9388,"ittern":9389,"Wasser":9390,"ĠbetrÃ¤":9391,"wich":9392,"ĠPistole":9393,"Ã¼ben":9394,"Ġfaul":9395,"ĠSchwach":9396,"Ġirgendwelche":9397,"wander":9398,"ĠtÃ¤t":9399,"ĠVorder":9400,"ĠÃ¶ffentlichen":9401,"val":9402,"Ġvorzu":9403,"Ins":9404,"ĠPanik":9405,"Ehrlich":9406,"GlÃ¼ck":9407,"ĠSÃ¼nden":9408,"ĠVaterland":9409,"Ġvolle":9410,"ĠSzenen":9411,"ĠBilly":9412,"ĠMur":9413,"egra":9414,"ĠFu":9415,"gericht":9416,"ĠLinien":9417,"ĠSchwarzen":9418,"Ġnirgendwo":9419,"liver":9420,"Ġwinz":9421,"Bahn":9422,"belt":9423,"tun":9424,"Ġfair":9425,"ĠGemÃ¼t":9426,"ĠVerbrecher":9427,"Kaum":9428,"ĠberÃ¼hren":9429,"ĠPhys":9430,"ĠTheorie":9431,"ĠkÃ¼nst":9432,"ĠunabhÃ¤ng":9433,"hole":9434,"Ġblut":9435,"ĠReifen":9436,"ĠFÃ¤higkeiten":9437,"Erinnerst":9438,"hÃ¤ndler":9439,"Ġjenes":9440,"wÃ¼rfe":9441,"ĠKasper":9442,"nehm":9443,"ationale":9444,"ĠJas":9445,"iot":9446,"Ġgiebt":9447,"ĠFuss":9448,"Ġdumme":9449,"Ġverhalten":9450,"uÃŁts":9451,"Fahren":9452,"ec":9453,"lÃ¤sst":9454,"utschen":9455,"Ġrechtzeitig":9456,"ĠQual":9457,"ĠMittagessen":9458,"On":9459,"pers":9460,"Ġlese":9461,"Ġguckt":9462,"richter":9463,"Ġanstatt":9464,"Ġnetter":9465,"ĠGrÃ¼nden":9466,"ĠLiefer":9467,"ati":9468,"Ġneugierig":9469,"ĠHerrschaft":9470,"ĠTin":9471,"ĠSchwimm":9472,"ĠJanuar":9473,"Bar":9474,"ĠWalter":9475,"geblich":9476,"Ġgewisser":9477,"ĠStiefel":9478,"Ġschein":9479,"ĠDate":9480,"laute":9481,"Ã¤dt":9482,"Ġbegreifen":9483,"Ġbeeinfl":9484,"aucht":9485,"ĠEinladung":9486,"Peter":9487,"packen":9488,"hei":9489,"stung":9490,"ĠGetr":9491,"ĠHubschrauber":9492,"ĠTick":9493,"ĠrÃ¼hr":9494,"ĠVON":9495,"ĠMittwoch":9496,"ĠKenn":9497,"ĠLegen":9498,"ĠNÃ¤chte":9499,"Ġintelligen":9500,"atzt":9501,"Ġlecker":9502,"ĠFans":9503,"ehre":9504,"ĠaufgehÃ¶rt":9505,"Ġtoten":9506,"blasen":9507,"ĠBesten":9508,"ĠRebe":9509,"Ã¼llung":9510,"ĠGouverne":9511,"ĠFutter":9512,"Ġspringt":9513,"zwanzig":9514,"Ġchrist":9515,"ĠSchriftsteller":9516,"ĠgÃ¶t":9517,"ĠscheiÃŁe":9518,"Ġimmerhin":9519,"itor":9520,"ĠHorn":9521,"Ġberichtet":9522,"Ġseyn":9523,"Hi":9524,"ĠHumor":9525,"Ġstarten":9526,"Ġtrauen":9527,"ĠKnopf":9528,"ĠWeiÃŁt":9529,"rimin":9530,"iellen":9531,"schalten":9532,"ĠGolf":9533,"ĠDauer":9534,"Ã¼tzlich":9535,"ĠerfÃ¤hrt":9536,"Ġbewir":9537,"ros":9538,"ession":9539,"ĠMail":9540,"Wenigstens":9541,"ĠGib":9542,"ĠForder":9543,"ĠLampe":9544,"ĠEinen":9545,"Ġverkauf":9546,"ĠBewegungen":9547,"ĠmÃ¼ÃŁte":9548,"Wohl":9549,"ĠspÃ¼re":9550,"bilder":9551,"messer":9552,"ĠGanz":9553,"ĠWÃ¶l":9554,"ĠNoch":9555,"ĠÃĸffentlichkeit":9556,"ĠArchite":9557,"ĠKass":9558,"Ġrechnen":9559,"ĠImm":9560,"Ġtanz":9561,"Ġtolles":9562,"Ġleuchten":9563,"ruhen":9564,"ĠhÃ¶rten":9565,"ĠErscheinung":9566,"Ġmutig":9567,"ĠEuren":9568,"ĠLeip":9569,"ĠLehre":9570,"zufinden":9571,"schafter":9572,"schon":9573,"Ã¶pfen":9574,"Ġliefern":9575,"Ã¼ttert":9576,"ĠGerÃ¤t":9577,"ĠPolitiker":9578,"Zus":9579,"onische":9580,"ĠUmstÃ¤nde":9581,"hielt":9582,"Ġgelandet":9583,"ĠSchnitt":9584,"Ġtaten":9585,"Ã¤ttern":9586,"Ġjap":9587,"ĠErsatz":9588,"Ġwurdest":9589,"ĠNeuigkeiten":9590,"Seien":9591,"ĠOder":9592,"ĠvernÃ¼nftig":9593,"brÃ¼":9594,"ĠPech":9595,"hnte":9596,"Ġres":9597,"ĠCat":9598,"Ġerwachte":9599,"ĠMÃ¤use":9600,"amentlich":9601,"ĠfrÃ¶hlich":9602,"ĠHitler":9603,"ĠAnkl":9604,"ĠSchulen":9605,"ĠMoral":9606,"Ġ00":9607,"ĠChic":9608,"nappen":9609,"Ġverpflich":9610,"gei":9611,"ĠAnf":9612,"ĠSpitz":9613,"Ġweitermachen":9614,"zeugung":9615,"Ġoffenen":9616,"ĠPersonal":9617,"wes":9618,"enkt":9619,"Ġsozusagen":9620,"nerin":9621,"ĠSchlangen":9622,"Ġschmerz":9623,"ĠSoll":9624,"Ġfett":9625,"ĠDÃ¶r":9626,"Ġbetreten":9627,"any":9628,"ĠBande":9629,"ĠZusammenhang":9630,"ĠKlaviermusik":9631,"ĠAff":9632,"ĠStress":9633,"ĠElemen":9634,"TEN":9635,"iers":9636,"ĠUkra":9637,"Ġleichte":9638,"Hatte":9639,"Ġeindeut":9640,"ĠAir":9641,"oler":9642,"ĠStÃ¶hnen":9643,"ĠFlag":9644,"Spannende":9645,"ĠKie":9646,"brÃ¤":9647,"Ġbewahren":9648,"ĠPuppen":9649,"ĠSchweizer":9650,"lings":9651,"ĠSaft":9652,"ĠFarm":9653,"Ġ187":9654,"utti":9655,"Ġfantastisch":9656,"ĠDezember":9657,"arter":9658,"ĠAsche":9659,"derben":9660,"legung":9661,"ĠflieÃŁt":9662,"ĠAbends":9663,"Ã¼sst":9664,"Ã¼tten":9665,"kunde":9666,"ĠSchluck":9667,"waltung":9668,"ĠRettungs":9669,"ifornien":9670,"Ġbesiegen":9671,"Ġriechen":9672,"ĠPiraten":9673,"ĠtrÃ¤gst":9674,"Ġgewachsen":9675,"aker":9676,"Ġbegegnen":9677,"ĠVerhÃ¤ltnisse":9678,"ympath":9679,"Ã¼nktlich":9680,"Ġstumm":9681,"ĠbegrÃ¼ÃŁen":9682,"ĠflÃ¼ster":9683,"ĠAffe":9684,"Ġlebst":9685,"bett":9686,"Ġag":9687,"aki":9688,"ĠWohnzimmer":9689,"ĠTrost":9690,"ĠMÃ¼ller":9691,"kÃ¼nd":9692,"Ġbeispielsweise":9693,"ĠVerzwei":9694,"Ġerschaffen":9695,"ĠKameraden":9696,"Ġuntersuchen":9697,"ĠPersÃ¶nlichkeit":9698,"ĠlaÃŁ":9699,"ĠschieÃŁt":9700,"Ġvieler":9701,"Ġeig":9702,"Ġbot":9703,"ĠNig":9704,"kammer":9705,"kod":9706,"wal":9707,"ĠSei":9708,"Ġbaut":9709,"Ġgeschl":9710,"tent":9711,"ĠInvest":9712,"telte":9713,"Ġreiche":9714,"linie":9715,"etit":9716,"halts":9717,"ĠAlp":9718,"stron":9719,"ĠKurve":9720,"Ġrussischen":9721,"ĠBÃ¶":9722,"rest":9723,"ĠentfÃ¼hrt":9724,"ĠAlice":9725,"ĠZigaretten":9726,"Ã¼pft":9727,"ĠunterstÃ¼tzt":9728,"ittet":9729,"ĠCa":9730,"ĠSohnes":9731,"rohliche":9732,"Ġgeheimnis":9733,"ĠerschieÃŁen":9734,"ĠNeue":9735,"Stellen":9736,"AD":9737,"schwei":9738,"ĠZent":9739,"ĠgewÃ¼nscht":9740,"Ġeinkaufen":9741,"Ġgeil":9742,"imml":9743,"eckte":9744,"ĠLebensmittel":9745,"Ġdauerte":9746,"ihr":9747,"ĠKlar":9748,"Ġpassierte":9749,"Ġland":9750,"mensch":9751,"Ġgoldenen":9752,"ĠInstitut":9753,"mod":9754,"vid":9755,"usion":9756,"ĠAtmosphÃ¤re":9757,"ĠMiete":9758,"ĠZwill":9759,"verd":9760,"Wow":9761,"porter":9762,"ĠStation":9763,"Ġ34":9764,"Ġallgemein":9765,"Ġsorgt":9766,"ĠFlo":9767,"Ġtrafen":9768,"Ġbestraft":9769,"ĠerzÃ¤hlst":9770,"zeugt":9771,"redet":9772,"Ġ400":9773,"ĠMÃ¤del":9774,"Ġverurteilt":9775,"arat":9776,"ĠRenn":9777,"ĠSchon":9778,"astet":9779,"ĠSekretÃ¤r":9780,"Ġbeliebt":9781,"ĠBert":9782,"rott":9783,"Ġriesige":9784,"ĠKerle":9785,"Ġsogenannten":9786,"uns":9787,"Ġinn":9788,"ĠSchwÃ¤che":9789,"uldig":9790,"ĠfranzÃ¶sische":9791,"ĠWichtigste":9792,"BE":9793,"Ihnen":9794,"ĠsÃ¤m":9795,"Ġverdr":9796,"BEN":9797,"Voll":9798,"rack":9799,"ierende":9800,"hab":9801,"Ã¤hen":9802,"auff":9803,"Ġherkommen":9804,"Ġunterschreiben":9805,"ĠberÃ¼hmte":9806,"ĠHaltung":9807,"ĠZurÃ¼ck":9808,"ĠfÃ¤hig":9809,"Schauen":9810,"ĠSagen":9811,"ĠKonst":9812,"blatt":9813,"ĠErfahrungen":9814,"ĠVereinigten":9815,"Ġakzeptieren":9816,"ĠWichser":9817,"ori":9818,"ĠlÃ¤ng":9819,"ĠtÃ¼r":9820,"Ġunschuldig":9821,"ĠSchreibtisch":9822,"trieb":9823,"ĠVÃ¤ter":9824,"ĠChancen":9825,"ĠSchreie":9826,"Ġberuhigt":9827,"rÃ¤nkt":9828,"ly":9829,"Ġflei":9830,"ĠFebruar":9831,"istent":9832,"ĠAnspruch":9833,"schluÃŁ":9834,"grÃ¶":9835,"ĠSy":9836,"ĠerÃ¶ff":9837,"Ġversprach":9838,"Ã¤tzlich":9839,"ĠLeder":9840,"Bleiben":9841,"Ġentfernen":9842,"stieg":9843,"ĠInseln":9844,"onstr":9845,"sweise":9846,"ĠfÃ¼rchter":9847,"Ġgesungen":9848,"Ġgemeldet":9849,"Ġnormale":9850,"Etwa":9851,"ĠCousin":9852,"ĠKartoffeln":9853,"ĠMoskau":9854,"station":9855,"ĠWÃ¤nde":9856,"ĠGeschwindigkeit":9857,"Ġgesamten":9858,"ĠWille":9859,"Ġwomit":9860,"Ġheben":9861,"ĠRas":9862,"ĠStroh":9863,"Ġentr":9864,"ĠGemÃ¤lde":9865,"ĠSebastian":9866,"Ġhau":9867,"Ġwiederum":9868,"Ġerfuhr":9869,"unkeln":9870,"ĠGemeinschaft":9871,"ĠSarah":9872,"ĠAnhÃ¤nger":9873,"klar":9874,"ĠLebe":9875,"Ġfreiwillig":9876,"habe":9877,"Ġverschwand":9878,"ĠJulia":9879,"stre":9880,"Ġscheiden":9881,"ĠFront":9882,"ohnung":9883,"quis":9884,"ĠSchnau":9885,"ĠStudio":9886,"ĠDrehbuch":9887,"aal":9888,"drei":9889,"sonst":9890,"ĠTÃ¤nzer":9891,"usse":9892,"ĠKapitel":9893,"ĠbestÃ¤tigt":9894,"ĠKommando":9895,"ĠJakob":9896,"ĠAufgaben":9897,"Ġeleg":9898,"Tsch":9899,"ĠDutzen":9900,"ĠUniform":9901,"Ġberichten":9902,"ĠAufregung":9903,"auto":9904,"ĠEntscheidungen":9905,"Leben":9906,"ep":9907,"ĠkÃ¶st":9908,"trolle":9909,"ĠPfeil":9910,"ĠhauptsÃ¤chlich":9911,"Ġbesetzt":9912,"Ġgefl":9913,"Klingt":9914,"ĠBurschen":9915,"27":9916,"Ġgelehr":9917,"ĠOster":9918,"antin":9919,"ĠTabl":9920,"Ġgeflogen":9921,"Ġgelben":9922,"ĠGebet":9923,"ĠSchneider":9924,"Ġgespannt":9925,"Ġderselbe":9926,"untern":9927,"Ġginge":9928,"brachte":9929,"rÃ¤ul":9930,"Ġherrlich":9931,"ĠScheck":9932,"ĠNoten":9933,"ĠZaun":9934,"ecker":9935,"lers":9936,"Ġkind":9937,"Ġgelo":9938,"ĠLisa":9939,"ĠNaz":9940,"Ġziehst":9941,"Ġwid":9942,"ĠTop":9943,"dorf":9944,"Ã¼mer":9945,"Trau":9946,"pap":9947,"ani":9948,"Ã¼nder":9949,"Ġledig":9950,"Ġbewaff":9951,"Ġbeigebracht":9952,"Ġverbrannt":9953,"Ã¤chte":9954,"Ã¼rger":9955,"ĠtrÃ¤umen":9956,"wiegen":9957,"zipl":9958,"Ġvergiss":9959,"Ġschweigen":9960,"ĠBuck":9961,"Ġleeren":9962,"Ġgrund":9963,"note":9964,"Ġren":9965,"zeige":9966,"ĠMÃ¶bel":9967,"24":9968,"hut":9969,"ĠKandid":9970,"Ġverlo":9971,"Ġstol":9972,"Ġerstaun":9973,"stau":9974,"Ġstimmen":9975,"rÃ¼ckten":9976,"Ġdrum":9977,"ĠTexas":9978,"ĠRegisseur":9979,"ĠMÃ¼tter":9980,"ĠFels":9981,"ado":9982,"Ġbereitet":9983,"ĠZauberer":9984,"ĠZwie":9985,"Ã¤rten":9986,"Ġvertreten":9987,"ĠBibliothek":9988,"Ġnimmer":9989,"anien":9990,"Ġbar":9991,"inieren":9992,"Ġattr":9993,"ĠServ":9994,"Ġzweif":9995,"ĠOberflÃ¤che":9996,"ĠWeihnachtsmann":9997,"ĠBomben":9998,"krÃ¶":9999}